<unk>	0
<s>	0
</s>	0
s	-3.47831
.	-3.66821
,	-3.84751
▁	-4.28772
▁the	-4.31436
▁to	-4.55252
▁and	-4.57574
▁of	-4.76556
-	-4.8783
▁a	-4.88355
:	-4.99229
▁in	-5.03913
▁I	-5.33437
▁for	-5.35894
)	-5.37205
▁(	-5.41505
▁is	-5.50047
ing	-5.51213
▁-	-5.53538
t	-5.65148
’	-5.70196
/	-5.70312
d	-5.70774
▁on	-5.74297
▁you	-5.74413
ed	-5.74494
▁►	-5.78442
'	-5.78453
▁&	-5.83816
e	-5.8824
▁with	-5.88805
▁that	-5.89357
▁at	-5.91981
▁The	-5.94278
▁by	-6.08491
er	-6.11092
▁it	-6.12193
▁1	-6.13704
▁your	-6.14868
a	-6.14933
▁be	-6.20799
!	-6.22623
▁this	-6.22856
▁are	-6.24871
▁A	-6.25944
▁(1)	-6.26987
y	-6.27265
_	-6.32981
S	-6.33211
▁or	-6.37088
▁2	-6.39209
m	-6.40186
?	-6.48672
▁from	-6.48875
▁have	-6.49656
...	-6.50524
n	-6.51794
i	-6.52176
▁|	-6.52844
▁as	-6.54164
o	-6.56095
ly	-6.57775
▁3	-6.58585
▁S	-6.59912
r	-6.60842
▁not	-6.61396
(	-6.63717
al	-6.70811
▁was	-6.71691
es	-6.74306
▁2019	-6.74559
c	-6.75077
▁an	-6.7535
▁C	-6.77539
▁can	-6.78799
▁Reply	-6.79189
▁will	-6.82906
▁In	-6.83467
▁my	-6.83546
▁all	-6.83574
re	-6.83887
▁4	-6.84459
▁5	-6.86305
▁/	-6.87553
▁we	-6.88626
com	-6.9048
in	-6.90903
▁about	-6.91116
1	-6.92399
▁10	-6.93998
2	-6.94582
▁more	-6.94594
▁–	-6.94941
A	-6.95661
b	-6.96037
▁All	-6.97447
C	-7.0119
▁me	-7.02583
▁our	-7.03506
th	-7.04311
B	-7.04454
g	-7.05206
▁E	-7.05244
"	-7.0604
▁T	-7.06234
▁B	-7.06885
▁but	-7.07874
▁0	-7.08118
▁so	-7.09595
k	-7.10172
▁P	-7.11254
▁(2)	-7.12398
▁D	-7.13125
▁May	-7.13839
f	-7.13985
;	-7.14159
▁2018	-7.14471
▁6	-7.14835
F	-7.16912
▁Home	-7.18773
D	-7.18786
▁“	-7.19069
▁has	-7.19094
▁up	-7.19296
▁out	-7.19942
]	-7.20561
▁M	-7.21463
▁am	-7.22036
▁2017	-7.23605
▁New	-7.24056
▁one	-7.24087
x	-7.24206
ers	-7.24611
T	-7.24884
▁"	-7.24934
▁You	-7.251
▁12	-7.25184
3	-7.25608
▁We	-7.26209
▁[	-7.26447
or	-7.27211
p	-7.28639
▁if	-7.28968
▁they	-7.29341
▁This	-7.29403
▁7	-7.29532
▁do	-7.29774
M	-7.29959
▁new	-7.30169
▁file	-7.30984
l	-7.31183
h	-7.31293
=	-7.31496
en	-7.31666
▁January	-7.32524
▁2016	-7.3264
▁like	-7.33338
▁G	-7.33951
▁It	-7.34203
▁11	-7.34823
▁8	-7.34983
P	-7.35527
▁time	-7.35567
▁he	-7.3558
4	-7.35841
▁F	-7.37584
▁L	-7.37836
▁no	-7.37905
K	-7.38987
▁K	-7.39337
▁pm	-7.39455
▁Contact	-7.40055
▁View	-7.40862
▁their	-7.40868
ve	-7.41085
▁LikeLike	-7.413
▁de	-7.41399
▁us	-7.4216
▁2020	-7.42272
▁9	-7.42378
▁R	-7.43015
▁2015	-7.43056
L	-7.44565
u	-7.45334
G	-7.45658
on	-7.47377
▁2014	-7.47803
▁To	-7.48312
▁Search	-7.48421
▁About	-7.4851
▁#	-7.48602
W	-7.50649
5	-7.51322
▁Re	-7.51409
▁June	-7.51668
▁Us	-7.52438
▁For	-7.52551
E	-7.52726
▁what	-7.5275
▁N	-7.53593
an	-7.54279
▁March	-7.54311
://	-7.54527
▁July	-7.55225
6	-7.55575
v	-7.55732
w	-7.55892
R	-7.56297
▁J	-7.56571
▁W	-7.57273
▁April	-7.57328
I	-7.5765
▁re	-7.57823
▁December	-7.57985
▁O	-7.58943
▁H	-7.59161
▁*	-7.59264
▁Your	-7.59343
▁said	-7.59744
▁just	-7.59839
▁19	-7.6003
▁August	-7.6053
▁other	-7.60658
H	-7.60715
▁February	-7.60919
ll	-7.61031
▁November	-7.61432
▁(3)	-7.61492
▁his	-7.61869
▁get	-7.61927
▁My	-7.61964
▁2013	-7.62127
▁News	-7.62649
N	-7.62665
▁would	-7.63202
▁who	-7.6333
▁October	-7.63768
▁+	-7.63988
▁which	-7.64403
V	-7.64869
▁when	-7.64969
▁any	-7.65218
▁September	-7.66028
▁been	-7.66987
▁More	-7.67945
▁use	-7.68395
▁i	-7.68525
▁20	-7.6886
▁V	-7.69022
▁how	-7.69909
▁people	-7.70187
0	-7.70327
z	-7.70641
▁there	-7.70786
▁No	-7.7123
”	-7.71302
▁also	-7.71627
able	-7.7294
▁2012	-7.73021
le	-7.73247
us	-7.75326
7	-7.75706
to	-7.75802
▁some	-7.76313
▁Add	-7.76428
▁manual	-7.76593
▁And	-7.76756
▁15	-7.76792
▁18	-7.773
▁short	-7.77643
▁13	-7.78184
man	-7.7851
▁over	-7.80053
▁available	-7.80273
▁them	-7.80589
▁had	-7.81025
ar	-7.81028
▁Mar	-7.81474
▁(4)	-7.81752
▁Not	-7.82811
ic	-7.82833
8	-7.82997
▁only	-7.83618
▁may	-7.84028
}}	-7.84386
▁here	-7.84469
▁2011	-7.84886
9	-7.8497
co	-7.85156
▁says	-7.85306
ation	-7.86497
▁16	-7.86503
▁14	-7.87103
▁By	-7.87814
▁Free	-7.87933
▁work	-7.88586
▁were	-7.88821
▁make	-7.89135
▁know	-7.89513
is	-7.89559
Y	-7.89668
▁e	-7.89926
▁U	-7.90016
▁than	-7.90501
▁her	-7.90543
▁DOC	-7.90563
it	-7.90779
▁PM	-7.91359
▁If	-7.91849
▁Our	-7.9308
▁Jan	-7.93208
▁Email	-7.94229
▁information	-7.94936
J	-7.94953
▁now	-7.9518
▁$	-7.95294
▁back	-7.95309
▁What	-7.95723
▁17	-7.95785
▁because	-7.95908
▁description	-7.96498
el	-7.96655
ia	-7.96807
id	-7.97415
▁into	-7.97842
▁Policy	-7.98815
ion	-7.9931
▁years	-7.99607
X	-7.99718
▁see	-8.0037
▁'	-8.00497
▁How	-8.00802
if	-8.01155
at	-8.0125
▁good	-8.01789
O	-8.02019
am	-8.02814
▁email	-8.03071
▁Privacy	-8.0309
$	-8.03176
ive	-8.03434
▁first	-8.03448
▁Blog	-8.03995
▁He	-8.04194
▁very	-8.04388
▁)	-8.0461
▁30	-8.05079
▁Facebook	-8.05115
▁post	-8.05117
▁So	-8.05192
▁don	-8.05299
+	-8.05753
j	-8.06371
▁X	-8.06441
▁love	-8.06642
ry	-8.06831
▁(5)	-8.06919
▁need	-8.07445
▁data	-8.07788
▁best	-8.07919
).	-8.08148
ur	-8.0881
▁help	-8.09496
▁AM	-8.09761
▁home	-8.09998
▁©	-8.10008
▁De	-8.10023
▁these	-8.10071
de	-8.10254
▁Post	-8.10438
▁way	-8.11263
▁much	-8.11864
ton	-8.11893
▁day	-8.12382
▁St	-8.12619
▁Accessories	-8.13628
ment	-8.13802
ity	-8.13898
▁{	-8.1427
▁well	-8.14287
ra	-8.1444
▁21	-8.14649
▁On	-8.15004
▁v	-8.15027
▁should	-8.15153
▁Sign	-8.15262
>	-8.15611
up	-8.16137
▁...	-8.16571
this	-8.1675
▁24	-8.16776
▁un	-8.16809
▁think	-8.16849
▁free	-8.17376
▁want	-8.17806
▁Services	-8.18069
▁go	-8.18209
ch	-8.18293
age	-8.18531
ist	-8.18948
▁site	-8.18968
ne	-8.19555
10	-8.19697
▁most	-8.19831
▁Dec	-8.19845
te	-8.20129
▁year	-8.20256
▁filter	-8.20313
▁25	-8.20397
▁La	-8.20449
um	-8.20763
▁through	-8.20811
▁after	-8.20924
▁c	-8.21028
▁p	-8.21885
il	-8.22505
▁}	-8.22697
est	-8.23503
▁22	-8.23954
▁great	-8.24035
▁ago	-8.24276
st	-8.24655
▁2010	-8.2468
▁pdf	-8.24746
▁Twitter	-8.25105
▁person	-8.25113
ul	-8.25402
ie	-8.25411
▁website	-8.25653
▁many	-8.25942
▁Co	-8.26082
▁found	-8.26315
na	-8.26582
▁Health	-8.26849
▁where	-8.27155
▁life	-8.27555
▁Price	-8.27622
▁Service	-8.27923
▁PDF	-8.28602
▁http	-8.28712
▁Do	-8.28842
▁she	-8.28947
▁Business	-8.29
▁Nov	-8.29059
▁Apply	-8.29083
Z	-8.29346
▁find	-8.29365
et	-8.29502
▁content	-8.29706
me	-8.29959
▁2009	-8.30157
▁Read	-8.30379
▁x	-8.30467
▁could	-8.30647
▁blog	-8.31534
▁01	-8.31586
▁Cart	-8.31615
ine	-8.31805
▁even	-8.32153
▁»	-8.32279
▁{{	-8.32402
and	-8.32413
▁23	-8.32534
▁=	-8.32595
▁Share	-8.32711
▁Sep	-8.32837
▁made	-8.33102
▁its	-8.33245
▁Top	-8.33392
▁Get	-8.33648
U	-8.33699
*	-8.33703
▁really	-8.34138
▁(6)	-8.34157
▁right	-8.34249
▁online	-8.34341
▁Shop	-8.34517
be	-8.34574
▁Pro	-8.34733
▁then	-8.34743
▁off	-8.34773
&	-8.34791
ty	-8.34902
▁South	-8.3496
ant	-8.35022
▁service	-8.3514
ro	-8.35231
▁Back	-8.35622
li	-8.35659
▁Me	-8.3615
▁Apr	-8.36176
un	-8.36397
▁Day	-8.36517
▁Oct	-8.36608
ies	-8.36621
▁two	-8.36851
▁>	-8.36852
▁using	-8.37087
▁(0)	-8.37227
▁Aug	-8.37321
▁@	-8.37824
▁US	-8.37946
son	-8.38002
▁d	-8.38081
▁Jul	-8.38321
▁Please	-8.38564
no	-8.38689
▁School	-8.38721
▁world	-8.38883
▁him	-8.39108
ma	-8.39178
land	-8.39255
▁But	-8.39305
ri	-8.39331
▁per	-8.39421
▁:	-8.39458
▁take	-8.39557
▁Car	-8.39598
▁account	-8.3998
@	-8.3998
ta	-8.40156
("	-8.40237
▁Best	-8.40399
▁Page	-8.4082
▁28	-8.40971
▁Jun	-8.41026
▁Name	-8.41265
▁Z	-8.41545
12	-8.41667
▁Airport	-8.41972
▁•	-8.42043
▁Terms	-8.42341
ce	-8.42428
▁such	-8.43087
ter	-8.43101
▁Posts	-8.43228
▁read	-8.43359
▁Information	-8.43462
18	-8.43618
▁As	-8.43904
ian	-8.44017
▁Y	-8.44101
▁Sale	-8.44156
▁With	-8.44242
▁Feb	-8.44443
ling	-8.44498
ent	-8.44799
▁Go	-8.44841
),	-8.45159
▁being	-8.45174
▁before	-8.45869
▁b	-8.47016
▁08	-8.47236
ness	-8.47393
rs	-8.4749
▁under	-8.48147
▁Out	-8.48164
▁page	-8.48288
ate	-8.48776
▁t	-8.49027
▁05	-8.49148
▁07	-8.49165
the	-8.49172
▁04	-8.49224
▁g	-8.49393
ary	-8.49793
▁Events	-8.49821
▁used	-8.50028
▁Be	-8.50044
16	-8.501
▁Music	-8.50157
▁Now	-8.50267
▁m	-8.50361
as	-8.50428
▁those	-8.50664
▁World	-8.50762
▁(7)	-8.50931
▁27	-8.50963
▁03	-8.51147
▁26	-8.51148
▁book	-8.51218
▁An	-8.51232
▁too	-8.51373
▁02	-8.51391
go	-8.51538
▁‘	-8.51556
▁Women	-8.51742
20	-8.51864
▁City	-8.52025
▁Center	-8.52179
▁Of	-8.5219
▁Support	-8.52286
▁Al	-8.5243
▁Le	-8.52852
▁09	-8.52855
ir	-8.52859
▁Log	-8.5301
▁There	-8.53392
la	-8.53466
▁Art	-8.53497
▁own	-8.53644
[	-8.54024
▁MG	-8.54029
function	-8.54538
▁29	-8.55019
▁business	-8.55126
line	-8.55275
▁Black	-8.55771
▁Book	-8.5581
▁set	-8.55811
▁Product	-8.55831
▁last	-8.55884
11	-8.55989
▁days	-8.56142
ad	-8.56229
ol	-8.56646
ut	-8.57098
▁look	-8.57122
▁06	-8.57205
www	-8.5725
▁One	-8.57527
▁going	-8.5765
▁down	-8.57852
▁University	-8.57964
▁bed	-8.57971
lo	-8.58136
▁Posted	-8.58365
less	-8.58455
▁part	-8.58505
os	-8.58989
▁con	-8.59205
im	-8.5928
▁comment	-8.59336
▁still	-8.5946
01	-8.59504
▁long	-8.5957
▁share	-8.59669
▁Other	-8.59843
Q	-8.59882
▁Media	-8.60095
▁f	-8.60123
▁Care	-8.60392
▁Products	-8.60555
▁design	-8.60915
q	-8.61003
ak	-8.61158
▁support	-8.61197
da	-8.61197
▁Up	-8.61517
▁price	-8.61722
▁product	-8.61727
▁did	-8.6193
▁See	-8.62104
){	-8.62158
pe	-8.62392
▁100	-8.62713
▁Bar	-8.62809
▁experience	-8.63065
▁50	-8.63091
▁around	-8.63302
▁Online	-8.635
▁—	-8.64273
▁That	-8.64314
▁high	-8.6435
▁English	-8.64498
▁end	-8.64692
▁Pre	-8.64848
▁Design	-8.65006
ance	-8.65028
▁same	-8.65246
html	-8.65251
out	-8.65347
▁(8)	-8.65628
▁say	-8.65716
ism	-8.65741
▁Copyright	-8.65798
▁every	-8.65999
▁Men	-8.66194
30	-8.66492
▁United	-8.67063
▁Man	-8.67411
▁never	-8.67727
▁She	-8.68148
▁things	-8.68243
▁better	-8.68311
▁top	-8.68423
▁<	-8.68613
mo	-8.68653
▁El	-8.69085
▁Google	-8.69092
▁name	-8.69191
▁Video	-8.69212
▁en	-8.69338
mm	-8.69345
00	-8.69457
▁place	-8.69605
▁High	-8.69608
▁line	-8.69652
▁without	-8.69688
▁Air	-8.69706
ha	-8.69712
▁Show	-8.69755
▁cookies	-8.70096
▁Un	-8.70125
▁again	-8.7018
ca	-8.70222
▁always	-8.70296
▁Mo	-8.70305
14	-8.7033
ga	-8.70348
▁Con	-8.70452
24	-8.70529
▁different	-8.70618
▁w	-8.70697
19	-8.7076
▁Help	-8.70799
▁la	-8.70849
▁Research	-8.7092
▁Review	-8.70925
ex	-8.71208
▁products	-8.71225
▁Thank	-8.71264
▁Account	-8.71293
ER	-8.71528
ke	-8.71552
▁Thanks	-8.71711
net	-8.71929
\	-8.71946
25	-8.71975
▁full	-8.72009
▁2008	-8.72069
ba	-8.72121
40	-8.72497
17	-8.72514
}	-8.72604
60	-8.72611
▁Food	-8.72677
▁Life	-8.72691
▁Click	-8.72701
▁system	-8.72735
▁Community	-8.72909
▁From	-8.7296
09	-8.73098
▁does	-8.73106
15	-8.7311
.”	-8.73152
▁Resources	-8.73205
▁Follow	-8.73332
▁order	-8.73366
22	-8.7351
▁come	-8.73812
|	-8.73837
▁They	-8.73875
▁car	-8.74049
ING	-8.74275
▁Find	-8.74462
▁Comments	-8.74501
The	-8.74577
▁while	-8.74607
▁Travel	-8.74698
▁sure	-8.74759
▁Park	-8.74937
▁Login	-8.75099
se	-8.75491
▁Can	-8.75508
50	-8.7554
var	-8.7555
▁next	-8.75653
▁Like	-8.7569
▁each	-8.75734
▁size	-8.75764
▁both	-8.75817
="	-8.75936
▁must	-8.75983
▁Training	-8.76068
é	-8.76327
IN	-8.76501
▁State	-8.76594
▁List	-8.76911
▁number	-8.77059
▁co	-8.77238
▁Company	-8.77273
ley	-8.77274
",	-8.77515
▁·	-8.77558
);	-8.77617
▁little	-8.77703
ge	-8.77927
one	-8.7805
US	-8.78052
▁family	-8.78174
▁County	-8.78193
ner	-8.78477
▁Time	-8.78563
▁Data	-8.78631
▁please	-8.7871
▁https	-8.78975
min	-8.79082
▁Love	-8.79166
ial	-8.79177
▁Menu	-8.7936
21	-8.79453
org	-8.79472
▁Select	-8.79592
▁When	-8.79662
▁North	-8.79707
▁list	-8.79806
▁National	-8.79854
▁Replies	-8.79864
ED	-8.79965
▁something	-8.80142
▁John	-8.8017
▁pre	-8.80247
▁k	-8.80292
▁31	-8.80316
▁Quick	-8.80607
▁At	-8.80754
▁review	-8.80789
▁Di	-8.80851
▁small	-8.8088
▁Subscribe	-8.81042
▁Power	-8.81043
▁search	-8.81131
▁Date	-8.81178
▁International	-8.81372
per	-8.81441
ated	-8.81595
▁House	-8.81861
▁few	-8.82179
by	-8.82247
▁Full	-8.82285
▁Site	-8.82359
pm	-8.82483
tion	-8.82619
▁feel	-8.82843
▁address	-8.82858
ting	-8.82932
▁Use	-8.83078
▁Dr	-8.83222
13	-8.83325
▁man	-8.83354
▁Hi	-8.83723
▁view	-8.83727
▁(9)	-8.83728
▁Q	-8.83941
▁Team	-8.83972
▁keep	-8.84014
▁room	-8.84031
▁cart	-8.8414
®	-8.84258
80	-8.84415
▁show	-8.84528
▁services	-8.8473
▁team	-8.84765
MG	-8.84923
▁di	-8.84928
▁week	-8.85136
%	-8.85247
ti	-8.85273
32	-8.85279
▁First	-8.85402
▁Jobs	-8.85468
▁Education	-8.85496
▁between	-8.8555
▁Water	-8.85614
▁lot	-8.8597
75	-8.86033
▁Website	-8.86115
Re	-8.86347
▁white	-8.86419
▁contact	-8.86458
▁user	-8.86558
▁change	-8.86656
In	-8.86941
▁Download	-8.87069
▁n	-8.87083
ard	-8.87173
▁General	-8.87269
▁THE	-8.87348
ka	-8.87532
den	-8.87903
▁Collection	-8.88286
▁(10)	-8.88336
64	-8.88404
▁Office	-8.88417
con	-8.88547
33	-8.88626
▁water	-8.88779
90	-8.88824
▁Web	-8.88901
end	-8.89018
▁today	-8.8925
▁San	-8.89298
▁add	-8.89363
▁Inc	-8.89436
▁Na	-8.89519
ish	-8.89542
▁l	-8.89551
uk	-8.8956
▁video	-8.89804
▁Last	-8.89811
▁Management	-8.89833
▁College	-8.89892
ler	-8.90109
▁God	-8.90235
45	-8.90275
▁posts	-8.90319
ah	-8.90327
▁American	-8.90472
▁including	-8.90559
io	-8.90577
▁Open	-8.90616
▁Social	-8.90624
va	-8.90878
▁give	-8.9095
▁pro	-8.91113
nd	-8.91216
▁Week	-8.91222
▁CA	-8.91441
ten	-8.91553
▁Change	-8.91626
▁Close	-8.91853
▁Reviews	-8.91868
ous	-8.92271
▁hard	-8.9246
48	-8.92464
tar	-8.92507
▁Year	-8.92659
▁Sports	-8.92712
▁Categories	-8.92795
▁2007	-8.93023
▁Join	-8.93144
▁40	-8.93152
▁Real	-8.93217
▁History	-8.93312
▁r	-8.93488
▁care	-8.9355
que	-8.93651
▁$1	-8.93795
▁light	-8.93854
▁Books	-8.93948
▁Type	-8.94174
▁Ha	-8.94213
ac	-8.94275
▁got	-8.94428
▁Green	-8.9444
▁White	-8.94494
ating	-8.94503
▁company	-8.94582
▁another	-8.94654
▁comments	-8.94711
▁real	-8.94818
▁Guide	-8.94866
▁provide	-8.95108
▁€	-8.95263
28	-8.95357
▁(12)	-8.95405
▁Skip	-8.95461
▁Group	-8.95509
▁check	-8.95587
04	-8.95642
▁point	-8.95893
#	-8.95902
▁60	-8.96015
23	-8.96219
▁Good	-8.96277
▁(13)	-8.96372
▁ideas	-8.96445
:00	-8.96545
03	-8.96672
ig	-8.96764
ence	-8.96796
ite	-8.96808
▁start	-8.96859
35	-8.97067
▁Special	-8.97169
do	-8.97234
▁Tools	-8.97282
ina	-8.97447
▁try	-8.97496
▁access	-8.97675
lin	-8.97694
▁West	-8.97712
▁Council	-8.97724
▁Report	-8.97753
ron	-8.97758
▁link	-8.97845
▁head	-8.97867
▁(11)	-8.97902
▁TV	-8.97918
ors	-8.97987
55	-8.98017
he	-8.98379
▁wall	-8.98444
▁might	-8.98453
ci	-8.98774
▁since	-8.98934
▁game	-8.99033
▁old	-8.9906
▁jobs	-8.99157
▁#>	-8.99305
▁doc	-8.99306
▁En	-8.99539
49	-8.99746
▁Work	-8.99946
▁Ra	-9.00141
▁play	-9.00153
▁health	-9.00183
ise	-9.00265
▁Or	-9.00402
▁personal	-9.00548
▁Program	-9.00871
▁India	-9.00917
op	-9.00957
time	-9.00986
▁(14)	-9.01099
▁why	-9.01147
▁Call	-9.01237
▁<#	-9.01376
pa	-9.01496
27	-9.01498
▁×	-9.01569
▁Christmas	-9.01604
26	-9.01608
▁Details	-9.01667
for	-9.01759
▁Science	-9.02062
▁Size	-9.02219
▁Phone	-9.02405
ai	-9.02543
▁owners	-9.02551
29	-9.0266
▁window	-9.027
ang	-9.02966
▁looking	-9.03061
au	-9.03154
▁Red	-9.03373
()	-9.03452
▁h	-9.03492
ster	-9.03553
▁within	-9.03688
▁1,	-9.03705
▁Development	-9.0371
port	-9.0379
▁Library	-9.03938
▁Family	-9.04184
▁Box	-9.04264
▁results	-9.0428
02	-9.0432
ver	-9.04383
▁live	-9.0445
▁buy	-9.0456
▁public	-9.04572
▁women	-9.04707
di	-9.04923
ful	-9.05002
▁items	-9.05032
▁Li	-9.05065
ip	-9.05146
,"	-9.05202
ES	-9.05312
val	-9.05316
tra	-9.05325
▁Series	-9.05414
65	-9.05611
▁house	-9.05744
▁Cancel	-9.05759
ze	-9.05888
▁Forum	-9.05938
▁Play	-9.05982
▁months	-9.0601
ee	-9.06089
▁case	-9.06135
of	-9.06148
▁control	-9.06169
▁IN	-9.06202
tor	-9.06247
-1	-9.06279
▁power	-9.06305
ham	-9.06309
▁Order	-9.06408
▁Buy	-9.06515
AL	-9.06553
bo	-9.06746
▁Live	-9.06775
▁thing	-9.06794
we	-9.06843
▁Star	-9.06899
ienungsanleitung	-9.0693
▁TO	-9.0695
▁big	-9.07106
0.00	-9.07283
▁Rights	-9.07317
▁details	-9.07415
▁table	-9.07486
▁Electric	-9.07621
▁Next	-9.07652
▁story	-9.07706
ted	-9.07832
▁sale	-9.0787
ical	-9.07921
▁hand	-9.07993
▁job	-9.0831
ap	-9.08364
▁$2	-9.08381
▁Diagram	-9.08387
▁working	-9.08577
em	-9.08647
ja	-9.08689
▁open	-9.08706
▁three	-9.08764
▁Great	-9.0878
▁put	-9.08879
▁large	-9.08972
OR	-9.08997
▁Press	-9.09006
▁via	-9.09103
▁reading	-9.09179
▁Photo	-9.09245
▁UK	-9.09261
dy	-9.09365
05	-9.094
ana	-9.09569
way	-9.09688
!!	-9.09811
▁Recent	-9.09905
▁{{/	-9.10016
ung	-9.10091
der	-9.10155
▁during	-9.10273
▁Browse	-9.10359
EN	-9.10608
▁side	-9.10705
▁Non	-9.1073
▁Club	-9.10815
▁York	-9.10861
▁called	-9.10887
LE	-9.10973
▁Sa	-9.11038
▁Technology	-9.11039
▁Public	-9.1128
▁let	-9.1133
▁receive	-9.11413
▁school	-9.11423
39	-9.11429
▁o	-9.11433
▁Register	-9.11445
▁books	-9.11564
▁food	-9.11777
▁hours	-9.11802
▁area	-9.11816
name	-9.11906
44	-9.1198
▁st	-9.1198
les	-9.11982
▁Shipping	-9.11983
▁kind	-9.12008
▁Law	-9.12059
▁money	-9.12184
▁War	-9.12318
▁Downloads	-9.12434
54	-9.12436
▁Why	-9.12545
46	-9.12573
▁People	-9.12578
▁call	-9.12607
▁Road	-9.12627
▁Job	-9.12647
▁rights	-9.12714
31	-9.12734
▁Files	-9.12829
▁Islands	-9.12927
42	-9.12986
ub	-9.13014
▁Blue	-9.13115
▁WordPress	-9.13129
mp	-9.13172
day	-9.13182
▁Here	-9.1323
▁j	-9.13371
get	-9.1344
▁web	-9.13453
side	-9.13549
TM	-9.13556
ology	-9.13562
▁//	-9.13584
▁making	-9.13643
IT	-9.13658
url	-9.13666
▁Pa	-9.13779
▁Board	-9.13801
▁already	-9.13848
▁non	-9.13904
ier	-9.13953
▁Gift	-9.14049
85	-9.14122
po	-9.14136
▁below	-9.1431
('	-9.14378
▁research	-9.14414
▁Part	-9.14829
mer	-9.14843
▁Save	-9.14936
▁dis	-9.1496
▁Light	-9.14968
all	-9.15062
▁main	-9.15085
▁Learn	-9.15145
▁States	-9.15149
ko	-9.15158
52	-9.15221
▁Bo	-9.15402
▁INR	-9.15528
▁course	-9.15556
my	-9.15576
▁local	-9.15694
ning	-9.15744
▁Parts	-9.15993
our	-9.16044
▁kitchen	-9.16061
▁children	-9.16121
▁Per	-9.16289
▁ever	-9.16315
▁black	-9.16447
▁news	-9.16494
ru	-9.16512
▁art	-9.1655
▁item	-9.16598
99	-9.16671
▁agree	-9.16681
▁Location	-9.16812
▁away	-9.16833
98	-9.16835
▁Her	-9.16981
▁hope	-9.17018
▁America	-9.17097
▁Store	-9.17278
▁left	-9.17347
▁Make	-9.17426
88	-9.17516
38	-9.17532
light	-9.1765
▁Ho	-9.17759
tic	-9.17786
▁visit	-9.17882
ID	-9.17912
58	-9.17924
hi	-9.18117
&&	-9.18183
▁form	-9.18195
86	-9.18244
36	-9.18301
▁bit	-9.18369
▁Mi	-9.18393
ide	-9.1844
▁Mac	-9.18505
▁£	-9.18553
▁Security	-9.18595
▁System	-9.18777
▁important	-9.18866
▁mi	-9.18908
▁Gallery	-9.18975
ni	-9.19129
▁After	-9.19235
▁Comment	-9.19366
▁Instagram	-9.19407
▁night	-9.19419
▁Head	-9.19446
▁didn	-9.19473
▁Project	-9.19621
qui	-9.1972
ab	-9.19756
Delete	-9.19776
▁offer	-9.19785
59	-9.19806
▁vs	-9.19807
▁Map	-9.19849
▁policy	-9.20057
▁else	-9.20258
▁%	-9.20388
▁FAQ	-9.20508
▁These	-9.2059
▁Control	-9.20624
set	-9.20639
▁Calendar	-9.20676
▁Don	-9.20729
▁social	-9.20795
▁USA	-9.20806
gen	-9.20808
▁2,	-9.20837
ho	-9.20915
over	-9.20968
▁article	-9.21044
sh	-9.21126
wa	-9.21306
▁Info	-9.21326
72	-9.21352
▁Digital	-9.21381
▁17,	-9.2147
▁Wishlist	-9.21632
▁against	-9.21799
▁process	-9.21835
▁Address	-9.21839
▁sex	-9.21867
▁type	-9.21952
lan	-9.21959
ice	-9.21971
oc	-9.21999
▁fun	-9.22194
▁added	-9.22294
▁info	-9.22368
06	-9.22606
▁(15)	-9.22731
▁var	-9.22902
▁Street	-9.22949
▁special	-9.23021
▁date	-9.23031
▁Color	-9.23164
▁easy	-9.23235
ator	-9.23249
AS	-9.23332
▁quality	-9.2335
66	-9.23361
▁Profile	-9.23446
▁se	-9.23557
field	-9.237
▁2006	-9.23843
▁class	-9.23863
34	-9.23872
56	-9.23938
▁East	-9.23965
▁Pe	-9.23993
▁Check	-9.24067
▁Kids	-9.24141
▁media	-9.24521
▁download	-9.24537
▁Customer	-9.2456
▁able	-9.24593
62	-9.24747
▁Mark	-9.24768
▁Just	-9.2478
▁Ar	-9.24822
▁series	-9.24841
▁Card	-9.2487
bar	-9.24942
php	-9.24965
▁market	-9.25144
▁Links	-9.25226
▁PARACETAMOL	-9.25272
▁Mobile	-9.25565
▁living	-9.25576
ft	-9.2558
84	-9.25609
63	-9.25625
mb	-9.25652
CA	-9.25729
▁code	-9.25744
▁project	-9.25775
▁transfer	-9.25927
▁following	-9.26146
AC	-9.26187
LA	-9.26324
▁Lo	-9.26485
▁End	-9.26502
▁follow	-9.2653
▁London	-9.26735
68	-9.26738
▁create	-9.2675
▁Most	-9.26772
▁Author	-9.26789
▁Estate	-9.26801
za	-9.26856
е	-9.26949
▁community	-9.27011
▁China	-9.27044
41	-9.27054
▁together	-9.27249
▁thought	-9.2726
▁Baby	-9.27356
▁Network	-9.27473
▁mind	-9.27586
ping	-9.27652
▁believe	-9.27679
▁CO	-9.27699
70	-9.27719
wood	-9.27947
ware	-9.28159
▁DE	-9.28167
-10	-9.28401
▁country	-9.28403
▁having	-9.28455
vo	-9.28552
▁16,	-9.2859
51	-9.28592
▁far	-9.28632
ville	-9.28663
mail	-9.28689
ber	-9.28781
▁Am	-9.28841
ure	-9.28928
work	-9.28992
-5	-9.29031
▁Create	-9.29039
▁heart	-9.29106
▁Ad	-9.29113
96	-9.29139
data	-9.29176
▁done	-9.29329
▁Super	-9.29363
▁yet	-9.2941
ey	-9.29524
▁Are	-9.29542
board	-9.2955
return	-9.29604
▁understand	-9.29618
pt	-9.29714
▁Stock	-9.29822
▁Hand	-9.29891
ization	-9.29932
▁Room	-9.29941
▁problem	-9.30057
▁Games	-9.30185
▁state	-9.30296
ized	-9.30299
▁development	-9.30346
URL	-9.30453
▁group	-9.30481
top	-9.30547
ities	-9.30643
▁Medical	-9.30699
▁Sun	-9.30853
▁style	-9.31023
▁Archives	-9.31044
▁Auto	-9.31056
▁based	-9.31059
▁pay	-9.31067
▁David	-9.31097
▁cost	-9.31161
ger	-9.31164
83	-9.31207
67	-9.3125
▁getting	-9.31485
ford	-9.31531
▁human	-9.31532
▁Cat	-9.31537
AR	-9.31567
▁learn	-9.31584
▁AND	-9.3161
▁Comp	-9.31674
▁Who	-9.31707
▁space	-9.31798
men	-9.31806
92	-9.31809
▁less	-9.3185
tin	-9.3189
ach	-9.31959
▁Friday	-9.32001
▁Related	-9.32005
▁Big	-9.32033
ya	-9.32097
:30	-9.32186
▁above	-9.32356
▁Playlist	-9.3244
▁Class	-9.32511
▁Ko	-9.32512
▁Du	-9.32623
▁music	-9.32626
").	-9.32632
43	-9.3266
08	-9.32736
91	-9.32853
ally	-9.32865
82	-9.3287
▁Game	-9.32919
37	-9.32938
▁Canada	-9.32978
▁Mon	-9.33009
Diagram	-9.33053
▁Personal	-9.33086
▁Island	-9.33128
▁until	-9.33138
gi	-9.33151
87	-9.33172
500	-9.3319
▁question	-9.33243
▁past	-9.33293
▁Watch	-9.33336
http	-9.33381
rd	-9.33431
OS	-9.33459
▁writing	-9.33464
▁times	-9.33496
▁Code	-9.33534
▁Local	-9.33594
pi	-9.33631
▁navigation	-9.33655
94	-9.33684
▁return	-9.33831
▁$3	-9.3384
▁Videos	-9.33986
▁Yes	-9.34082
hr	-9.34131
▁--	-9.34165
ix	-9.3425
100	-9.34397
book	-9.34407
▁Member	-9.34459
73	-9.34568
▁someone	-9.34653
▁Title	-9.34721
▁Newsletter	-9.34843
61	-9.34854
▁doing	-9.34959
▁card	-9.34964
57	-9.34996
▁event	-9.35042
▁🙂	-9.35099
▁bar	-9.35131
ash	-9.35183
▁air	-9.35274
▁Conditions	-9.35421
mi	-9.35428
▁Let	-9.35457
▁Over	-9.35459
▁questions	-9.35507
▁}}	-9.35507
▁Oil	-9.35558
ot	-9.35713
▁Bags	-9.35737
▁Leave	-9.35741
▁Key	-9.35759
list	-9.35854
▁method	-9.35895
▁low	-9.35912
▁Pinterest	-9.35953
▁Global	-9.36052
53	-9.36086
▁office	-9.36165
▁Safety	-9.36179
▁Main	-9.36199
▁SO	-9.36231
ran	-9.36425
▁Content	-9.36442
▁Gold	-9.36511
▁required	-9.36595
use	-9.36635
▁season	-9.36652
▁32	-9.36664
▁Dis	-9.36787
07	-9.36876
▁Wall	-9.36901
▁true	-9.36942
▁Visit	-9.36953
の	-9.36975
▁enough	-9.36987
ik	-9.37021
47	-9.37067
▁RE	-9.37082
▁Manager	-9.37118
▁fence	-9.37135
▁Shoes	-9.37398
▁plan	-9.37429
▁value	-9.37454
▁possible	-9.37483
▁OF	-9.375
▁month	-9.37503
▁Software	-9.37512
sa	-9.37609
▁doesn	-9.37716
ec	-9.37764
▁image	-9.38006
{	-9.38116
▁run	-9.38205
ative	-9.38275
▁text	-9.38301
▁45	-9.38362
▁though	-9.38383
79	-9.38408
title	-9.38489
▁10,	-9.38547
back	-9.38633
▁guide	-9.38653
–	-9.38708
▁key	-9.38725
ship	-9.38739
▁reviews	-9.38748
ui	-9.38802
▁11,	-9.38825
▁actually	-9.3894
ette	-9.38963
▁(16)	-9.38972
▁Print	-9.39056
74	-9.39096
IS	-9.39141
▁travel	-9.39164
▁Link	-9.39209
▁Ka	-9.3927
▁body	-9.39324
▁Australia	-9.39328
▁include	-9.39336
om	-9.39359
bit	-9.39473
▁range	-9.39576
ita	-9.396
▁Bank	-9.3961
TA	-9.39644
▁3,	-9.39653
▁Steel	-9.39692
▁Department	-9.39771
▁Country	-9.398
81	-9.39816
tro	-9.39821
▁sp	-9.39901
OL	-9.40155
▁Lu	-9.40162
▁become	-9.40221
▁15,	-9.40248
▁35	-9.40343
▁Ma	-9.40405
▁Rock	-9.40407
ven	-9.40514
bi	-9.40596
ue	-9.40669
▁future	-9.40688
93	-9.40738
lu	-9.40798
AM	-9.40804
71	-9.40922
▁least	-9.41118
▁Wood	-9.41198
tain	-9.41254
▁men	-9.4126
▁Children	-9.41295
ward	-9.41329
▁second	-9.41431
▁training	-9.41497
▁history	-9.41582
ug	-9.41629
▁cannot	-9.41643
ium	-9.41678
▁Ta	-9.41705
ica	-9.41758
▁Kit	-9.41798
▁law	-9.41895
▁{{#	-9.42018
ag	-9.42045
▁options	-9.42089
mon	-9.42156
▁Lake	-9.42325
▁Ver	-9.42351
▁perfect	-9.42366
▁California	-9.42449
▁Republic	-9.42474
▁friends	-9.4269
▁beautiful	-9.427
tal	-9.42724
▁sub	-9.42754
nt	-9.42815
ow	-9.42817
▁Tour	-9.42822
▁Latest	-9.42914
well	-9.42934
each	-9.4295
▁current	-9.42967
▁Today	-9.43045
▁Set	-9.43112
▁Mr	-9.43135
ck	-9.43169
ud	-9.43234
76	-9.43245
▁13,	-9.43325
▁Tips	-9.4335
▁Style	-9.43426
▁Master	-9.43428
▁App	-9.43508
off	-9.43512
ez	-9.4353
▁level	-9.43553
▁everything	-9.43593
▁students	-9.43625
▁Long	-9.43641
▁Po	-9.43673
69	-9.43717
▁program	-9.43754
▁phone	-9.43825
▁Vi	-9.43827
▁sa	-9.43874
▁happy	-9.43963
▁ha	-9.43966
▁Overview	-9.43972
▁color	-9.44064
ries	-9.44116
▁browser	-9.44192
▁makes	-9.44201
▁app	-9.44345
5.00	-9.4446
▁Plan	-9.44515
ney	-9.44526
▁offers	-9.44544
▁Har	-9.44726
ON	-9.4478
▁enter	-9.44904
▁kids	-9.44906
▁face	-9.44911
▁›	-9.45051
▁Test	-9.45064
ding	-9.45122
的	-9.45191
▁Staff	-9.45228
ino	-9.45253
vi	-9.45306
▁Insurance	-9.4536
▁TAB	-9.45364
ens	-9.45424
▁MA	-9.45504
▁mo	-9.45517
▁close	-9.4553
,”	-9.45562
▁talk	-9.45635
—	-9.457
▁Student	-9.45778
▁fact	-9.45811
▁Number	-9.45842
ick	-9.45852
▁words	-9.45909
▁Sales	-9.45912
▁password	-9.45912
▁government	-9.45923
▁across	-9.4596
▁stay	-9.4604
MA	-9.46069
her	-9.46134
▁super	-9.46148
RA	-9.46201
▁Paul	-9.46243
▁Ro	-9.46272
home	-9.46317
▁Send	-9.46318
▁Off	-9.46406
▁Marketing	-9.46417
ken	-9.46484
▁started	-9.465
á	-9.46663
▁Delivery	-9.4669
ong	-9.46814
▁latest	-9.46836
▁Reserved	-9.46986
-12	-9.47009
ي	-9.47082
▁Se	-9.47315
▁Systems	-9.47331
▁Some	-9.47379
ng	-9.47397
EL	-9.47425
art	-9.47492
▁issues	-9.47497
▁anything	-9.47542
▁PA	-9.47579
▁complete	-9.47579
▁Night	-9.47676
ep	-9.47801
king	-9.47839
IA	-9.47897
▁Compare	-9.48013
▁often	-9.48014
red	-9.48051
▁collection	-9.4807
▁↓	-9.48099
ast	-9.48196
▁Jo	-9.48222
▁Tri	-9.48225
▁Enter	-9.48292
RE	-9.48309
▁version	-9.4832
▁Archive	-9.4832
▁Professional	-9.4836
ile	-9.48428
▁French	-9.48445
▁others	-9.48481
▁Category	-9.48543
▁reserved	-9.48613
span	-9.48628
bb	-9.48714
oo	-9.48757
▁city	-9.48772
▁NEW	-9.488
▁du	-9.48845
-4	-9.48871
▁USD	-9.48893
▁Fire	-9.4891
ring	-9.48914
▁Ben	-9.48955
ual	-9.49018
▁minutes	-9.49174
▁store	-9.49183
▁Brand	-9.49191
▁Central	-9.49219
can	-9.49253
▁Loading	-9.49341
▁win	-9.49357
▁Pet	-9.49368
ker	-9.49398
▁means	-9.49402
▁Well	-9.49407
iz	-9.49477
▁Popular	-9.49518
▁18,	-9.4952
▁Tags	-9.49557
roi	-9.4963
▁won	-9.49657
||	-9.49659
▁tell	-9.49721
▁Party	-9.49795
ph	-9.49796
▁storage	-9.49802
▁Request	-9.49815
▁[1	-9.49887
▁age	-9.49906
TS	-9.49915
▁le	-9.49972
▁Cross	-9.50012
▁Pan	-9.50082
han	-9.50171
let	-9.50197
▁Round	-9.50247
▁function	-9.5027
▁Description	-9.50299
▁enjoy	-9.50351
ture	-9.5042
▁9,	-9.50444
-3	-9.50459
▁Password	-9.50495
▁once	-9.50516
▁came	-9.50537
▁idea	-9.50601
und	-9.50673
▁2005	-9.50822
pro	-9.50906
▁mar	-9.50966
-6	-9.50967
ny	-9.50982
▁Su	-9.50986
▁Kits	-9.51044
89	-9.51083
▁(17)	-9.51169
▁Tech	-9.51203
▁building	-9.51303
▁Schedule	-9.51335
▁www	-9.5142
95	-9.5158
▁click	-9.51585
▁wood	-9.51599
▁Gifts	-9.51608
▁Sha	-9.51711
▁Awards	-9.51713
ize	-9.51735
▁credit	-9.51896
ible	-9.5191
▁Event	-9.51934
▁write	-9.52091
▁Sea	-9.52123
▁Plus	-9.52141
▁Hot	-9.52157
▁Case	-9.52187
▁needs	-9.52195
eg	-9.52228
▁Under	-9.52233
price	-9.52234
ea	-9.52298
IL	-9.523
log	-9.52387
▁Access	-9.52414
uff	-9.52442
▁near	-9.52543
▁Filter	-9.52566
▁Ga	-9.52625
")	-9.52691
▁Conference	-9.52694
si	-9.52904
▁Small	-9.5293
","	-9.52954
▁$4	-9.53129
▁door	-9.53179
▁bad	-9.53202
▁Any	-9.53206
▁RSS	-9.53217
78	-9.53226
ions	-9.53241
▁British	-9.53378
▁front	-9.53384
ر	-9.53411
97	-9.53483
▁25,	-9.53509
▁Will	-9.53512
▁Custom	-9.53527
▁Articles	-9.53631
▁Hair	-9.53778
[/	-9.53793
▁Sort	-9.53796
▁Film	-9.53855
ura	-9.53878
▁move	-9.53927
▁Ba	-9.53966
▁party	-9.54026
▁everyone	-9.54067
▁subject	-9.54091
ving	-9.54136
▁Cur	-9.54212
fa	-9.54226
▁million	-9.54236
。	-9.54266
();	-9.54296
▁went	-9.54298
▁Da	-9.54444
▁Beach	-9.54706
tu	-9.54727
gue	-9.54763
-2	-9.54796
▁Submit	-9.54804
▁po	-9.54821
▁Sunday	-9.54917
▁Area	-9.54931
▁etc	-9.54954
▁Journal	-9.55019
▁self	-9.5503
length	-9.5505
▁field	-9.55072
▁Article	-9.5525
▁Market	-9.55259
▁Powered	-9.55271
▁ex	-9.55298
----------------	-9.5533
ose	-9.5548
▁Total	-9.55526
read	-9.55676
▁clear	-9.55696
ki	-9.55721
PS	-9.55722
▁whole	-9.55737
ther	-9.55745
▁IT	-9.55839
▁events	-9.55877
▁report	-9.55889
box	-9.559
jo	-9.55974
res	-9.56019
▁repairs	-9.56059
/10	-9.56102
amp	-9.56166
▁Charle	-9.56188
▁author	-9.56245
▁Line	-9.56299
▁mean	-9.56309
▁36	-9.56465
SA	-9.56476
▁sign	-9.56507
▁Sp	-9.56582
▁Living	-9.56684
▁SE	-9.56697
▁Brussels	-9.56827
▁Jersey	-9.56889
▁stock	-9.56896
ray	-9.56944
▁professional	-9.56976
▁Spring	-9.57029
link	-9.57029
▁ca	-9.57045
▁links	-9.57163
▁Gu	-9.57201
▁vi	-9.57233
▁Edition	-9.57307
▁features	-9.57331
▁Start	-9.57347
gar	-9.57367
▁Item	-9.57438
▁technology	-9.57497
▁child	-9.575
▁third	-9.57509
SE	-9.5754
▁NY	-9.57548
▁Solutions	-9.57566
ME	-9.57673
yl	-9.57687
▁Equipment	-9.57695
▁(19	-9.57994
▁single	-9.57999
▁provided	-9.58095
▁14,	-9.58125
av	-9.58153
▁Sat	-9.58364
form	-9.58473
post	-9.58513
▁along	-9.58545
▁22,	-9.58577
ST	-9.58599
▁Quote	-9.586
▁Arts	-9.58646
▁Featured	-9.58703
▁ma	-9.58709
▁network	-9.58788
che	-9.58838
ل	-9.58971
(){	-9.5898
old	-9.58981
▁study	-9.5901
▁100%	-9.59116
ack	-9.59221
▁friend	-9.59249
▁al	-9.59295
▁build	-9.59354
▁Hall	-9.59372
ct	-9.5938
▁District	-9.59392
▁Africa	-9.59434
▁Body	-9.59464
د	-9.5947
▁Says	-9.59663
public	-9.59682
▁Kitchen	-9.59741
▁y	-9.59794
▁Language	-9.5983
▁position	-9.59842
ified	-9.59873
▁Advanced	-9.59885
pkg	-9.59899
▁sc	-9.59906
▁result	-9.5991
▁test	-9.59985
▁natural	-9.59988
To	-9.60034
▁26,	-9.60057
▁Cor	-9.60121
▁21,	-9.6013
ell	-9.60167
▁management	-9.6029
▁Multi	-9.60313
▁young	-9.60371
pp	-9.60398
ris	-9.60441
ET	-9.60459
▁sent	-9.6047
▁James	-9.60481
▁Sex	-9.6052
▁TABLETS	-9.60566
с	-9.6058
▁Bio	-9.60645
▁amazing	-9.60759
▁reason	-9.60811
▁6,	-9.60814
▁12,	-9.60841
▁His	-9.60848
▁Careers	-9.6087
ps	-9.60871
▁Europe	-9.61018
▁Bay	-9.61046
▁furniture	-9.61048
▁map	-9.6105
▁trying	-9.61103
▁Wedding	-9.61136
▁Engine	-9.61162
▁meet	-9.61165
▁4,	-9.61266
▁industry	-9.61273
▁given	-9.61279
▁5,	-9.61338
ib	-9.61367
▁Table	-9.61371
des	-9.61441
▁nice	-9.61482
act	-9.61545
▁Michael	-9.61549
▁Legal	-9.61558
▁model	-9.61578
▁members	-9.61679
▁Amazon	-9.61855
▁24,	-9.61867
▁later	-9.61876
▁steel	-9.61883
ek	-9.61895
▁Ni	-9.61927
▁pretty	-9.61985
▁Fa	-9.61988
▁Monday	-9.62
hu	-9.62012
ich	-9.62016
▁purchase	-9.62109
▁photo	-9.6214
▁Have	-9.62162
iv	-9.6222
▁User	-9.62269
▁property	-9.62272
▁Hu	-9.62378
▁Photos	-9.62516
▁FREE	-9.62601
▁70	-9.62643
Share	-9.62794
ification	-9.62851
int	-9.629
CRL	-9.62931
-19	-9.62939
ama	-9.62947
▁Act	-9.62954
▁Issue	-9.62962
ition	-9.62998
▁comes	-9.63012
▁present	-9.63015
</	-9.63017
▁da	-9.63019
▁log	-9.6315
house	-9.63164
▁bathroom	-9.63196
▁Screen	-9.63197
tre	-9.63247
▁23,	-9.63249
▁Previous	-9.6326
1)	-9.63273
▁Ne	-9.63321
hy	-9.63335
▁Drive	-9.63401
▁request	-9.63456
▁Land	-9.63601
▁na	-9.63643
");	-9.63663
▁Cases	-9.63728
▁27,	-9.638
▁Ball	-9.63859
▁Welcome	-9.63886
▁However	-9.63981
▁Credit	-9.63986
▁29,	-9.64009
AT	-9.64029
▁pain	-9.64095
!!!	-9.64115
▁(1	-9.64135
▁Model	-9.64168
▁Audio	-9.64198
-8	-9.64199
▁Garden	-9.64211
▁Finance	-9.64224
▁step	-9.64246
▁extra	-9.64261
ara	-9.64422
▁example	-9.64473
Pro	-9.6448
▁Cha	-9.64519
▁paper	-9.64533
▁issue	-9.64543
any	-9.64582
▁soon	-9.64587
▁porn	-9.64609
▁Battery	-9.64617
▁Windows	-9.64633
▁thanks	-9.64635
▁FOR	-9.64671
du	-9.64704
▁simple	-9.64721
▁favorite	-9.64755
type	-9.648
pl	-9.64889
▁member	-9.6501
▁rate	-9.65011
▁performance	-9.65091
ff	-9.65106
-20	-9.65175
▁Bill	-9.65187
▁(18)	-9.65296
▁Client	-9.65421
▁repair	-9.65423
▁River	-9.65444
▁Form	-9.65449
▁Cards	-9.65455
▁ask	-9.65546
▁II	-9.65615
AD	-9.65626
▁Ja	-9.65657
▁due	-9.65697
▁Magazine	-9.65757
ability	-9.65856
▁fall	-9.65882
▁took	-9.65906
."	-9.65932
▁Human	-9.65944
▁Pin	-9.66015
▁48	-9.66024
▁France	-9.66025
ay	-9.66076
▁Results	-9.66076
jpg	-9.66277
▁fire	-9.66345
▁language	-9.6637
ok	-9.6639
▁companies	-9.664
▁hot	-9.66419
TH	-9.66465
▁30,	-9.6647
▁UN	-9.66541
▁Message	-9.66581
▁cover	-9.66667
▁told	-9.667
":	-9.6681
▁pa	-9.66848
rc	-9.66936
▁Dog	-9.66953
ñ	-9.66975
▁seen	-9.66976
▁message	-9.66997
▁Centre	-9.67033
▁ja	-9.67035
▁stop	-9.67081
▁customer	-9.67141
▁reply	-9.67156
ock	-9.67255
▁send	-9.6732
▁20,	-9.67382
CO	-9.67412
▁Engineering	-9.67438
▁Ex	-9.67463
▁Also	-9.67505
▁el	-9.67609
chi	-9.67706
▁floor	-9.67709
so	-9.67715
▁anyone	-9.67747
part	-9.67811
cher	-9.67867
▁green	-9.67872
rie	-9.67935
▁Te	-9.68122
▁terms	-9.68154
▁£1	-9.6816
▁Pay	-9.68234
▁Shopping	-9.68253
ef	-9.68303
▁28,	-9.68367
not	-9.6841
Opens	-9.68417
200	-9.68427
▁continue	-9.68466
').	-9.68561
▁modern	-9.68565
▁Beauty	-9.686
▁several	-9.68631
▁wish	-9.6864
▁Only	-9.68656
▁im	-9.68677
▁red	-9.68695
":"	-9.68778
▁Christian	-9.68842
▁deal	-9.68851
▁Story	-9.68866
▁8,	-9.68917
▁Manual	-9.6893
-11	-9.68985
▁oil	-9.69024
ants	-9.69033
▁YouTube	-9.69048
▁Ch	-9.69051
▁interest	-9.69055
▁Front	-9.69071
▁menu	-9.69076
▁either	-9.69153
▁Bra	-9.69188
▁Paper	-9.69218
ی	-9.69246
▁Action	-9.69324
▁box	-9.69332
▁wait	-9.69343
▁Old	-9.69391
ev	-9.69448
▁Building	-9.69453
▁probably	-9.69467
▁President	-9.69572
▁et	-9.69584
▁yourself	-9.69592
uch	-9.69605
▁fa	-9.69679
▁Financial	-9.69696
▁rest	-9.69705
▁Summer	-9.69708
▁7,	-9.69733
▁forward	-9.69781
▁feed	-9.69937
ji	-9.69958
▁Jazz	-9.70035
▁Tra	-9.7005
▁watch	-9.70059
down	-9.70069
▁Low	-9.70212
):	-9.70229
▁works	-9.70261
▁games	-9.70291
app	-9.70294
о	-9.70378
▁File	-9.70397
▁bo	-9.70418
text	-9.70475
▁ba	-9.70516
rate	-9.70518
▁taking	-9.70564
▁early	-9.70597
uck	-9.70615
▁seems	-9.70621
▁save	-9.70694
▁min	-9.70743
▁(2	-9.70822
ada	-9.7083
▁Ab	-9.70837
right	-9.70962
▁2004	-9.71012
4)	-9.71076
▁Pen	-9.7109
▁Sch	-9.71144
▁war	-9.71169
▁Wiring	-9.7117
▁Current	-9.71177
ane	-9.71229
▁Sam	-9.71297
▁ST	-9.71339
▁sales	-9.71341
а	-9.71368
▁Season	-9.71488
ren	-9.71504
▁AS	-9.7151
▁Sport	-9.7162
▁Two	-9.7167
▁pe	-9.71782
▁($	-9.7179
▁Short	-9.71841
▁Vol	-9.71924
sp	-9.71944
▁film	-9.71945
▁Robert	-9.71956
je	-9.7199
▁needed	-9.72022
EE	-9.72043
▁Win	-9.72043
▁CD	-9.72104
MS	-9.7211
▁bring	-9.72129
▁500	-9.72189
▁Truck	-9.72293
▁Clothing	-9.72295
▁33	-9.72306
▁original	-9.72332
▁Outdoor	-9.72383
▁Storage	-9.72415
zz	-9.72444
▁Classic	-9.72495
▁34	-9.7252
▁Harry	-9.72534
▁moment	-9.72572
ins	-9.7259
▁Look	-9.72609
▁fl	-9.72617
▁shop	-9.72647
▁improve	-9.72656
▁photos	-9.72704
▁Government	-9.72776
▁Energy	-9.72848
▁weeks	-9.7292
▁Property	-9.72952
ult	-9.72959
▁Apple	-9.7305
▁Final	-9.73051
mark	-9.73104
▁Fashion	-9.73138
▁38	-9.73146
▁Ri	-9.73167
9.99	-9.73191
▁Internet	-9.73227
▁Fi	-9.73246
▁related	-9.73273
▁four	-9.73288
ado	-9.73318
▁profile	-9.73327
head	-9.73343
▁ME	-9.73412
▁Silver	-9.7344
▁Remove	-9.73487
row	-9.73502
▁Payment	-9.73507
press	-9.7357
▁Score	-9.73636
▁cool	-9.73644
az	-9.73646
cent	-9.73651
▁Director	-9.7367
▁answer	-9.7373
▁pick	-9.73741
▁Where	-9.73745
▁Mini	-9.73754
▁leave	-9.73782
ERS	-9.73792
▁couple	-9.7383
▁choose	-9.73833
▁word	-9.739
▁Fe	-9.7395
▁uses	-9.73967
ments	-9.73975
▁FL	-9.74051
har	-9.74076
ox	-9.7415
▁Cam	-9.74169
sis	-9.74183
п	-9.74204
▁comp	-9.74221
iff	-9.74325
▁Saint	-9.74333
▁Learning	-9.74373
▁Cookie	-9.74374
▁HP	-9.74516
▁turn	-9.74517
▁OR	-9.74546
▁tax	-9.7455
▁ID	-9.74571
▁80	-9.7466
▁images	-9.74663
cm	-9.74668
ists	-9.7468
▁action	-9.74693
▁Take	-9.74742
▁Pi	-9.74747
IC	-9.74749
9.00	-9.74775
▁Cookies	-9.74814
▁screen	-9.74878
▁pool	-9.74948
don	-9.751
▁software	-9.75124
▁su	-9.75143
▁Hill	-9.75148
ade	-9.75309
NA	-9.7532
TER	-9.75341
▁matter	-9.75357
cy	-9.75386
▁fit	-9.75389
▁Mor	-9.75429
DE	-9.75446
▁Repair	-9.75491
▁Radio	-9.75564
static	-9.75574
▁education	-9.75583
▁touch	-9.75589
▁Senior	-9.75601
ala	-9.75681
▁source	-9.75704
▁Gar	-9.75736
CC	-9.75744
▁Wi	-9.75802
Con	-9.75818
▁safe	-9.75886
code	-9.75907
▁Court	-9.7591
▁changes	-9.75922
▁200	-9.75951
▁customers	-9.75951
▁trade	-9.75953
▁Mc	-9.7597
▁icon	-9.7611
▁myself	-9.76115
▁role	-9.76131
▁Middle	-9.76167
▁wanted	-9.76218
ped	-9.7624
▁Hotel	-9.76262
▁Trade	-9.76276
▁LA	-9.76294
▁19,	-9.76424
fi	-9.76478
▁«	-9.76502
RI	-9.76514
ised	-9.76554
▁Fri	-9.76588
▁Brown	-9.76611
▁amount	-9.76616
br	-9.76624
▁energy	-9.76627
ute	-9.76647
▁Single	-9.76677
▁commenting	-9.76705
▁Daily	-9.76749
▁Max	-9.76789
▁quite	-9.7679
illa	-9.76821
▁Church	-9.76836
UM	-9.76871
▁Track	-9.7689
▁Chi	-9.77119
▁Ti	-9.77159
▁hair	-9.77202
▁coming	-9.77242
kin	-9.77249
px	-9.77268
ular	-9.77274
IE	-9.77336
▁Sub	-9.77364
gg	-9.77413
▁focus	-9.77419
▁Self	-9.77421
▁Physician	-9.77441
▁Band	-9.77523
▁Rose	-9.7754
▁Questions	-9.77546
▁sh	-9.77557
▁Washington	-9.77585
▁King	-9.77595
▁Required	-9.7763
▁Sitemap	-9.77637
▁ALL	-9.77656
▁location	-9.77658
▁nothing	-9.77739
▁Saturday	-9.77744
▁Sal	-9.77891
▁views	-9.77902
▁star	-9.78047
▁MO	-9.78079
2)	-9.78183
IM	-9.78217
show	-9.7822
▁KB	-9.78287
▁Grand	-9.78322
▁Driver	-9.7834
▁Indian	-9.78347
▁Association	-9.78393
▁li	-9.78401
content	-9.78402
▁Van	-9.7842
ore	-9.78448
ense	-9.78457
▁bi	-9.78587
▁Field	-9.78602
bu	-9.78617
▁Chapter	-9.78627
▁Inter	-9.78672
/]	-9.78759
wear	-9.78789
▁Studio	-9.78789
▁Award	-9.78796
istic	-9.78799
▁almost	-9.78817
▁husband	-9.78968
▁HD	-9.78972
▁2000	-9.79013
▁(19)	-9.79049
TE	-9.791
▁Continue	-9.79143
▁Available	-9.79153
▁Kingdom	-9.79204
▁Ed	-9.79231
mar	-9.79279
ect	-9.79328
ations	-9.79344
room	-9.79377
▁cut	-9.79387
ari	-9.79421
fc	-9.79434
ify	-9.7944
https	-9.79474
▁specific	-9.79494
:15	-9.79498
▁z	-9.79519
DS	-9.79548
▁published	-9.79577
▁Need	-9.79586
▁machine	-9.79607
TO	-9.79615
▁Down	-9.79698
▁stories	-9.797
▁seat	-9.79721
▁board	-9.79733
▁apply	-9.79748
PA	-9.79836
у	-9.7984
▁League	-9.79857
▁Heart	-9.79876
▁skin	-9.7988
▁Images	-9.79891
▁simply	-9.79896
led	-9.79915
▁Institute	-9.79974
nes	-9.79999
▁tools	-9.80003
▁Dan	-9.80004
▁problems	-9.80063
MP	-9.80087
aw	-9.80135
▁track	-9.80138
▁videos	-9.80158
▁stuff	-9.80184
▁Si	-9.80185
▁BA	-9.80234
▁Bur	-9.80246
▁(20)	-9.80268
▁Entertainment	-9.80275
▁science	-9.80298
▁Stories	-9.80364
its	-9.80376
page	-9.80387
▁learning	-9.80394
▁Lab	-9.80395
▁security	-9.8044
▁remember	-9.80453
cc	-9.80466
▁risk	-9.80571
▁90	-9.80609
▁Peter	-9.80624
▁Notice	-9.80717
▁Thread	-9.80722
▁Industry	-9.80754
77	-9.80755
▁general	-9.80791
▁round	-9.80799
▁dress	-9.80801
▁Force	-9.80857
▁fast	-9.80881
ー	-9.80905
izing	-9.80914
▁Smart	-9.81015
-7	-9.81029
year	-9.81072
▁girl	-9.8112
▁cheap	-9.81177
▁Studies	-9.81191
▁treatment	-9.81233
▁Winter	-9.81328
▁Eye	-9.8133
▁Happy	-9.8135
▁Ford	-9.8136
▁Arm	-9.81385
▁known	-9.81406
▁written	-9.81493
▁Computer	-9.81506
▁→	-9.81509
▁Par	-9.81523
gra	-9.81637
▁knowledge	-9.81669
▁base	-9.81693
▁=>	-9.81713
▁common	-9.81731
▁longer	-9.81777
▁Port	-9.81786
▁Anti	-9.81831
▁AC	-9.81875
▁half	-9.81948
ever	-9.81976
▁55	-9.8204
▁Keep	-9.82077
▁00	-9.82102
▁Ltd	-9.82146
▁select	-9.82168
▁PC	-9.82279
▁Tax	-9.8238
▁inter	-9.82399
▁casino	-9.82425
▁Hard	-9.82451
ious	-9.82464
De	-9.82464
▁Items	-9.82581
▁[...]	-9.82734
ign	-9.82788
▁Image	-9.82805
▁Coffee	-9.82813
т	-9.82841
TI	-9.82877
▁SC	-9.83042
▁material	-9.83043
▁individual	-9.83047
▁period	-9.83053
sen	-9.8308
test	-9.83175
▁instruction	-9.83255
▁Cover	-9.83267
like	-9.8329
tan	-9.83299
▁MI	-9.83484
▁cause	-9.83499
AN	-9.83562
uit	-9.83584
UR	-9.83643
▁Standard	-9.83651
▁Borough	-9.83661
▁accept	-9.83698
▁land	-9.8372
▁Meet	-9.8373
▁blue	-9.8373
▁ensure	-9.83791
▁score	-9.83837
ena	-9.83887
▁dating	-9.83947
▁Metal	-9.83949
▁Russian	-9.83954
LY	-9.83966
▁Furniture	-9.83986
air	-9.83987
▁Large	-9.84009
▁$5	-9.84015
▁sharing	-9.84026
▁2003	-9.8405
▁_	-9.8407
▁BE	-9.84176
ging	-9.84196
▁SP	-9.84243
я	-9.84245
value	-9.84379
▁Level	-9.84523
▁interesting	-9.84569
▁42	-9.84609
▁unique	-9.84611
▁thank	-9.84613
NY	-9.84633
▁shall	-9.84656
▁Toggle	-9.84671
BA	-9.84676
▁break	-9.84728
key	-9.84741
xz	-9.84743
pos	-9.84749
CH	-9.84792
ration	-9.84804
▁display	-9.84828
▁bedroom	-9.84894
od	-9.84896
ties	-9.84905
▁print	-9.84914
▁Ke	-9.84982
▁wrong	-9.84996
ou	-9.85007
▁Chinese	-9.85047
ENT	-9.8508
▁Commercial	-9.8511
▁percent	-9.85111
low	-9.85138
▁hear	-9.8522
▁Cap	-9.85242
ky	-9.85345
▁ra	-9.85485
▁Feed	-9.85567
▁whether	-9.8557
▁center	-9.85601
ery	-9.85624
▁glass	-9.85625
▁wonderful	-9.85655
lock	-9.85711
▁target	-9.85726
▁private	-9.85742
image	-9.85747
INE	-9.85785
ough	-9.85847
▁Statement	-9.85874
▁Quantity	-9.85899
IP	-9.85937
nie	-9.85956
▁#1	-9.85957
▁Gas	-9.85973
town	-9.86013
▁Texas	-9.86023
3)	-9.86129
▁Features	-9.86138
Name	-9.86187
▁custom	-9.86191
▁trip	-9.86198
▁digital	-9.86224
UL	-9.86226
▁Girl	-9.86247
▁Supplies	-9.86271
▁major	-9.86366
▁baby	-9.86372
▁Forums	-9.86386
▁handbuch	-9.86395
/20	-9.86435
▁iPhone	-9.86443
ett	-9.86487
▁Note	-9.8659
vin	-9.86613
add	-9.86644
pre	-9.86712
▁AL	-9.8678
▁Logo	-9.86909
ory	-9.86923
▁conditions	-9.8695
ा	-9.8695
▁legal	-9.87012
▁points	-9.87016
▁further	-9.87021
▁Members	-9.87026
▁Partners	-9.87042
ole	-9.87047
▁Th	-9.87063
▁computer	-9.87064
ella	-9.87066
▁lost	-9.87069
ight	-9.87087
▁shipping	-9.8711
rk	-9.8714
▁ال	-9.87167
▁Farm	-9.8717
▁Age	-9.87178
lip	-9.87208
Ro	-9.87299
▁hit	-9.8736
width	-9.87411
▁Rating	-9.87416
:45	-9.87424
▁looks	-9.87429
▁allow	-9.8744
roll	-9.87446
rit	-9.87452
▁brand	-9.87584
▁Space	-9.8764
、	-9.87683
▁Performance	-9.87735
▁Sets	-9.87747
▁SA	-9.8775
+"	-9.87836
▁Micro	-9.87897
í	-9.87956
▁ball	-9.87972
eek	-9.87973
▁Private	-9.88005
▁Month	-9.88013
▁Protection	-9.88045
▁Floor	-9.88051
▁Motor	-9.88056
▁rather	-9.88075
bra	-9.88081
ern	-9.881
5%	-9.88103
ators	-9.88105
300	-9.88116
▁posted	-9.88121
▁Advertise	-9.88135
▁clean	-9.88136
▁marketing	-9.88147
▁Japan	-9.88147
▁Programs	-9.88194
▁ready	-9.88225
ani	-9.88232
▁Course	-9.88351
▁asked	-9.88397
▁especially	-9.88405
▁multi	-9.88444
▁systems	-9.88446
MO	-9.88453
▁Options	-9.88482
▁delivery	-9.88551
car	-9.88603
▁sites	-9.8866
stone	-9.88716
:10	-9.88716
▁walk	-9.88726
▁LED	-9.88726
ola	-9.8875
style	-9.88766
▁isn	-9.88768
▁Trump	-9.88791
▁mu	-9.88852
▁Annual	-9.8892
▁Clear	-9.88995
к	-9.89016
▁road	-9.8904
▁39	-9.89065
▁Girls	-9.89083
▁sense	-9.89091
ending	-9.8911
▁approach	-9.89127
ew	-9.89175
▁hold	-9.89192
▁DC	-9.89192
▁Reading	-9.89209
▁medical	-9.89227
▁Door	-9.89261
ria	-9.89287
dic	-9.89308
▁Valley	-9.89308
▁parts	-9.89309
LI	-9.89349
▁Asia	-9.89468
▁son	-9.89487
▁impact	-9.89605
▁similar	-9.89639
css	-9.8968
▁term	-9.89693
ن	-9.89748
▁Kar	-9.89802
▁Gen	-9.89831
▁Cal	-9.89847
▁financial	-9.89939
▁Bag	-9.89987
▁Wine	-9.90009
FA	-9.90026
▁OP	-9.90061
▁certain	-9.90144
6)	-9.90147
▁Sc	-9.9015
▁European	-9.90164
°	-9.90165
▁application	-9.90176
ン	-9.90197
▁Experience	-9.9024
▁projects	-9.90247
▁shopping	-9.90252
mg	-9.90314
med	-9.90374
▁Directory	-9.90375
▁37	-9.90381
new	-9.90398
▁Ru	-9.90449
ics	-9.90478
▁Medicine	-9.90505
▁total	-9.90513
▁Place	-9.90528
▁fi	-9.90556
cat	-9.90578
▁Ca	-9.907
nce	-9.90714
ord	-9.90724
م	-9.9073
▁Foundation	-9.90738
fer	-9.90831
▁Past	-9.90838
▁(21)	-9.9086
▁outside	-9.90862
ail	-9.90924
▁meeting	-9.90957
▁option	-9.90963
▁Italy	-9.90976
og	-9.90981
gu	-9.91016
7.17	-9.91023
▁Right	-9.9107
ux	-9.91075
▁Classical	-9.91123
▁auto	-9.91136
IO	-9.91172
▁NO	-9.91194
▁Signs	-9.91213
▁Christ	-9.91218
▁Tea	-9.91323
▁{{{	-9.91363
▁Oh	-9.91367
▁cat	-9.91429
▁Chat	-9.91444
▁taken	-9.91476
-01	-9.91488
▁dining	-9.91492
▁drive	-9.91521
▁behind	-9.91542
▁Edit	-9.91543
bel	-9.91577
cal	-9.91584
▁England	-9.91592
▁LinkedIn	-9.91672
▁ch	-9.91702
ets	-9.91751
▁plus	-9.91922
tri	-9.91957
PM	-9.91962
▁international	-9.9198
CI	-9.91985
▁Tuesday	-9.92022
/2019	-9.92025
▁chance	-9.92045
▁Thursday	-9.92046
▁Gear	-9.92064
tter	-9.92094
▁standard	-9.92101
▁rating	-9.9212
ini	-9.92122
tel	-9.92174
▁Martin	-9.92213
▁insurance	-9.92242
▁Photography	-9.92262
▁shows	-9.92268
▁Che	-9.92367
▁practice	-9.92406
water	-9.92433
▁Society	-9.92462
▁Dark	-9.92464
▁areas	-9.92472
▁movie	-9.92508
▁deep	-9.92527
▁Study	-9.92551
▁match	-9.92561
ender	-9.92655
▁instead	-9.92677
▁currently	-9.92691
▁Display	-9.92782
▁ge	-9.92804
▁Mount	-9.92869
▁?	-9.92912
▁note	-9.92937
van	-9.9294
rt	-9.92947
▁Town	-9.92948
▁global	-9.92966
▁44	-9.93011
▁Mod	-9.93076
eb	-9.931
▁;	-9.93121
gan	-9.93154
ele	-9.93167
▁Connect	-9.93186
cha	-9.93189
▁Students	-9.93214
SP	-9.93224
play	-9.93232
lic	-9.93245
▁Mountain	-9.93285
▁Germany	-9.93292
▁Practice	-9.93302
▁Machine	-9.93303
▁Cup	-9.93311
LO	-9.93311
▁Little	-9.93311
▁u	-9.93325
▁pass	-9.93462
▁Talk	-9.93489
▁upon	-9.93512
▁Writing	-9.93525
▁various	-9.93536
▁goes	-9.93562
▁Child	-9.93582
▁gold	-9.9359
▁late	-9.93594
н	-9.93605
▁additional	-9.93618
print	-9.93641
▁Thu	-9.93651
yn	-9.93683
zo	-9.93687
als	-9.93688
▁LLC	-9.93693
RO	-9.93709
▁final	-9.93787
view	-9.9383
▁Smith	-9.93921
▁Release	-9.93945
▁plant	-9.93948
▁Bi	-9.93999
oma	-9.94068
▁Brands	-9.94069
▁woman	-9.94071
▁skills	-9.94082
003	-9.94121
▁Natural	-9.9424
▁Galaxy	-9.94329
AP	-9.9435
▁While	-9.9435
-9	-9.94356
▁Trust	-9.94372
:"	-9.94426
▁Choose	-9.94461
▁stand	-9.94496
▁Culture	-9.94509
▁Glass	-9.94544
▁Bath	-9.94549
▁title	-9.94554
▁anti	-9.94598
▁Richard	-9.9465
▁Lord	-9.94688
null	-9.94704
▁Topics	-9.94719
▁kit	-9.94757
▁strong	-9.9482
▁pan	-9.94887
▁Cloud	-9.94913
▁(10	-9.94917
▁Corporate	-9.95004
▁(22)	-9.95019
▁Career	-9.95031
kan	-9.95035
lay	-9.95106
▁dog	-9.95188
/11	-9.9519
▁del	-9.95191
▁gr	-9.95206
mble	-9.95219
▁Grade	-9.95275
▁Money	-9.95343
8)	-9.95352
▁section	-9.9543
▁Fun	-9.95488
▁death	-9.95505
▁Carolina	-9.95553
ه	-9.95642
▁frame	-9.95687
▁gift	-9.95734
BS	-9.95738
/08	-9.95743
▁Toys	-9.95771
▁sl	-9.95785
▁Wednesday	-9.95866
▁Birthday	-9.9587
qu	-9.95871
▁Mexico	-9.95932
▁pack	-9.96005
▁Football	-9.96006
▁Potter	-9.96071
▁Regular	-9.96077
5)	-9.96079
ov	-9.96089
▁mis	-9.96109
▁Pop	-9.96131
▁dark	-9.96132
▁Dresses	-9.96169
▁41	-9.9625
UN	-9.96271
▁advice	-9.96277
▁Stone	-9.96279
▁Earth	-9.96328
Co	-9.96355
OT	-9.9636
▁Festival	-9.96415
▁picture	-9.9643
▁pictures	-9.96448
▁para	-9.96463
▁ne	-9.96463
▁interested	-9.96469
lar	-9.96497
free	-9.96535
▁Returns	-9.96538
▁AR	-9.96567
▁running	-9.96572
▁wedding	-9.96599
ku	-9.96608
▁Ph	-9.96643
ا	-9.96644
▁created	-9.96649
ms	-9.96663
▁DO	-9.96717
▁among	-9.96724
▁garden	-9.96737
▁sound	-9.9675
▁Cable	-9.9678
EC	-9.96804
▁five	-9.96811
pur	-9.96875
▁Ste	-9.97028
▁join	-9.97111
more	-9.97128
▁Holiday	-9.97146
MC	-9.97175
chan	-9.97224
▁saying	-9.97262
▁Know	-9.97273
▁increase	-9.97328
▁cr	-9.97382
SC	-9.97388
ram	-9.97388
ano	-9.97419
▁interview	-9.97434
str	-9.97487
▁weight	-9.97488
▁difference	-9.97615
▁likely	-9.97669
▁Teen	-9.97687
▁inside	-9.97688
▁MS	-9.97697
▁difficult	-9.97706
▁Mission	-9.97718
▁provides	-9.97759
2019	-9.97815
▁response	-9.97839
ero	-9.97848
New	-9.97867
▁summer	-9.9791
▁record	-9.9794
▁environment	-9.97951
▁Return	-9.97971
▁PRO	-9.97991
▁JavaScript	-9.98078
▁potential	-9.98079
CE	-9.9808
▁feeling	-9.98107
▁entry	-9.98134
▁seem	-9.98153
Price	-9.98154
▁ad	-9.98191
▁George	-9.9828
▁Cre	-9.98311
▁Fair	-9.98311
▁staff	-9.98327
▁users	-9.98357
ks	-9.9838
/06	-9.98416
-2019	-9.98506
▁com	-9.98516
load	-9.98561
▁BO	-9.98575
nn	-9.98581
Health	-9.98582
fe	-9.98598
▁recommend	-9.98687
▁Base	-9.98693
vis	-9.98704
▁~	-9.98762
▁Ge	-9.98773
:13	-9.98786
▁Server	-9.98903
▁Bob	-9.98917
▁saw	-9.98933
Stream	-9.98963
View	-9.98964
▁attend	-9.9899
▁0.0	-9.98999
▁tips	-9.99006
▁HO	-9.99011
▁ver	-9.99045
▁Challenge	-9.99061
▁Step	-9.99067
▁fan	-9.99067
▁Young	-9.991
▁ground	-9.99136
▁political	-9.99155
д	-9.99164
mit	-9.99216
ä	-9.99306
▁ho	-9.99311
gy	-9.99334
▁Fund	-9.99341
▁production	-9.99342
We	-9.99344
▁47	-9.99444
/#	-9.99489
▁pages	-9.99493
eh	-9.99509
▁Cool	-9.99528
ient	-9.99549
▁wide	-9.99593
▁quick	-9.99647
▁Tom	-9.99684
eep	-9.99696
▁Bu	-9.99716
tur	-9.99726
-1-	-9.99757
▁Source	-9.99779
▁success	-9.99808
▁Section	-9.99844
▁Retail	-9.99848
▁Rod	-9.99896
▁consider	-9.99912
lib	-9.99955
tz	-9.99998
▁Projects	-10.0009
▁unit	-10.0017
0)	-10.0019
▁Wa	-10.0019
▁Publications	-10.002
/16	-10.0021
▁Mary	-10.0027
▁vehicle	-10.0034
ius	-10.0034
▁bank	-10.0044
else	-10.0045
ric	-10.0047
▁Days	-10.005
wer	-10.0053
▁pet	-10.0057
▁viagra	-10.0061
SS	-10.0063
ied	-10.0064
▁thinking	-10.0071
▁situation	-10.0072
▁designed	-10.0072
▁Pages	-10.0078
▁Sh	-10.008
▁platform	-10.0082
▁Stainless	-10.0082
▁block	-10.0088
▁edition	-10.009
:25	-10.009
▁forum	-10.0094
cul	-10.0097
▁Nor	-10.0099
▁piece	-10.0111
▁Dress	-10.012
▁op	-10.0123
:40	-10.0129
400	-10.0131
▁Legarda	-10.0135
▁lead	-10.0138
▁Camp	-10.0149
EX	-10.0152
▁Pack	-10.0158
ination	-10.0158
▁sleep	-10.0159
▁includes	-10.0166
▁Then	-10.0168
▁NC	-10.0175
▁Fan	-10.0185
▁Side	-10.0188
▁==	-10.0189
:20	-10.019
<	-10.0196
▁Unknown	-10.0198
▁Text	-10.02
▁Pat	-10.0206
▁Los	-10.0213
▁worth	-10.0217
▁fine	-10.0222
▁Han	-10.0225
▁EN	-10.0226
▁Weather	-10.0226
▁Quality	-10.0227
▁RO	-10.0228
▁Vo	-10.0232
▁FAQs	-10.0232
▁Hospital	-10.0233
▁VAT	-10.0235
tt	-10.0239
▁Things	-10.0243
ans	-10.0244
▁recent	-10.0246
▁Bal	-10.0248
▁Fall	-10.025
oon	-10.0257
▁Youth	-10.0261
▁75	-10.0267
▁mobile	-10.0271
м	-10.0275
cing	-10.0277
▁Florida	-10.0279
▁Unit	-10.0284
ake	-10.0287
▁miles	-10.0288
ó	-10.0288
▁ka	-10.0289
lon	-10.0295
af	-10.0295
▁outdoor	-10.0297
▁Application	-10.0298
▁Index	-10.0299
Pa	-10.0302
▁resources	-10.0305
OM	-10.0312
▁privacy	-10.0319
×	-10.032
ima	-10.0322
▁topic	-10.0323
:17	-10.0324
▁statement	-10.0326
▁:)	-10.0328
▁OFF	-10.033
:26	-10.033
▁Used	-10.0332
▁reach	-10.0332
ison	-10.0333
в	-10.0335
This	-10.0338
tle	-10.0338
▁newsletter	-10.034
cl	-10.0346
▁German	-10.0352
▁Wash	-10.0357
▁Theme	-10.0358
▁Roll	-10.0362
RY	-10.0364
▁Golf	-10.0365
▁handle	-10.0371
▁Committee	-10.0378
▁Politics	-10.0378
▁Train	-10.038
▁31,	-10.0381
▁weekend	-10.0389
-05	-10.0392
▁Planning	-10.0395
▁Records	-10.0397
و	-10.0399
▁mother	-10.0401
▁Mail	-10.0401
max	-10.0402
▁Lock	-10.0403
▁choice	-10.0403
▁gra	-10.0406
▁Sound	-10.0412
▁Question	-10.0414
▁sun	-10.0415
▁cup	-10.0415
▁Notify	-10.0418
▁Tro	-10.0419
/12	-10.042
▁ac	-10.0426
▁received	-10.0427
qua	-10.043
No	-10.0431
:05	-10.0433
ы	-10.0436
ase	-10.0439
wi	-10.0443
▁loss	-10.0456
▁Spa	-10.0458
▁Creative	-10.0458
▁opportunity	-10.0462
▁expect	-10.0465
GB	-10.0466
fr	-10.0467
▁Cash	-10.0467
▁65	-10.0476
ement	-10.0477
tr	-10.0477
zy	-10.0477
▁attack	-10.0478
7)	-10.0478
▁Jack	-10.0483
▁articles	-10.0487
▁Tor	-10.0487
lia	-10.0489
▁plans	-10.0489
▁parents	-10.0489
blog	-10.049
▁Ideas	-10.0492
eu	-10.0492
TV	-10.0495
but	-10.0496
▁Analysis	-10.0502
▁Construction	-10.0502
▁Microsoft	-10.0502
▁300	-10.0505
position	-10.0505
▁Mer	-10.0505
ax	-10.0507
▁Version	-10.0508
▁imp	-10.0509
▁morning	-10.0513
▁Every	-10.0513
▁necessary	-10.0514
▁culture	-10.0516
▁format	-10.0518
▁Skin	-10.0519
▁Subject	-10.052
▁sort	-10.0529
▁Hours	-10.053
tes	-10.053
▁Reg	-10.0531
▁0.00	-10.0535
▁button	-10.0537
BC	-10.0538
▁Tu	-10.054
▁countries	-10.0543
▁port	-10.0552
▁lo	-10.0553
▁girls	-10.0555
based	-10.0556
BI	-10.0558
▁Reports	-10.056
▁analysis	-10.0572
▁wishlist	-10.0574
▁eye	-10.0577
:18	-10.0577
▁ob	-10.0582
▁Drink	-10.0583
-15	-10.0583
sha	-10.0586
oli	-10.0588
▁em	-10.06
▁Sand	-10.06
fl	-10.0602
▁hour	-10.0604
▁Royal	-10.0612
▁van	-10.0613
era	-10.0617
▁Dar	-10.0619
bs	-10.062
media	-10.0621
ome	-10.0624
▁Four	-10.0632
▁recently	-10.0632
:09	-10.0638
▁Tweet	-10.0642
▁discount	-10.0647
▁national	-10.0647
▁career	-10.0648
▁Japanese	-10.0649
▁huge	-10.065
▁popular	-10.0651
▁MP	-10.0652
▁Et	-10.0653
DA	-10.0654
▁Way	-10.0657
tech	-10.0657
lk	-10.0664
pr	-10.0664
ö	-10.0665
▁||	-10.0668
▁43	-10.0669
▁Mid	-10.0681
▁Nu	-10.0683
replace	-10.0685
▁Min	-10.0686
▁bag	-10.0688
-2020	-10.0699
0.0	-10.0707
IG	-10.0709
▁Android	-10.0709
▁46	-10.071
nel	-10.0717
▁Nurse	-10.0721
ت	-10.0722
▁License	-10.0724
▁Guest	-10.0729
▁Word	-10.073
326	-10.0732
▁Flat	-10.0733
:33	-10.0734
▁Museum	-10.0735
▁camera	-10.0736
▁Record	-10.0737
ü	-10.0745
\/	-10.0755
▁however	-10.0756
▁statically	-10.0765
ches	-10.0769
ns	-10.0771
▁Movies	-10.0775
tte	-10.0775
sch	-10.0775
St	-10.0781
▁Modern	-10.0782
▁character	-10.0782
:11	-10.0784
▁Concrete	-10.0786
ear	-10.0787
point	-10.0794
MI	-10.0795
▁maybe	-10.0796
len	-10.0802
ball	-10.0805
▁connection	-10.0806
shire	-10.0809
▁Enterprise	-10.0812
SI	-10.0812
ple	-10.0816
ike	-10.0816
▁updates	-10.0817
OP	-10.0818
cr	-10.0819
-18	-10.082
▁device	-10.0821
inc	-10.0823
eo	-10.0823
rap	-10.0826
▁Leather	-10.0826
▁Ag	-10.0827
:12	-10.0827
▁wrote	-10.0832
SH	-10.0833
▁ways	-10.0833
↳	-10.0837
▁dr	-10.0839
lam	-10.0841
▁52	-10.0844
▁th	-10.0844
▁included	-10.0847
▁ro	-10.0848
▁Daniel	-10.0849
▁region	-10.0849
▁previous	-10.085
▁Ser	-10.0852
BO	-10.0852
▁Boots	-10.0853
tomica	-10.0855
▁active	-10.0856
class	-10.0857
▁Discussion	-10.086
▁Complete	-10.0864
mal	-10.0865
options	-10.0868
▁$6	-10.087
▁(+	-10.0872
▁addition	-10.0875
:16	-10.0879
▁higher	-10.0879
▁Update	-10.088
▁Perfect	-10.089
▁Spanish	-10.0892
col	-10.0895
▁Weight	-10.0898
▁Ten	-10.0899
Le	-10.0901
ATE	-10.0901
▁Cook	-10.0905
▁Technical	-10.091
▁Uncategorized	-10.091
▁Stay	-10.0911
▁suggest	-10.0914
▁Bus	-10.0916
ati	-10.0917
▁lives	-10.0921
▁context	-10.0923
▁effect	-10.0928
▁Georgia	-10.0931
▁pen	-10.0933
een	-10.0934
▁activities	-10.0936
eng	-10.0936
▁protect	-10.0936
DI	-10.0939
On	-10.0941
▁safety	-10.0945
▁student	-10.095
▁sea	-10.095
▁tu	-10.0953
:28	-10.0964
sk	-10.0968
hal	-10.097
800	-10.0972
▁fix	-10.0979
uri	-10.0979
:29	-10.0985
и	-10.0986
▁49	-10.0989
ique	-10.0989
▁Western	-10.099
▁speed	-10.0991
berg	-10.0992
▁Want	-10.0998
▁Pri	-10.1009
▁handleiding	-10.1009
▁daily	-10.1015
ral	-10.1017
▁par	-10.1018
▁Ku	-10.102
:39	-10.1021
▁hu	-10.1024
/19	-10.1027
▁Movie	-10.1032
▁Ken	-10.1033
▁Views	-10.1033
:21	-10.1034
▁Vox	-10.104
▁entire	-10.1043
▁!	-10.1046
ora	-10.1049
Me	-10.1055
:19	-10.1056
ش	-10.1062
▁Ocean	-10.1062
▁Forgot	-10.1062
▁Doctor	-10.1063
oy	-10.1064
Mo	-10.107
ELL	-10.1074
ski	-10.1077
search	-10.1078
▁thread	-10.1079
▁Lighting	-10.1082
▁Courses	-10.1085
ons	-10.1088
:34	-10.109
▁die	-10.1091
cer	-10.1092
▁Plant	-10.1093
▁shower	-10.1094
:14	-10.1095
are	-10.1097
rad	-10.1105
▁prices	-10.1107
▁fe	-10.1115
▁64	-10.1122
▁master	-10.1123
PE	-10.1129
ika	-10.1136
▁attempt	-10.1136
▁Ask	-10.1142
sign	-10.1148
▁Jackets	-10.1148
hood	-10.1152
▁six	-10.1167
▁Police	-10.1169
▁Fo	-10.1171
▁Phil	-10.1182
▁IP	-10.1182
cut	-10.1184
:41	-10.1184
▁Lead	-10.1185
▁load	-10.1186
▁firm	-10.1189
▁Activity	-10.1195
▁Tree	-10.1196
▁Pu	-10.1203
▁solution	-10.1205
▁Wish	-10.1205
▁Rules	-10.1206
:35	-10.1206
Bo	-10.1209
pers	-10.1211
ably	-10.1214
▁Pass	-10.1214
ert	-10.1217
▁cross	-10.1218
▁Interest	-10.122
▁definitely	-10.1222
PC	-10.1224
▁built	-10.1225
ata	-10.1228
▁Ram	-10.1231
lie	-10.1236
:08	-10.1242
:27	-10.1242
▁den	-10.1247
▁ON	-10.1249
ace	-10.1252
▁Industrial	-10.1259
▁Added	-10.1264
▁Double	-10.1265
▁Run	-10.1265
▁BR	-10.1269
mat	-10.1269
-17	-10.1269
dd	-10.127
Reaso	-10.1271
▁(23)	-10.1272
▁loved	-10.1277
▁growth	-10.1277
▁economic	-10.1282
▁count	-10.1286
▁Delete	-10.1288
▁figure	-10.1292
▁gas	-10.1294
libraries	-10.1297
▁essential	-10.1297
su	-10.1299
▁paint	-10.1302
▁Net	-10.1304
:50	-10.1305
lation	-10.1315
▁equipment	-10.1319
▁Mad	-10.132
star	-10.1321
:51	-10.1321
IR	-10.1324
stro	-10.1328
▁Station	-10.1328
▁takes	-10.1335
▁Region	-10.1338
▁register	-10.1338
AGE	-10.134
▁Rate	-10.1341
GE	-10.1342
▁finish	-10.1343
▁Thomas	-10.1351
€	-10.1352
▁Disney	-10.1353
▁spot	-10.1354
▁enable	-10.1358
▁claim	-10.136
burg	-10.1362
▁Core	-10.1365
▁lu	-10.1367
▁Union	-10.1368
pen	-10.1369
▁notice	-10.137
-16	-10.1373
▁effective	-10.1384
och	-10.1386
lig	-10.1387
▁server	-10.1391
lor	-10.1394
▁Scott	-10.1396
▁2002	-10.1397
ston	-10.1401
mic	-10.1404
sig	-10.1404
▁Recipes	-10.1405
▁AT	-10.1405
▁deliver	-10.1406
Ch	-10.1411
▁Marine	-10.1418
oz	-10.1421
▁double	-10.1424
/07	-10.1424
▁fo	-10.1425
▁condition	-10.1426
▁Gun	-10.1427
▁disease	-10.1428
▁tool	-10.143
▁update	-10.1434
▁cap	-10.1436
▁document	-10.1443
▁CON	-10.1443
▁Very	-10.1448
WD	-10.1453
TC	-10.1455
▁Op	-10.1456
▁je	-10.1462
▁sell	-10.1463
:32	-10.1463
▁2.0	-10.1465
ਿ	-10.1472
▁Navigation	-10.1472
▁decision	-10.1475
▁Cons	-10.1476
▁fresh	-10.1477
▁pull	-10.1483
aries	-10.1486
ass	-10.1487
zi	-10.1489
▁directly	-10.1491
▁welcome	-10.1494
:02	-10.1496
▁Bible	-10.1497
▁Tool	-10.1498
▁according	-10.1499
▁solutions	-10.15
Ma	-10.1501
▁basic	-10.1504
▁plastic	-10.1505
▁Bro	-10.1509
▁purpose	-10.151
▁essay	-10.151
aire	-10.1512
Com	-10.1515
▁payment	-10.1515
SD	-10.1516
ump	-10.1517
size	-10.1517
ony	-10.1517
▁Range	-10.1522
▁Lee	-10.1522
▁nature	-10.1524
▁Labels	-10.1534
sion	-10.1538
elle	-10.1547
rin	-10.155
▁clients	-10.1551
▁release	-10.1551
▁Turn	-10.1554
/15	-10.1558
▁communication	-10.1566
▁Match	-10.1575
tric	-10.1577
:59	-10.1577
▁feature	-10.1577
▁Die	-10.1578
▁reference	-10.1581
▁orders	-10.1582
▁Israel	-10.1583
dom	-10.1591
▁Fill	-10.1591
▁Collections	-10.1593
▁Write	-10.1597
▁Bed	-10.1602
:55	-10.1602
▁ju	-10.1603
▁Discover	-10.1604
▁Pal	-10.1606
shi	-10.1608
parent	-10.1614
sure	-10.1614
250	-10.1615
ook	-10.1615
▁awesome	-10.1616
Do	-10.1616
▁Jewelry	-10.1616
▁WA	-10.1624
▁PO	-10.1624
:22	-10.1627
â	-10.163
/17	-10.1632
▁Mal	-10.1632
:36	-10.1635
600	-10.1637
({	-10.164
▁Tube	-10.1642
▁Sw	-10.1642
▁Registration	-10.1645
Fi	-10.1645
▁des	-10.1649
CT	-10.165
web	-10.1652
▁Easy	-10.1655
war	-10.1659
р	-10.1661
:07	-10.1665
▁lower	-10.1665
An	-10.1669
▁Adult	-10.1671
▁felt	-10.1672
▁heard	-10.1673
viagra	-10.1682
▁Offers	-10.1682
▁error	-10.1683
▁ten	-10.1683
vert	-10.1684
hen	-10.1686
cu	-10.1691
FT	-10.1694
item	-10.1695
3099	-10.17
▁metal	-10.1704
Be	-10.1706
rum	-10.1707
tern	-10.1707
▁LE	-10.1709
kh	-10.1709
▁Fencing	-10.1717
body	-10.1719
onic	-10.1721
▁contract	-10.1722
cast	-10.1727
▁Gil	-10.1728
▁foot	-10.1729
▁usually	-10.1733
▁Wheel	-10.1734
▁NA	-10.1737
▁Den	-10.174
▁Limited	-10.1742
▁glad	-10.1746
EST	-10.175
▁Premium	-10.1751
▁Three	-10.1751
lly	-10.1752
▁selection	-10.1754
▁Advertising	-10.1756
bre	-10.1758
▁Wild	-10.1767
online	-10.1771
ust	-10.1771
▁shot	-10.1772
▁Value	-10.1776
▁km	-10.1777
▁Miss	-10.1778
▁${	-10.1779
▁ni	-10.178
▁empty	-10.178
:24	-10.1781
▁Italian	-10.1782
AG	-10.1782
▁Coast	-10.1783
▁Jesus	-10.1785
▁Mu	-10.1788
▁movies	-10.179
▁div	-10.179
:31	-10.1794
▁Weekly	-10.1794
');	-10.1795
ien	-10.1796
▁Healthcare	-10.1798
cover	-10.18
▁physical	-10.1802
▁Exchange	-10.1802
▁Em	-10.1803
▁warm	-10.1805
▁mid	-10.1806
ste	-10.1809
▁particular	-10.1811
table	-10.1812
▁Catalog	-10.1812
aff	-10.1816
ille	-10.1818
▁campaign	-10.1819
▁Mike	-10.1819
▁Chris	-10.1823
▁structure	-10.1831
▁Mother	-10.1833
▁Bel	-10.1834
ld	-10.1837
left	-10.1837
▁happen	-10.1838
▁multiple	-10.1839
5.8	-10.1847
ida	-10.1848
▁Para	-10.1851
▁Academy	-10.1853
▁Made	-10.1856
mate	-10.1857
▁collect	-10.1858
▁Lights	-10.1866
:44	-10.1868
▁met	-10.187
▁chair	-10.1871
"),	-10.1872
▁William	-10.1872
▁pop	-10.1872
VA	-10.1872
▁Reference	-10.1874
ali	-10.1874
▁Chicago	-10.1875
▁worked	-10.1875
▁cha	-10.1876
▁Fly	-10.1878
▁Mag	-10.1878
ami	-10.188
▁wine	-10.1881
▁sometimes	-10.1882
▁Cake	-10.1884
▁Years	-10.1888
▁Remember	-10.1889
▁tried	-10.189
▁direct	-10.1893
▁bill	-10.1893
▁Basic	-10.1897
▁evidence	-10.191
▁giving	-10.191
▁prior	-10.1919
lies	-10.192
:01	-10.1922
▁opt	-10.1923
▁Joined	-10.1925
▁Suite	-10.1928
▁Point	-10.1929
ة	-10.1933
▁sweet	-10.1937
find	-10.1938
▁tour	-10.1939
SON	-10.1943
vel	-10.1944
gin	-10.1946
▁Col	-10.1953
▁Sell	-10.1954
▁Samsung	-10.1956
▁connect	-10.1959
▁court	-10.1962
▁mark	-10.1963
▁town	-10.1963
▁act	-10.1964
▁262	-10.1969
▁copy	-10.1969
▁switch	-10.197
cialis	-10.197
ene	-10.1973
▁registered	-10.1973
graph	-10.1976
:23	-10.1977
▁Son	-10.1977
-13	-10.1978
bus	-10.1979
▁Sur	-10.1979
▁Disclaimer	-10.1979
▁Face	-10.1982
▁Neon	-10.1985
PL	-10.1986
PR	-10.1986
▁Even	-10.1987
oke	-10.1987
▁Trans	-10.1989
▁Latin	-10.1989
▁relationship	-10.1993
▁wasn	-10.1996
Text	-10.2
▁Singapore	-10.2005
▁$25	-10.2006
:42	-10.2008
▁theme	-10.201
▁Fitness	-10.2016
▁NOT	-10.2016
▁2001	-10.2017
gle	-10.2018
Qu	-10.2018
▁Active	-10.202
▁CC	-10.2021
oop	-10.2021
▁status	-10.2026
▁ship	-10.2028
▁Ac	-10.2031
▁Advice	-10.2032
000	-10.2034
NC	-10.2036
:56	-10.2044
:04	-10.2047
▁});	-10.2048
:54	-10.2049
▁alone	-10.2053
hl	-10.2055
▁Ob	-10.2057
:06	-10.2059
▁Membership	-10.2063
▁Asian	-10.2066
▁Far	-10.2067
▁sit	-10.2068
▁Sorry	-10.2069
▁Times	-10.2073
count	-10.2076
:48	-10.2081
:46	-10.2081
===	-10.2082
▁sha	-10.2084
▁truly	-10.2084
▁Future	-10.2085
▁excellent	-10.209
▁Ber	-10.2094
▁ES	-10.2094
lot	-10.2095
▁leading	-10.2098
▁Electronic	-10.2098
人	-10.2101
▁miss	-10.2104
cho	-10.2106
▁Diamond	-10.2108
▁trust	-10.2113
mor	-10.2115
You	-10.2116
▁Gi	-10.2117
▁Statistics	-10.2119
▁500.0	-10.212
▁throw	-10.212
:43	-10.2125
:03	-10.2127
▁Second	-10.2137
▁Ju	-10.214
▁themselves	-10.2149
▁cu	-10.215
▁colour	-10.2151
OK	-10.2152
phone	-10.2153
▁Matt	-10.2154
core	-10.2156
▁Ann	-10.2158
▁Environment	-10.2159
ble	-10.2159
▁soft	-10.2161
▁materials	-10.2162
▁held	-10.2162
▁Status	-10.2162
▁Sold	-10.2163
trib	-10.2165
▁gave	-10.2167
▁maintain	-10.2169
:37	-10.2179
:47	-10.2181
(1)	-10.2182
▁charge	-10.2185
▁guess	-10.2185
▁BY	-10.2188
▁Executive	-10.219
▁protection	-10.2195
UK	-10.2202
ob	-10.2206
books	-10.2209
▁arm	-10.2219
▁pressure	-10.2222
▁represent	-10.2225
att	-10.2228
▁Magic	-10.2233
▁Cleaning	-10.2236
▁demand	-10.2238
▁Paint	-10.2242
active	-10.2244
▁Standards	-10.2245
mas	-10.2246
▁Korea	-10.2247
▁completely	-10.2249
▁Adam	-10.2249
ulation	-10.2251
▁Aid	-10.2255
α	-10.2255
▁Dollar	-10.2258
▁Dining	-10.2261
▁rules	-10.2262
append	-10.2264
lt	-10.2267
▁easily	-10.2267
▁guys	-10.227
▁Cost	-10.227
▁cialis	-10.2277
▁uk	-10.2278
bal	-10.228
ona	-10.2282
▁Since	-10.2282
й	-10.2283
care	-10.2285
▁Za	-10.2285
▁Registered	-10.2287
HA	-10.229
▁Speed	-10.2294
▁SD	-10.2294
▁host	-10.2295
Ar	-10.2297
▁Gra	-10.23
▁IS	-10.2304
▁800	-10.231
▁''	-10.2316
▁Qu	-10.2318
:52	-10.232
5,000	-10.2321
86_64.	-10.2321
▁Bike	-10.2325
mann	-10.2329
▁characters	-10.233
▁Activities	-10.2333
▁expand	-10.2336
rich	-10.2336
required	-10.234
GO	-10.234
pan	-10.2349
▁Mel	-10.2349
▁throughout	-10.2352
holder	-10.2354
▁yes	-10.2355
▁Je	-10.2358
▁Podcast	-10.2365
▁Installations	-10.2366
tive	-10.2367
▁Alex	-10.2368
▁YOU	-10.2369
▁fr	-10.2371
mel	-10.2372
DC	-10.2372
site	-10.2376
height	-10.2379
▁church	-10.238
nic	-10.2383
▁Pants	-10.2388
▁logo	-10.2391
▁nu	-10.2395
▁Ve	-10.2398
▁quickly	-10.2399
ned	-10.2403
ula	-10.2403
▁Contract	-10.2403
▁Snow	-10.2406
duc	-10.2409
▁install	-10.241
ك	-10.2411
▁updated	-10.2412
▁press	-10.2416
▁weather	-10.2417
:58	-10.2419
▁official	-10.2419
date	-10.242
▁Race	-10.242
▁Kong	-10.2421
▁workshop	-10.2421
:57	-10.2421
▁BB	-10.2426
▁discussion	-10.2426
▁Cu	-10.2429
▁starting	-10.2431
ool	-10.2431
▁damage	-10.2433
▁Additional	-10.2435
▁ML	-10.2439
▁rec	-10.2439
ark	-10.244
▁400	-10.2441
▁Feedback	-10.2443
▁tree	-10.2444
▁commercial	-10.2448
▁background	-10.2448
▁nor	-10.2451
▁Published	-10.2454
▁degree	-10.2454
▁ti	-10.2457
▁types	-10.2461
▁Cables	-10.2461
dis	-10.2465
▁Lifestyle	-10.2474
▁tr	-10.2475
▁Foot	-10.2475
attr	-10.2476
▁chat	-10.248
▁Panel	-10.2488
ington	-10.2491
▁craft	-10.2491
▁gain	-10.2492
▁EU	-10.2493
ros	-10.2495
▁Nature	-10.2497
:38	-10.25
▁Filters	-10.25
▁investment	-10.2501
▁average	-10.2502
▁construction	-10.2504
▁shared	-10.2505
ire	-10.2506
▁Meeting	-10.2506
poli	-10.2519
▁Using	-10.2536
▁internet	-10.2542
▁Secret	-10.2543
▁GA	-10.2543
▁dry	-10.2545
▁Cast	-10.2546
:53	-10.2546
kar	-10.2548
▁cell	-10.2551
▁NE	-10.2553
els	-10.2553
▁Come	-10.2555
▁Sweet	-10.2557
▁paid	-10.2559
▁ability	-10.256
▁session	-10.2566
▁allows	-10.2567
▁serve	-10.2569
▁Explore	-10.257
law	-10.2571
ref	-10.2572
GA	-10.2573
▁package	-10.2576
з	-10.2577
▁Flowers	-10.2579
▁mode	-10.2583
▁respect	-10.2583
▁(24)	-10.2584
▁Braves	-10.2588
run	-10.259
:49	-10.2596
-09	-10.2596
rim	-10.2603
▁Deals	-10.2604
▁involved	-10.2606
▁African	-10.261
▁Express	-10.2616
▁cabinet	-10.2616
▁Responder	-10.2616
▁category	-10.2622
▁Cars	-10.2625
▁organization	-10.2629
▁rock	-10.2629
▁tra	-10.2633
▁Grant	-10.2637
▁push	-10.2639
▁Rings	-10.2645
▁Meta	-10.2646
▁providing	-10.265
yo	-10.2652
gate	-10.2659
dale	-10.2662
▁recipe	-10.2667
▁Boy	-10.2672
▁Cho	-10.2676
▁tri	-10.2676
▁patients	-10.2677
▁voice	-10.2682
▁Del	-10.2683
▁client	-10.2691
bl	-10.2692
PO	-10.2693
▁Wire	-10.2694
AND	-10.2696
></	-10.2697
ع	-10.27
▁OK	-10.27
▁fair	-10.2702
▁Square	-10.2706
product	-10.2707
▁250	-10.271
tch	-10.2711
र	-10.2715
nom	-10.2716
▁speak	-10.2724
rick	-10.2725
▁thoughts	-10.2727
It	-10.2727
serv	-10.2727
KA	-10.2729
3.1	-10.2735
zer	-10.2736
▁limited	-10.274
long	-10.274
tation	-10.2741
▁Urban	-10.2743
▁Block	-10.2746
▁Bon	-10.2746
LT	-10.2746
(),	-10.2746
▁lock	-10.2751
▁basket	-10.2755
▁م	-10.2759
▁college	-10.2762
lea	-10.2763
del	-10.2763
ters	-10.2765
▁Electrical	-10.2766
▁Bre	-10.2769
▁Cas	-10.2773
▁exactly	-10.2774
▁Hol	-10.2775
▁MD	-10.2775
▁exp	-10.2777
last	-10.2781
▁Honda	-10.2782
▁Bell	-10.2784
ography	-10.2785
▁TH	-10.2787
▁coll	-10.2791
▁Val	-10.2793
▁que	-10.2796
pot	-10.2799
▁Become	-10.28
index	-10.28
Up	-10.2801
▁Bat	-10.2805
▁SU	-10.2807
▁led	-10.2809
▁coffee	-10.2812
FR	-10.2816
▁path	-10.2817
▁Ban	-10.2824
▁Ireland	-10.2825
▁street	-10.2825
▁Many	-10.2825
▁Palisade	-10.2831
cia	-10.2833
▁haven	-10.2834
▁hi	-10.2837
▁Dream	-10.2838
tics	-10.2841
▁Mil	-10.2843
▁▼	-10.2844
▁qu	-10.2845
▁Fast	-10.2845
900	-10.2846
▁player	-10.2846
▁Academic	-10.285
▁Essay	-10.285
▁lamp	-10.285
AST	-10.285
▁mini	-10.2852
▁guy	-10.2853
▁Vehicle	-10.2854
AA	-10.2855
▁Ski	-10.2858
ttle	-10.2858
sky	-10.2861
▁cancer	-10.2865
▁56	-10.2866
txt	-10.2866
▁valid	-10.2868
▁Climate	-10.2869
▁(26)	-10.2877
▁eat	-10.2879
VI	-10.2881
▁Employment	-10.2881
▁Elementary	-10.2881
▁goal	-10.2884
DR	-10.2885
▁Southern	-10.2885
▁Hello	-10.2887
▁Boat	-10.2887
▁Offer	-10.2888
▁roll	-10.2888
▁Mill	-10.289
Type	-10.289
▁race	-10.2893
▁Pick	-10.2895
▁Gene	-10.2899
▁mirror	-10.29
▁Fabric	-10.2901
▁comfort	-10.2902
▁cases	-10.2905
▁Engineer	-10.2907
▁TR	-10.291
pet	-10.2913
craft	-10.2914
▁Medium	-10.2914
▁Ya	-10.2917
▁Trip	-10.2919
ICE	-10.292
▁(3	-10.2921
Array	-10.2924
La	-10.2927
▁£2	-10.2935
RC	-10.2936
▁discuss	-10.2942
stv	-10.2945
▁parties	-10.2946
700	-10.295
▁hands	-10.295
▁Expert	-10.2952
/1	-10.2953
▁Did	-10.2953
equ	-10.2954
▁Angeles	-10.2956
▁trans	-10.2958
▁Cell	-10.2963
ress	-10.2972
mont	-10.2975
ju	-10.2976
vic	-10.2983
▁object	-10.2993
▁UP	-10.2994
▁concept	-10.2996
ift	-10.2996
▁Was	-10.2998
cker	-10.2998
▁Camera	-10.2999
uf	-10.3
▁positive	-10.3003
dra	-10.3004
▁Math	-10.3005
case	-10.3007
▁Give	-10.3009
▁treat	-10.3011
▁responsible	-10.3013
▁protected	-10.3016
las	-10.3017
▁sets	-10.3021
▁Anonymous	-10.3022
▁sur	-10.3023
lum	-10.3025
HS	-10.3025
▁vol	-10.3027
▁Intercoms	-10.3029
▁grand	-10.303
ode	-10.303
▁Fuel	-10.303
▁Pakistan	-10.3032
emp	-10.3032
▁Chrome	-10.3035
▁moving	-10.3037
pon	-10.3039
▁Schools	-10.3042
Time	-10.3043
▁Chain	-10.3047
▁novel	-10.3048
ANT	-10.3048
▁balance	-10.3048
▁Regional	-10.3051
ising	-10.3056
▁sad	-10.3058
%2	-10.3059
▁snow	-10.3064
▁Mens	-10.3064
▁wear	-10.3066
▁Zealand	-10.3067
▁useful	-10.3068
&&(	-10.3071
▁eyes	-10.3074
hol	-10.3075
ider	-10.3077
▁trial	-10.3079
▁stick	-10.3079
▁cur	-10.3081
▁Boston	-10.3081
▁51	-10.3083
▁Own	-10.3084
▁costs	-10.3085
▁Commission	-10.3086
▁Trail	-10.3088
▁1000	-10.3088
▁daughter	-10.3089
▁Hope	-10.3094
▁Jump	-10.3094
▁avoid	-10.3097
▁Gal	-10.3099
cle	-10.3101
/8	-10.3102
▁GO	-10.3104
uv	-10.311
▁Tagged	-10.3113
gs	-10.3114
▁54	-10.3115
▁vo	-10.3115
olo	-10.3116
▁Hotels	-10.3117
icon	-10.3117
ि	-10.3119
▁Bedroom	-10.3119
▁ta	-10.312
Ba	-10.3124
ी	-10.3125
▁Hong	-10.3127
gel	-10.3129
EM	-10.3131
▁sw	-10.3133
▁Official	-10.3138
rain	-10.3142
?”	-10.3145
ua	-10.3147
▁Military	-10.3148
▁VA	-10.3153
▁VI	-10.3157
▁scene	-10.3159
rist	-10.3161
Ex	-10.3164
▁Shi	-10.3165
gger	-10.3166
user	-10.317
▁benefits	-10.3172
▁150	-10.3177
▁supply	-10.3177
▁Original	-10.3178
▁expected	-10.318
▁talking	-10.3181
▁band	-10.3183
▁Resource	-10.3189
2-	-10.3191
▁(25)	-10.3192
▁ko	-10.3193
▁programs	-10.3195
-14	-10.3198
▁cl	-10.3201
mes	-10.3204
▁places	-10.3211
▁Channel	-10.3215
OD	-10.3218
▁teen	-10.3221
▁Dealer	-10.3224
▁Porn	-10.3224
ف	-10.3225
ili	-10.3227
▁colors	-10.3229
▁reduce	-10.323
▁Ki	-10.3231
ان	-10.3231
▁decided	-10.3231
▁planning	-10.3232
ни	-10.3236
▁USB	-10.324
▁playing	-10.3243
▁players	-10.3244
▁(30)	-10.3244
▁tab	-10.3246
▁spring	-10.3248
▁Decor	-10.3249
▁Kai	-10.3252
▁itself	-10.326
▁vote	-10.3261
▁ABOUT	-10.3262
▁correct	-10.3264
▁Flash	-10.3265
▁Pingback	-10.3269
asi	-10.3271
▁Sarah	-10.3274
▁Joe	-10.3275
MB	-10.3275
▁MORE	-10.3276
▁Calculator	-10.3282
▁Volunteer	-10.3282
▁cards	-10.3285
▁decor	-10.3286
▁gives	-10.3293
▁club	-10.3294
▁Va	-10.3294
▁installation	-10.3295
▁Partner	-10.3296
▁highly	-10.3305
bon	-10.3307
pri	-10.3309
ATION	-10.3309
▁Pacific	-10.3312
dia	-10.3312
▁groups	-10.3316
▁Dubai	-10.3316
vy	-10.3316
▁wife	-10.3317
Man	-10.3326
▁station	-10.3331
has	-10.3334
▁(31)	-10.3336
▁Benefits	-10.3348
▁continuing	-10.3348
ese	-10.335
eau	-10.3353
vent	-10.3354
bert	-10.3355
▁Australian	-10.3356
▁Materials	-10.3358
▁Leadership	-10.3362
▁holiday	-10.3362
▁Er	-10.3364
inter	-10.3365
▁changed	-10.3366
▁fear	-10.337
▁attention	-10.337
bin	-10.3371
bot	-10.3372
▁Mind	-10.3372
avi	-10.3374
▁Has	-10.3375
BR	-10.3376
wing	-10.3376
pat	-10.3378
rent	-10.3382
▁sheet	-10.3385
dict	-10.3385
▁Horse	-10.3385
ming	-10.3389
▁requirements	-10.339
▁Euro	-10.3393
fit	-10.3393
▁Developer	-10.34
bury	-10.3404
email	-10.3404
try	-10.3406
▁father	-10.3406
}}}	-10.3408
ban	-10.3409
▁Tag	-10.3411
▁Grey	-10.3414
▁journey	-10.3415
▁Brother	-10.3416
▁Fer	-10.3418
▁grow	-10.3419
▁creative	-10.3422
term	-10.3423
shop	-10.3423
▁string	-10.3424
▁partner	-10.3425
▁Sky	-10.3426
via	-10.3429
mun	-10.3431
RS	-10.3432
▁gone	-10.3433
tag	-10.344
vol	-10.3444
▁stage	-10.3447
▁settings	-10.3453
▁located	-10.3455
ae	-10.3456
menu	-10.3456
mil	-10.3457
eur	-10.346
▁mom	-10.3463
▁Ever	-10.3467
-04	-10.3468
▁CONTACT	-10.3468
SO	-10.347
TION	-10.347
▁bottom	-10.3473
▁prevent	-10.3473
ب	-10.3475
RP	-10.3482
▁female	-10.3482
▁Once	-10.3483
▁jump	-10.3485
▁Material	-10.3486
▁Production	-10.3486
▁truth	-10.3489
▁ga	-10.3495
▁finally	-10.3497
FC	-10.3499
▁Clip	-10.35
png	-10.3502
▁secure	-10.3506
▁spend	-10.3508
▁Seat	-10.351
▁Ohio	-10.3511
▁Av	-10.3513
▁Ice	-10.3513
▁ke	-10.3514
!==	-10.3516
▁Paris	-10.3516
▁sold	-10.3516
▁Switch	-10.3517
▁Another	-10.3517
▁explain	-10.3518
▁traditional	-10.3519
ink	-10.352
nz	-10.352
è	-10.3521
▁healthy	-10.3526
▁Pra	-10.3529
▁va	-10.3529
fo	-10.3529
▁Queen	-10.353
MAN	-10.3531
▁Friends	-10.3532
▁cash	-10.3535
▁Automatic	-10.3537
▁wonder	-10.3539
▁1/2	-10.3541
▁Process	-10.3542
▁$7	-10.3543
ava	-10.3545
pie	-10.3546
▁Russia	-10.3548
▁Moon	-10.3549
rr	-10.3554
▁feet	-10.3556
▁SW	-10.3561
ude	-10.3563
Mar	-10.3564
ira	-10.3567
”.	-10.3569
arch	-10.3571
▁Should	-10.3573
-25	-10.3573
▁cast	-10.3575
ION	-10.3575
▁Santa	-10.3576
▁Joseph	-10.3577
rust	-10.3577
▁Des	-10.358
▁applications	-10.3586
▁label	-10.3586
▁Sta	-10.3591
▁drop	-10.3598
▁Releases	-10.3601
^	-10.3601
▁smart	-10.3607
▁Organization	-10.3611
Al	-10.3617
->	-10.3619
▁Donate	-10.3619
metric	-10.3619
▁pr	-10.362
▁setting	-10.3622
▁Orlando	-10.3624
IGHT	-10.3626
▁(27)	-10.3626
▁Animal	-10.3626
▁mix	-10.3627
NO	-10.363
atic	-10.3644
uc	-10.3646
▁movement	-10.3646
pic	-10.3649
▁Tan	-10.3649
▁beyond	-10.3652
▁maintenance	-10.3652
▁Cancer	-10.3654
▁knew	-10.3654
oh	-10.3655
sq	-10.3656
▁Steve	-10.3658
▁ser	-10.3659
strong	-10.366
store	-10.366
▁RA	-10.3661
▁fully	-10.3667
";	-10.3668
▁park	-10.3669
▁Tank	-10.3669
own	-10.367
▁III	-10.3671
color	-10.3671
▁certainly	-10.3674
▁carry	-10.3675
▁potter	-10.3675
▁processing	-10.3676
/18	-10.3677
Book	-10.3679
▁pu	-10.3688
▁Halloween	-10.3693
▁understanding	-10.3695
▁Interior	-10.37
▁Basketball	-10.37
▁channel	-10.37
▁Spain	-10.3701
▁Try	-10.3704
▁Spec	-10.3705
▁Dance	-10.3705
▁Maintenance	-10.3706
bed	-10.371
▁Does	-10.3712
▁Assistant	-10.3715
▁lovely	-10.3715
▁Fantasy	-10.372
struct	-10.3721
TY	-10.3724
に	-10.3727
EY	-10.3727
▁Obama	-10.3728
iti	-10.3729
fin	-10.3732
▁Replacement	-10.3734
▁gun	-10.374
▁Bathroom	-10.3742
▁otherwise	-10.3744
▁regular	-10.3748
km	-10.3749
/14	-10.3752
▁FA	-10.3753
},	-10.3754
▁bur	-10.3755
ج	-10.3755
▁Before	-10.3755
▁discover	-10.3759
Ta	-10.3759
non	-10.376
▁Boys	-10.376
▁Iron	-10.3761
kins	-10.3764
with	-10.3764
lat	-10.3766
▁doctor	-10.3767
DO	-10.3768
▁agreement	-10.3768
▁fashion	-10.3768
ache	-10.3771
late	-10.3771
IST	-10.3773
▁Cold	-10.3774
▁Exam	-10.3775
▁Fu	-10.3775
▁TX	-10.3779
▁Packers	-10.378
▁PS	-10.3783
▁Electronics	-10.3784
/13	-10.3787
▁Basket	-10.3789
▁consent	-10.379
?"	-10.379
dal	-10.3795
FF	-10.3796
▁Indonesia	-10.3802
9.95	-10.3803
▁Because	-10.381
▁Canadian	-10.381
▁Looking	-10.3811
▁manuel	-10.3811
▁Guru	-10.3812
ency	-10.3818
▁hotel	-10.3821
ddle	-10.3824
▁train	-10.383
日	-10.3831
▁fish	-10.3834
▁Plastic	-10.3838
hn	-10.385
▁Consumer	-10.3852
▁separate	-10.3852
/22	-10.3854
▁Pink	-10.3856
▁Bridge	-10.3858
▁Sleeve	-10.3859
space	-10.3859
nia	-10.386
yr	-10.3861
▁Tickets	-10.3862
UT	-10.3862
info	-10.3863
ALL	-10.3872
▁Ship	-10.3879
▁AN	-10.3881
▁purposes	-10.3883
ye	-10.3884
▁Yu	-10.3884
▁Mix	-10.3885
▁encourage	-10.3887
▁electric	-10.389
Th	-10.3891
150	-10.3892
▁Andrew	-10.3894
▁Justice	-10.3897
▁Getting	-10.39
▁si	-10.3901
▁beach	-10.3903
▁SS	-10.3904
▁cream	-10.3904
gmail	-10.3906
▁Fuse	-10.3907
▁library	-10.3908
▁stone	-10.3908
All	-10.391
▁Hy	-10.391
▁shape	-10.391
ians	-10.3912
ق	-10.3915
/2016	-10.3916
-30	-10.3917
VE	-10.3918
verse	-10.392
▁Eastern	-10.3921
▁Angel	-10.3921
▁Fine	-10.3925
▁wooden	-10.3931
rant	-10.3932
▁Guides	-10.3937
place	-10.3939
-06	-10.3939
PT	-10.3941
lee	-10.3942
div	-10.3943
▁Policies	-10.3943
ARD	-10.3944
card	-10.3945
▁engine	-10.395
▁Death	-10.395
▁activity	-10.3951
▁Ly	-10.3957
▁Letter	-10.3957
pu	-10.3958
▁xxxx	-10.3961
▁limit	-10.3962
▁Cla	-10.3963
▁Clean	-10.3964
▁rates	-10.3964
▁Working	-10.3964
▁radio	-10.3967
For	-10.3969
▁Window	-10.397
▁Corporation	-10.3971
Po	-10.3973
▁Deutsch	-10.3974
SM	-10.3975
▁Mun	-10.3977
ра	-10.3977
8.00	-10.3978
ி	-10.3978
ori	-10.3982
▁reports	-10.3985
▁Shabad	-10.3986
eller	-10.3986
▁associated	-10.3987
lim	-10.3988
▁Seal	-10.3989
▁brain	-10.3989
▁motor	-10.3991
▁Imp	-10.3991
▁fill	-10.3993
TR	-10.3995
▁LI	-10.3996
agon	-10.3996
▁Golden	-10.3998
▁farm	-10.3999
▁Gloves	-10.4007
▁Brake	-10.4009
/3	-10.4011
▁und	-10.4015
▁(28)	-10.4016
▁appreciate	-10.4016
▁variety	-10.4021
▁creating	-10.4022
▁Package	-10.4025
▁workers	-10.4027
mmer	-10.4031
▁Com	-10.4033
stat	-10.4034
▁normal	-10.4038
▁Vision	-10.4042
gun	-10.4042
▁models	-10.4043
▁rich	-10.4044
▁Dam	-10.4045
▁remove	-10.4045
▁wi	-10.4047
▁earn	-10.4049
▁OS	-10.4056
▁Federal	-10.4056
src	-10.4059
▁66	-10.4061
7.5	-10.4066
anna	-10.407
▁society	-10.4071
▁Fit	-10.4071
▁regarding	-10.4071
▁Solution	-10.4072
▁Delhi	-10.4072
▁flow	-10.408
▁Cut	-10.4086
hin	-10.4091
▁police	-10.4093
▁develop	-10.4094
▁HOME	-10.4094
▁remain	-10.4094
List	-10.4095
▁wind	-10.4095
▁helps	-10.4096
win	-10.4098
lit	-10.41
ifier	-10.4102
▁Flight	-10.4107
XXX	-10.411
"+	-10.4116
Un	-10.4119
▁bin	-10.4122
▁couldn	-10.4124
▁challenge	-10.4124
▁Testimonials	-10.4125
▁designs	-10.4127
Ra	-10.413
▁secret	-10.4135
▁DI	-10.4136
▁fruit	-10.4136
▁blood	-10.4137
label	-10.4142
▁nation	-10.4142
▁Johnson	-10.4148
▁PR	-10.4149
▁budget	-10.415
remove	-10.415
▁EUR	-10.4152
life	-10.4154
-2017	-10.4162
▁CR	-10.4163
▁95	-10.4164
▁require	-10.417
▁accessories	-10.4178
CS	-10.4179
▁tea	-10.4179
-07	-10.418
▁Colour	-10.418
▁direction	-10.4183
▁61	-10.4183
▁turned	-10.4183
▁cake	-10.4184
▁max	-10.4188
▁Environmental	-10.4189
▁scale	-10.42
gie	-10.42
▁heat	-10.4201
love	-10.4201
order	-10.4202
LU	-10.4205
He	-10.4205
▁Gr	-10.4207
▁Español	-10.421
default	-10.4215
2.00	-10.4217
▁drink	-10.4218
▁GR	-10.422
▁scar	-10.422
▁Ring	-10.4221
rid	-10.4222
▁depend	-10.4224
▁wheel	-10.4224
▁Editor	-10.4225
▁classic	-10.4225
▁Canon	-10.4227
▁opinion	-10.4228
ு	-10.4229
▁patient	-10.4232
▁finding	-10.4234
ici	-10.4235
▁Emergency	-10.4236
▁Fox	-10.4238
▁award	-10.4239
aga	-10.424
▁answers	-10.4241
▁Early	-10.4244
▁Fort	-10.4246
▁85	-10.4247
▁allowed	-10.4248
▁DJ	-10.4249
hel	-10.425
▁shoes	-10.425
▁Campus	-10.4252
▁Hardware	-10.4252
▁Eco	-10.4255
some	-10.4255
い	-10.4258
▁Blogger	-10.4259
LD	-10.426
▁LO	-10.426
▁Guinea	-10.4265
▁Height	-10.4266
▁Geo	-10.4266
▁lack	-10.4267
▁Northern	-10.4268
▁Each	-10.427
die	-10.427
4.99	-10.4272
▁Jen	-10.4272
▁technical	-10.4273
▁Civil	-10.4273
▁Saudi	-10.4275
▁Domain	-10.4275
▁failed	-10.4281
▁mag	-10.4285
buy	-10.4289
GS	-10.429
Dis	-10.4295
▁Transfer	-10.4295
▁Topic	-10.4297
▁appear	-10.43
▁considered	-10.4307
par	-10.4308
▁fabric	-10.4309
▁DR	-10.431
Link	-10.4316
▁Exp	-10.4318
aj	-10.4319
▁20%	-10.432
▁Rear	-10.4324
▁rack	-10.4324
/2018	-10.4324
▁ਪੰ	-10.4331
/2020	-10.4334
▁letter	-10.4335
bro	-10.4336
▁plate	-10.4337
inch	-10.4337
▁Congress	-10.4337
▁studies	-10.4338
▁Investment	-10.4341
▁Rain	-10.4341
▁Cream	-10.4342
-03	-10.4343
▁Virginia	-10.4344
AF	-10.4345
una	-10.4345
aya	-10.4349
▁CAD	-10.435
▁Volume	-10.4354
▁solid	-10.4354
gh	-10.4358
itz	-10.4361
▁winter	-10.4362
path	-10.4362
▁feedback	-10.4362
▁fat	-10.4364
大	-10.4368
▁Jordan	-10.4368
found	-10.4371
▁Dragon	-10.4371
2.6	-10.4374
▁capital	-10.4375
▁population	-10.4375
▁$10	-10.4376
▁fight	-10.4378
[0]	-10.4378
NE	-10.4379
utter	-10.4382
/29	-10.4385
ML	-10.4388
▁middle	-10.4391
▁micro	-10.4394
▁Wiki	-10.4395
▁Housing	-10.4397
▁volume	-10.4397
▁false	-10.4397
jan	-10.4405
▁actual	-10.4406
ological	-10.4407
▁CV	-10.4409
▁Batteries	-10.4412
spect	-10.4412
▁101	-10.4418
▁FI	-10.4419
0%	-10.4421
▁Cruise	-10.4424
AU	-10.4424
▁command	-10.4425
event	-10.4425
▁deck	-10.4426
▁(29)	-10.4428
▁Arabia	-10.4431
′′	-10.4434
PI	-10.4437
▁Anna	-10.4438
▁helpful	-10.4438
▁Fiction	-10.4441
rm	-10.4442
▁Patient	-10.4442
hand	-10.4443
lis	-10.4444
▁gets	-10.4445
▁Success	-10.4445
ivity	-10.4456
ح	-10.4456
▁Administration	-10.4456
▁Stack	-10.4459
ges	-10.446
▁CH	-10.446
▁Catholic	-10.4464
PP	-10.4464
▁53	-10.4466
▁Owner	-10.4467
▁str	-10.4467
▁Jim	-10.4468
▁99	-10.4468
▁pi	-10.4472
▁Papers	-10.4474
ige	-10.4484
▁Rev	-10.4486
lash	-10.4489
/25	-10.4489
rat	-10.4494
▁ring	-10.4494
▁manage	-10.4496
.....	-10.4496
sol	-10.4496
▁quote	-10.4498
▁Apps	-10.4499
▁painting	-10.45
▁opportunities	-10.4501
▁equal	-10.4501
met	-10.4502
wo	-10.4502
▁peace	-10.4502
▁fans	-10.4503
▁inspiration	-10.4505
▁Au	-10.4509
▁Primary	-10.4509
▁Safe	-10.4513
▁Break	-10.4514
▁environmental	-10.4515
▁Cro	-10.4515
イ	-10.4516
tta	-10.4517
▁Wear	-10.4518
▁Older	-10.4519
▁topics	-10.4519
LS	-10.4522
▁pp	-10.4525
▁cold	-10.4534
▁employees	-10.4534
▁Jones	-10.4535
▁Ash	-10.4538
▁Accessibility	-10.4539
▁Cyber	-10.454
▁Mass	-10.4547
▁Shorts	-10.4548
▁Simple	-10.4548
▁Opening	-10.4548
б	-10.4549
tru	-10.4549
mount	-10.4554
▁camp	-10.4555
phys	-10.4556
▁Dead	-10.4557
▁SH	-10.4559
▁happened	-10.4565
00,000	-10.4568
▁hospital	-10.4568
▁dream	-10.4573
▁clip	-10.4576
▁exclusive	-10.4583
▁coach	-10.4586
▁Arab	-10.4591
under	-10.4592
▁aim	-10.4592
▁Wal	-10.46
().	-10.4602
cus	-10.4605
▁selected	-10.4607
script	-10.461
▁Build	-10.4614
yan	-10.4615
▁57	-10.4615
MENT	-10.4618
rig	-10.4622
▁force	-10.4625
gal	-10.4626
Class	-10.4627
ст	-10.4627
▁63	-10.4628
aka	-10.4629
▁MB	-10.4629
▁sports	-10.4629
▁license	-10.4633
state	-10.4635
▁Extra	-10.4636
chen	-10.4636
open	-10.4638
▁SALE	-10.4642
▁Apparel	-10.4643
▁Started	-10.4643
ро	-10.4655
ACK	-10.4663
ional	-10.4663
▁Disc	-10.4667
td	-10.4669
▁Socks	-10.4673
rn	-10.4674
iva	-10.4676
▁rain	-10.4676
▁Rob	-10.4678
ben	-10.4678
▁Sol	-10.468
▁wouldn	-10.468
aria	-10.4681
▁72	-10.4683
job	-10.4689
▁Issues	-10.469
wan	-10.4691
▁Fresh	-10.4691
▁dead	-10.4692
▁Maps	-10.4693
▁exist	-10.4693
click	-10.4698
▁JS	-10.4699
▁Covers	-10.4701
▁bath	-10.4703
▁bus	-10.4703
▁Purchase	-10.4704
▁Louis	-10.4705
filter	-10.4707
/2	-10.4709
▁Opportunities	-10.4712
▁fields	-10.4712
▁Tun	-10.4713
▁Français	-10.4715
▁benefit	-10.4718
▁suit	-10.4719
rest	-10.472
ppy	-10.472
"><	-10.4722
▁Bad	-10.4725
▁flat	-10.4725
char	-10.4726
▁Beautiful	-10.4727
▁exchange	-10.4727
▁Transportation	-10.4731
ident	-10.4734
tis	-10.4734
▁Gaming	-10.4736
▁Direct	-10.474
▁AD	-10.474
▁interior	-10.4742
▁Shirts	-10.4744
CD	-10.4748
▁62	-10.475
▁Mode	-10.4754
▁numbers	-10.4755
▁Capital	-10.4757
▁copyright	-10.4758
you	-10.4758
Go	-10.4759
4.1	-10.4763
▁Near	-10.4764
UP	-10.4764
NI	-10.4767
▁+1	-10.4769
night	-10.4769
▁distance	-10.4773
race	-10.4775
▁Eat	-10.4778
DB	-10.4784
▁Bowl	-10.4784
ela	-10.4785
▁WE	-10.4788
▁Survey	-10.4788
▁affect	-10.4789
▁Tops	-10.4789
▁Forest	-10.4794
▁effects	-10.4795
▁independent	-10.4796
▁Soccer	-10.4796
▁Supply	-10.4796
▁Ultra	-10.4796
model	-10.4798
▁Associate	-10.4798
ree	-10.4798
▁moved	-10.4804
▁BC	-10.4806
Day	-10.4808
bil	-10.4819
▁Mom	-10.4821
▁Orange	-10.4823
~	-10.4825
▁Laptop	-10.4827
▁flight	-10.4827
▁improvement	-10.4827
▁shown	-10.4828
▁Forms	-10.4828
▁conversation	-10.4834
▁towards	-10.4836
▁mental	-10.4836
▁Chair	-10.4837
▁tend	-10.4837
▁TA	-10.4839
Not	-10.4842
▁sofa	-10.4843
▁Mus	-10.4847
▁Nutrition	-10.4849
▁beginning	-10.4851
▁Nut	-10.4854
▁brought	-10.4857
oid	-10.4865
▁sorry	-10.4865
▁DIY	-10.4869
▁True	-10.4871
▁Valentine	-10.4873
arrow	-10.4873
▁Receive	-10.4873
▁Physical	-10.4874
▁listen	-10.4876
▁Male	-10.4877
▁beat	-10.4883
▁hate	-10.4883
▁Morning	-10.4883
ution	-10.4884
▁Adventure	-10.4885
start	-10.4888
▁Dental	-10.4889
-2018	-10.4893
▁Episode	-10.4896
▁Municipal	-10.4896
▁begin	-10.4897
▁height	-10.4898
3-	-10.4899
▁catch	-10.4901
▁Deep	-10.4903
▁Bonus	-10.4904
▁Catalogue	-10.4905
MM	-10.4905
▁powerful	-10.4908
▁former	-10.4909
▁har	-10.491
arm	-10.4912
quest	-10.4913
▁rug	-10.4918
▁Bow	-10.4919
▁Tin	-10.4922
一	-10.4926
mag	-10.4934
wick	-10.4935
خ	-10.4935
▁Williams	-10.4936
▁initial	-10.4936
/21	-10.4937
▁junio	-10.4937
/2017	-10.4938
▁===	-10.4939
▁generation	-10.494
rel	-10.4942
▁gay	-10.4943
▁reasons	-10.4943
▁electronic	-10.4943
pdf	-10.4947
▁Wind	-10.4948
▁1999	-10.4948
▁estate	-10.4949
▁luxury	-10.495
▁canada	-10.4951
▁powered	-10.4952
▁grade	-10.4952
▁Trailer	-10.4954
س	-10.4956
▁Boxes	-10.4958
月	-10.4958
▁Focus	-10.4961
ND	-10.4961
/24	-10.4965
▁Wars	-10.4965
▁Fish	-10.4966
real	-10.4966
▁SEO	-10.4966
▁medium	-10.4967
▁audio	-10.4968
▁Iran	-10.4969
▁Honor	-10.4975
2009	-10.4979
▁closed	-10.4979
-02	-10.4981
sco	-10.4983
cip	-10.4986
call	-10.4988
▁Permanent	-10.4989
▁memory	-10.4989
▁stars	-10.4994
▁organ	-10.4994
▁DVD	-10.4995
UE	-10.4996
▁Documents	-10.4999
▁seek	-10.4999
▁seeing	-10.5
location	-10.5002
UG	-10.5002
▁cor	-10.5005
▁login	-10.5006
▁Father	-10.5008
Pre	-10.5008
▁br	-10.5011
Shirts	-10.5011
▁Tables	-10.5011
▁contains	-10.5012
▁Twilight	-10.5013
▁Clearance	-10.5016
▁Strategy	-10.5021
▁Oak	-10.5021
▁unless	-10.5025
ス	-10.5028
▁poor	-10.5029
BU	-10.503
▁RC	-10.5034
put	-10.5034
lands	-10.5035
▁Lip	-10.5036
▁Sen	-10.5036
▁Discount	-10.5038
rot	-10.5038
▁Kid	-10.5038
▁MY	-10.504
▁der	-10.5042
ات	-10.5042
▁exercise	-10.5044
ε	-10.5044
▁Artist	-10.5044
▁Roman	-10.5045
anda	-10.505
break	-10.5053
iel	-10.5053
▁Notes	-10.5057
▁Spirit	-10.506
▁Pricing	-10.5061
▁butter	-10.5061
▁Hub	-10.507
▁Homes	-10.5071
▁Charles	-10.5077
file	-10.5083
▁Companies	-10.5084
vers	-10.5087
llen	-10.5088
▁pal	-10.5088
▁HA	-10.5089
▁Arch	-10.509
rup	-10.5093
ension	-10.5095
lf	-10.5096
▁Walk	-10.5099
▁artist	-10.51
▁Visual	-10.51
▁Fl	-10.5101
Ad	-10.5102
▁Wellness	-10.5105
▁Sim	-10.5107
sta	-10.5108
▁schedule	-10.5108
▁explore	-10.5108
ato	-10.5108
▁Protect	-10.5109
▁Agent	-10.5112
SU	-10.5113
▁Lift	-10.512
▁detail	-10.5121
control	-10.5122
▁Kan	-10.5123
▁(18	-10.5125
▁Bright	-10.5127
▁Sciences	-10.5127
▁Session	-10.5128
hill	-10.5128
▁bio	-10.5129
END	-10.5129
▁Transport	-10.5129
▁58	-10.5129
gre	-10.513
▁cm	-10.5131
▁admin	-10.5136
▁WI	-10.5138
▁stress	-10.5141
EP	-10.5142
▁Wrap	-10.5143
-24	-10.5147
▁Nation	-10.5148
▁Belts	-10.5151
▁Movers	-10.5151
▁primary	-10.5155
▁Salt	-10.5161
▁Chart	-10.5161
/30	-10.5162
▁Bid	-10.5162
▁Tel	-10.5163
▁API	-10.5163
▁pot	-10.5163
▁Bri	-10.5169
▁Making	-10.5173
▁Still	-10.5175
away	-10.5177
vid	-10.5178
▁Pot	-10.5179
▁mon	-10.5179
▁Watches	-10.518
▁invest	-10.518
▁perform	-10.5186
▁taste	-10.5186
▁vintage	-10.5187
HD	-10.519
▁Mas	-10.5192
2018	-10.5193
▁Sample	-10.5196
img	-10.5201
を	-10.5202
▁Faculty	-10.5203
lb	-10.5205
▁effort	-10.5209
FP	-10.5209
▁Fre	-10.5211
▁income	-10.5214
button	-10.5215
▁Ham	-10.5216
▁Les	-10.5216
-08	-10.5218
▁advertising	-10.5219
▁marriage	-10.5219
▁growing	-10.5219
▁Ker	-10.522
▁assume	-10.522
те	-10.522
><	-10.522
▁Ray	-10.5221
▁JA	-10.5224
▁showing	-10.5226
▁assuming	-10.5227
▁Skills	-10.523
▁levels	-10.5231
▁Fishing	-10.5232
▁Sri	-10.5233
▁Bond	-10.5234
▁episode	-10.5235
▁Position	-10.524
▁properties	-10.5241
▁cook	-10.5242
ੁ	-10.5243
▁Introduction	-10.5243
이	-10.5243
stein	-10.5243
PORT	-10.5247
ential	-10.5248
2010	-10.525
▁Claim	-10.5253
▁RF	-10.5255
▁Template	-10.5257
▁te	-10.5257
▁Solar	-10.526
▁Updates	-10.5261
izer	-10.5262
▁Left	-10.5262
▁index	-10.5263
▁Orders	-10.5265
▁Cy	-10.5265
document	-10.5266
nne	-10.5267
▁Innovation	-10.5267
uro	-10.5271
▁desk	-10.5274
Date	-10.5276
▁Frank	-10.5278
▁straight	-10.5283
▁Locations	-10.5286
tim	-10.5287
gro	-10.5288
▁URL	-10.5291
git	-10.5292
\'	-10.5292
master	-10.5295
▁bike	-10.5299
▁ahead	-10.5299
▁HR	-10.5299
▁Dev	-10.53
▁length	-10.53
FL	-10.5301
tract	-10.5302
▁NOW	-10.5304
▁complex	-10.5305
▁Maybe	-10.5305
iya	-10.5306
▁easier	-10.5307
▁Bru	-10.5312
▁module	-10.5318
RT	-10.532
▁Exclusive	-10.5323
▁spent	-10.5324
▁Chan	-10.5326
▁Ground	-10.5329
▁1990	-10.5333
FE	-10.5341
▁units	-10.5343
ugg	-10.5344
▁produce	-10.5347
▁Pr	-10.5351
EA	-10.5353
)}	-10.5355
▁Affiliate	-10.5356
▁assist	-10.5356
▁brown	-10.5357
▁san	-10.5357
▁Tim	-10.5361
▁Army	-10.5365
Other	-10.5366
▁Lady	-10.5369
▁Prop	-10.5371
▁annual	-10.5372
▁Knowledge	-10.5372
▁RN	-10.5373
dor	-10.5373
▁[[	-10.5376
nny	-10.5377
▁mat	-10.538
年	-10.538
▁Pool	-10.5386
{{	-10.5388
▁Load	-10.5388
/27	-10.5389
▁59	-10.5391
▁parent	-10.5394
ਾ	-10.5396
just	-10.5398
▁Polish	-10.54
▁Bear	-10.5403
▁Album	-10.5405
cht	-10.5407
▁fees	-10.5409
plan	-10.5409
▁cute	-10.541
▁burn	-10.5419
xi	-10.5425
▁$(	-10.5425
▁advantage	-10.5429
▁Shower	-10.5432
▁76	-10.5433
▁Scale	-10.5433
matic	-10.5434
system	-10.5437
▁traffic	-10.5437
TON	-10.5439
▁Len	-10.5441
▁Tue	-10.5445
▁Entries	-10.5446
check	-10.5447
/28	-10.5448
error	-10.5448
ush	-10.5451
sub	-10.5454
▁Crime	-10.5454
awa	-10.5454
▁Tar	-10.5456
▁Designer	-10.5458
▁Restaurant	-10.546
cur	-10.5461
▁express	-10.5465
▁boy	-10.5466
▁Ger	-10.5471
lite	-10.5478
pin	-10.5478
▁individuals	-10.5479
cin	-10.5485
▁Format	-10.5485
▁methods	-10.5485
bie	-10.5486
▁120	-10.5486
▁mail	-10.5487
▁Agreement	-10.5488
▁68	-10.5488
▁cra	-10.5488
meter	-10.549
▁Blood	-10.5491
▁Comics	-10.5492
▁10:00	-10.5493
▁appropriate	-10.5495
ка	-10.5498
itive	-10.5499
▁est	-10.55
▁mg	-10.5501
Tech	-10.5501
wp	-10.5502
▁beauty	-10.5503
▁\	-10.5505
▁posting	-10.5507
▁became	-10.5511
wal	-10.5511
▁billion	-10.5512
▁Works	-10.5512
rry	-10.5513
▁Villa	-10.5519
force	-10.5519
▁subscribe	-10.5526
▁FC	-10.5528
▁CS	-10.5535
▁Netherlands	-10.5536
▁Theatre	-10.5536
▁task	-10.5538
▁waiting	-10.554
▁whatever	-10.5547
▁Prime	-10.5551
mus	-10.5553
map	-10.556
▁Competition	-10.5561
En	-10.5561
▁harry	-10.5565
▁Fax	-10.5565
▁families	-10.5569
▁walmart	-10.5569
ering	-10.5569
Ha	-10.557
160	-10.5577
ASE	-10.5577
▁alternative	-10.5577
▁sink	-10.5578
▁himself	-10.5579
block	-10.5581
▁absolutely	-10.5582
▁Med	-10.5583
▁AW	-10.5584
▁song	-10.5585
▁Pipe	-10.5593
0000	-10.5594
▁Sites	-10.5606
cap	-10.5607
▁reflect	-10.5607
▁AP	-10.5608
▁HE	-10.5608
pack	-10.5609
▁released	-10.561
▁Yellow	-10.561
▁Ant	-10.5612
ates	-10.5615
τ	-10.5619
▁played	-10.5622
▁Flag	-10.5624
▁medicine	-10.5627
zing	-10.5629
fu	-10.563
▁adult	-10.563
▁ebook	-10.563
▁temperature	-10.5635
ova	-10.5636
▁outlet	-10.5637
▁Battle	-10.5637
▁Thailand	-10.5645
bol	-10.5647
world	-10.5649
▁mine	-10.565
▁Ave	-10.565
▁Austin	-10.5653
aging	-10.5655
▁Stick	-10.5656
▁bird	-10.5656
BE	-10.5657
▁Listen	-10.566
▁Zip	-10.566
た	-10.566
▁Columbia	-10.5661
▁totally	-10.5664
▁KT	-10.5664
े	-10.5668
▁surface	-10.5669
▁Groups	-10.567
▁remind	-10.5673
▁Economic	-10.5673
▁Gro	-10.5674
▁Wil	-10.5674
▁import	-10.5674
1.1	-10.5683
▁$8	-10.5683
▁opening	-10.5687
▁Models	-10.5688
motion	-10.5688
▁archive	-10.5689
▁xxx	-10.569
▁election	-10.5692
▁Mat	-10.5694
▁brother	-10.5695
ico	-10.5701
mod	-10.5702
▁Stop	-10.5702
▁Michigan	-10.5702
▁Would	-10.5703
▁Organic	-10.5703
ILL	-10.5704
▁edge	-10.5707
▁#2	-10.5708
▁progress	-10.5709
gli	-10.5709
▁Extension	-10.5711
▁Junior	-10.5711
▁looked	-10.5711
▁birthday	-10.5712
ologist	-10.5712
gram	-10.5716
▁successful	-10.5716
▁Holy	-10.5717
▁125	-10.5718
▁Ak	-10.5728
▁lights	-10.5729
piece	-10.5738
▁CI	-10.5738
ago	-10.5738
▁learned	-10.5739
AB	-10.5739
▁slow	-10.5741
50,000	-10.5744
▁relevant	-10.5745
▁Laser	-10.5746
▁Ze	-10.5747
watch	-10.5747
▁spell	-10.5756
ص	-10.5761
ਰ	-10.5761
▁Drug	-10.5764
▁XL	-10.5766
▁с	-10.5767
nu	-10.5767
▁Kat	-10.5769
Item	-10.577
▁Term	-10.5771
▁businesses	-10.5773
▁Wheels	-10.5776
berry	-10.5778
▁bottle	-10.5779
los	-10.578
▁Kim	-10.578
▁Village	-10.5781
▁Victoria	-10.5783
video	-10.5786
▁Edward	-10.5789
▁basis	-10.5789
▁Fixed	-10.5789
-21	-10.5791
▁Heat	-10.5793
▁teaching	-10.5794
▁listing	-10.5794
▁pin	-10.5798
▁por	-10.58
▁Zone	-10.5801
LC	-10.5802
tail	-10.5804
▁helped	-10.5805
▁advanced	-10.581
COM	-10.5814
YS	-10.5815
▁border	-10.5816
eth	-10.5819
▁requires	-10.5819
ა	-10.5821
▁dan	-10.5821
▁truck	-10.5822
current	-10.5822
▁Treatment	-10.5824
ret	-10.5826
▁Malaysia	-10.5829
ule	-10.583
▁launch	-10.5833
unk	-10.5833
▁100.0	-10.5833
▁spin	-10.5834
ار	-10.5835
▁Hal	-10.5836
▁Egypt	-10.5838
take	-10.5842
▁promise	-10.5848
review	-10.5848
inal	-10.5848
▁Dating	-10.585
▁lots	-10.5851
ito	-10.5851
pass	-10.5852
==	-10.5854
▁instruccion	-10.5855
ré	-10.5855
▁Interview	-10.5857
▁significant	-10.5858
▁Path	-10.5859
other	-10.5859
▁Hey	-10.586
▁Cameras	-10.5861
▁£3	-10.5862
/500	-10.5866
tas	-10.5869
л	-10.5871
▁heavy	-10.5872
▁Sensor	-10.5874
▁tile	-10.5875
▁Fat	-10.588
▁Stand	-10.5881
teen	-10.5881
▁offering	-10.5883
▁Edge	-10.5883
__	-10.5885
▁Length	-10.5886
▁pitch	-10.5888
▁Platform	-10.5889
▁inch	-10.5893
▁bat	-10.5895
▁serious	-10.5901
▁MC	-10.5906
▁Printer	-10.5907
▁chart	-10.5908
▁1.0	-10.5908
wiki	-10.5912
pad	-10.5913
itch	-10.5915
▁mentioned	-10.5919
▁schools	-10.592
▁prefer	-10.5921
▁chocolate	-10.5923
▁Instant	-10.5923
▁accident	-10.5924
▁Convention	-10.5924
▁Disease	-10.5924
▁Jay	-10.5924
▁bags	-10.5924
emb	-10.5926
▁>>	-10.5926
Per	-10.5926
▁Vehicles	-10.5926
cate	-10.5929
▁Loss	-10.593
format	-10.5936
▁(@	-10.5936
nk	-10.5938
▁Vietnam	-10.5938
▁YOUR	-10.5939
▁dance	-10.5941
esh	-10.5941
auto	-10.5945
க	-10.5949
▁ADD	-10.595
▁Host	-10.5951
stock	-10.5952
main	-10.5952
▁Sheet	-10.5962
erie	-10.5969
▁south	-10.5972
▁driver	-10.5976
▁strength	-10.598
▁Tumblr	-10.5984
▁OH	-10.5985
▁drug	-10.5988
▁Ana	-10.5991
▁ban	-10.5991
▁element	-10.5992
">	-10.5995
▁Monitor	-10.5995
▁winner	-10.5998
▁corner	-10.5999
▁calls	-10.6
å	-10.6001
▁enhance	-10.6001
▁doubt	-10.6001
▁north	-10.6001
▁counter	-10.6002
▁respond	-10.6003
▁watching	-10.6005
▁cam	-10.6005
・	-10.6009
▁Lost	-10.6011
▁Dry	-10.6015
acy	-10.6017
▁Eric	-10.6019
py	-10.6024
▁president	-10.6027
▁Palm	-10.6029
▁Five	-10.603
▁cookie	-10.603
ime	-10.6032
▁values	-10.6034
tical	-10.6035
▁110	-10.6035
▁69	-10.6037
fall	-10.6038
nal	-10.6041
▁expert	-10.6042
quality	-10.6044
▁Workshop	-10.6044
▁Burn	-10.6045
▁Nick	-10.6046
▁replacement	-10.6047
▁ride	-10.6047
dies	-10.6049
ind	-10.6049
▁sounds	-10.605
▁Icon	-10.6053
▁ب	-10.6065
HER	-10.6066
▁permission	-10.6072
▁Colorado	-10.6073
▁bloggers	-10.6074
▁Touch	-10.6078
crea	-10.6078
▁resource	-10.6082
▁Resort	-10.6083
▁Checkout	-10.6086
し	-10.6088
▁Character	-10.6088
▁climate	-10.6089
▁71	-10.6091
▁pair	-10.6091
UB	-10.6092
▁abuse	-10.6093
group	-10.6094
LL	-10.6095
▁CDL	-10.6096
▁Virtual	-10.6096
▁Soft	-10.61
▁(4	-10.6104
ი	-10.6105
HO	-10.6107
▁Jane	-10.6107
▁Advertisement	-10.6109
▁(12	-10.611
▁instructions	-10.6114
▁Yo	-10.6115
▁Strict	-10.6123
▁sep	-10.6123
pel	-10.613
Read	-10.6139
▁WITH	-10.6141
▁curtain	-10.6141
▁UPS	-10.6142
charge	-10.6142
▁Bit	-10.6144
▁cleaning	-10.6145
▁twitter	-10.6145
▁50%	-10.6146
▁1997	-10.6148
▁economy	-10.6149
▁earth	-10.615
▁Hoodies	-10.6151
lang	-10.6153
pper	-10.6154
▁sector	-10.6154
▁soul	-10.6154
▁9:00	-10.6154
▁helping	-10.6155
ural	-10.6156
▁male	-10.6156
lish	-10.6157
і	-10.6158
▁Problem	-10.6158
▁visual	-10.6158
ean	-10.6158
▁enjoyed	-10.6158
▁bl	-10.6159
▁Gri	-10.6162
▁listed	-10.6163
▁Common	-10.6171
BER	-10.6175
vision	-10.6177
select	-10.618
▁Copy	-10.6181
▁advance	-10.6185
ature	-10.6189
▁extremely	-10.6191
▁pink	-10.6198
▁jun	-10.6199
▁Weekend	-10.62
▁SM	-10.62
▁Column	-10.6202
▁politics	-10.6202
rand	-10.6202
▁Risk	-10.6204
▁(32)	-10.6204
▁1998	-10.6206
▁Chocolate	-10.6211
▁laugh	-10.6213
”,	-10.6217
▁sand	-10.6217
▁owner	-10.6224
▁Craft	-10.6224
UI	-10.6224
▁imagine	-10.6228
▁Francisco	-10.6231
bby	-10.6232
▁Sleep	-10.6233
▁kill	-10.6235
▁cars	-10.6236
▁Deprecated	-10.6237
iment	-10.6237
▁Strip	-10.624
▁behavior	-10.624
▁Condition	-10.6241
▁Ol	-10.6241
▁Graduate	-10.6246
▁earlier	-10.6246
▁Turkey	-10.6247
▁Which	-10.6249
▁Charlotte	-10.6255
▁ABS	-10.6257
IND	-10.6258
▁happens	-10.6259
▁Six	-10.6259
ei	-10.6263
▁Song	-10.6264
­	-10.6264
▁Guitar	-10.6264
zen	-10.6268
▁Count	-10.6271
▁thousands	-10.6272
▁Stage	-10.6273
ı	-10.6273
▁perspective	-10.6273
▁strategy	-10.6273
▁battle	-10.6274
▁DA	-10.6278
/26	-10.6279
▁mission	-10.6281
ii	-10.6283
▁conference	-10.6283
▁Tip	-10.6285
▁developed	-10.6286
▁rule	-10.6286
Id	-10.6287
▁cloud	-10.6288
band	-10.629
CR	-10.629
▁Surgery	-10.6291
▁identify	-10.6291
▁Through	-10.6291
▁wild	-10.6291
▁Agency	-10.6292
▁states	-10.6292
▁AB	-10.6294
▁friendly	-10.6295
ines	-10.6295
▁Directions	-10.6295
tec	-10.6296
▁Row	-10.6297
igh	-10.6299
▁←	-10.63
widget	-10.6308
▁Switzerland	-10.6308
▁Heritage	-10.6308
▁tech	-10.6311
▁oct	-10.6312
▁washer	-10.6312
▁kid	-10.6314
▁adventure	-10.6315
▁Tell	-10.6317
/23	-10.6321
PD	-10.6323
LES	-10.6324
▁Vintage	-10.6326
▁victim	-10.6326
▁Blogs	-10.6327
++	-10.6327
▁Never	-10.6333
OW	-10.6334
▁Memorial	-10.6335
▁affiliate	-10.6335
▁magazine	-10.6335
▁fund	-10.6339
▁Say	-10.634
▁Artists	-10.634
▁Ur	-10.6342
▁Leg	-10.6343
▁largest	-10.6344
true	-10.6344
▁island	-10.6345
▁Stamp	-10.6346
▁net	-10.6346
▁Ang	-10.635
▁Prince	-10.6352
-22	-10.6353
▁Specials	-10.6353
▁2.5	-10.6353
▁SHOP	-10.6354
▁talent	-10.6354
mini	-10.6355
▁Sponsor	-10.6356
▁Player	-10.6358
▁addresses	-10.6358
▁Cab	-10.6359
DER	-10.6364
▁patio	-10.6364
▁waste	-10.6366
▁Wed	-10.6368
close	-10.6369
▁Volleyball	-10.6371
ession	-10.6372
▁Creek	-10.6372
▁Simon	-10.6376
gr	-10.638
▁occur	-10.638
4.00	-10.638
edu	-10.638
IVE	-10.6384
▁partners	-10.6387
2016	-10.6387
▁generic	-10.639
▁names	-10.639
cep	-10.6391
▁Running	-10.6391
▁acc	-10.6391
▁database	-10.6392
OC	-10.6392
▁Flu	-10.6394
▁Testing	-10.6396
UND	-10.6399
▁Hit	-10.641
▁wa	-10.6411
cri	-10.6414
▁album	-10.6416
▁reality	-10.6418
power	-10.642
▁EC	-10.6421
trans	-10.6423
▁Stats	-10.6424
▁Elizabeth	-10.6425
tron	-10.6426
isation	-10.6427
▁Woman	-10.6429
RN	-10.6432
oxy	-10.6433
▁century	-10.6434
▁COM	-10.6437
CK	-10.6442
▁Enjoy	-10.6443
но	-10.6444
▁Hat	-10.6446
▁lose	-10.6446
▁Teacher	-10.6447
▁signed	-10.6448
▁measure	-10.6448
▁influence	-10.6452
▁breath	-10.6452
▁67	-10.6455
▁sal	-10.6455
▁q	-10.6458
GR	-10.6461
▁responsibility	-10.6461
▁older	-10.6461
▁Toyota	-10.6461
▁Upload	-10.6462
ij	-10.6463
▁Upcoming	-10.6463
▁Accept	-10.6463
▁Copper	-10.6465
▁edit	-10.6468
din	-10.647
live	-10.647
▁Spot	-10.6471
▁Baseball	-10.6471
▁sta	-10.6474
▁Module	-10.6477
▁$20	-10.6478
新	-10.6479
▁steps	-10.6481
▁Radi	-10.6482
NG	-10.6483
▁Desk	-10.6484
▁Inside	-10.6488
cess	-10.6489
▁Firm	-10.649
▁Healthy	-10.649
▁PE	-10.6491
▁critical	-10.6491
ander	-10.6493
action	-10.6496
ко	-10.6496
1.0	-10.6497
▁policies	-10.6498
▁Architecture	-10.6498
Order	-10.6499
▁ce	-10.6501
hold	-10.6501
▁Diego	-10.6502
▁director	-10.6506
▁Tre	-10.6509
▁Classes	-10.6509
▁Bird	-10.6515
▁Impact	-10.6517
iser	-10.6517
▁Racing	-10.6519
▁king	-10.6519
!)	-10.6519
▁Drop	-10.652
▁Twin	-10.652
▁ci	-10.6522
▁output	-10.6525
ल	-10.6525
▁operation	-10.6525
▁Created	-10.6529
▁Tele	-10.6534
▁violence	-10.6534
▁Est	-10.6534
)},	-10.6536
shot	-10.6536
odo	-10.6539
uring	-10.654
İ	-10.6543
▁Costa	-10.6543
▁Haha	-10.6543
▁Favorites	-10.6547
ø	-10.6547
born	-10.6548
▁immediately	-10.655
mart	-10.6551
▁Opinion	-10.6552
▁Voice	-10.6554
▁fuck	-10.6556
▁bright	-10.6559
▁Ren	-10.656
Ho	-10.6562
▁Components	-10.6563
130	-10.6566
▁EL	-10.657
▁military	-10.6571
▁Jean	-10.6571
▁Specialist	-10.6577
bul	-10.6577
▁Desktop	-10.6581
▁compare	-10.6581
▁existing	-10.6583
theme	-10.6588
▁Ass	-10.6589
uter	-10.6593
▁particularly	-10.6593
▁Fin	-10.6596
▁Tours	-10.6598
▁Nail	-10.6599
lap	-10.6604
▁fantastic	-10.6607
▁Abstract	-10.6608
PER	-10.6613
▁77	-10.6614
PG	-10.6616
uz	-10.6616
triebsanleitung	-10.6617
▁Frame	-10.6618
▁Gran	-10.6618
ESS	-10.6621
▁Programme	-10.6621
▁birth	-10.6621
fil	-10.6623
420	-10.6625
▁offered	-10.6627
angle	-10.663
▁began	-10.6638
Part	-10.6639
▁rare	-10.6643
▁Summary	-10.6644
▁Brazil	-10.6645
▁Jeep	-10.6646
▁Buyer	-10.6651
▁Gender	-10.6651
▁pieces	-10.6654
DF	-10.6655
allow	-10.6657
▁square	-10.6659
ically	-10.666
▁1.5	-10.6661
NT	-10.6662
▁married	-10.6663
cycl	-10.6665
▁78	-10.667
ection	-10.6674
▁mention	-10.6674
▁Marie	-10.6675
Bu	-10.6675
▁Plug	-10.6678
2000	-10.6679
な	-10.6681
▁Wireless	-10.6684
NET	-10.6684
▁manufacturer	-10.6688
▁records	-10.6688
▁AI	-10.669
"]	-10.669
▁Analytics	-10.669
▁Listing	-10.6691
▁Division	-10.6692
dr	-10.6695
▁Poly	-10.6699
▁Hay	-10.6699
▁Cooper	-10.67
▁Stephen	-10.6701
erson	-10.6701
▁Inspiration	-10.6702
▁pri	-10.6704
Data	-10.6711
ann	-10.6712
ா	-10.6718
▁incompatible	-10.6718
▁buying	-10.6719
▁Residential	-10.6719
kel	-10.672
▁PRE	-10.6721
omi	-10.6721
न	-10.6727
▁Fr	-10.6727
▁Ryan	-10.673
▁meaning	-10.6733
ila	-10.6734
▁Carbon	-10.6735
▁relax	-10.6737
NS	-10.6737
Post	-10.6738
▁qui	-10.6738
▁Pla	-10.6738
UST	-10.6738
▁Hack	-10.6739
▁indicate	-10.6739
udi	-10.6742
▁Bush	-10.6745
▁overall	-10.6746
▁born	-10.6749
▁😉	-10.6749
▁jo	-10.6754
acc	-10.6755
▁leather	-10.6756
lton	-10.6759
▁forget	-10.6764
▁aren	-10.6765
▁Bottom	-10.6767
ERA	-10.6767
▁CAR	-10.6767
▁ideal	-10.677
worth	-10.677
nc	-10.6772
▁finished	-10.6773
ι	-10.6774
▁experienced	-10.6777
RU	-10.678
▁Must	-10.678
▁marked	-10.6781
-28	-10.6782
▁Lane	-10.6783
▁bought	-10.6784
▁judge	-10.6784
/5	-10.6785
xx	-10.6785
▁nov	-10.6789
▁BEER	-10.679
▁rail	-10.6793
▁Uni	-10.6795
ml	-10.6796
TP	-10.6797
gged	-10.6803
▁Figure	-10.6803
▁Jin	-10.6805
001	-10.6809
▁Baker	-10.681
▁saved	-10.6815
%3	-10.6816
▁à	-10.682
ello	-10.6822
▁ru	-10.6823
PH	-10.6825
▁Brian	-10.6825
▁Philippines	-10.6826
HE	-10.6828
▁journal	-10.6828
▁Lin	-10.683
▁Quotes	-10.6831
rey	-10.6833
▁spread	-10.6833
▁bu	-10.6837
▁highest	-10.6841
▁devices	-10.6842
▁TWiki	-10.6842
▁reported	-10.6844
х	-10.6849
ante	-10.685
ки	-10.6852
▁Installation	-10.6858
addClass	-10.686
▁nearly	-10.6866
▁sexual	-10.6871
▁Flower	-10.6873
▁Dave	-10.6873
display	-10.6874
ounce	-10.6878
▁silver	-10.6879
▁Gel	-10.6879
▁Him	-10.6881
igan	-10.6881
INT	-10.6883
typeof	-10.6885
▁categories	-10.6887
▁twilight	-10.6887
▁Officer	-10.6888
string	-10.689
`	-10.6892
▁Blu	-10.6893
▁Hills	-10.6893
▁mass	-10.6894
▁Mai	-10.6895
astic	-10.6895
▁Stra	-10.6896
word	-10.6896
▁Guidelines	-10.6897
hem	-10.6897
gon	-10.6897
“	-10.6902
▁apartment	-10.6902
sey	-10.6903
▁600	-10.6903
heim	-10.6908
▁Maria	-10.6908
▁Ven	-10.6909
▁Jeff	-10.6912
▁profit	-10.6914
▁Cotton	-10.6916
ility	-10.6916
▁310	-10.6918
bet	-10.6919
2.2	-10.6919
▁Stuff	-10.6922
▁Hosting	-10.6922
front	-10.6925
▁Ink	-10.6926
▁Settings	-10.693
▁Dinner	-10.693
▁Chennai	-10.6934
▁Iraq	-10.6935
▁although	-10.6935
▁£4	-10.6936
▁panel	-10.6936
▁sources	-10.6937
▁central	-10.6938
£	-10.6938
2.1	-10.694
▁translation	-10.6945
news	-10.6946
▁$9	-10.6948
ily	-10.6949
▁shift	-10.6949
coming	-10.695
sie	-10.6951
▁calendar	-10.6953
Â	-10.6953
▁Avenue	-10.6954
uel	-10.6956
▁gu	-10.6958
ANCE	-10.6959
▁bearing	-10.696
service	-10.6961
gov	-10.6961
▁Treat	-10.6962
TAL	-10.6965
WA	-10.6965
▁Pad	-10.6967
▁mount	-10.697
▁91	-10.6972
▁ice	-10.6972
CL	-10.6976
▁EX	-10.6976
bor	-10.6978
enter	-10.6979
▁facebook	-10.6982
י	-10.6982
▁wants	-10.6987
▁Communication	-10.6992
▁Navy	-10.6993
▁Beds	-10.6999
▁Matthew	-10.7001
▁YORK	-10.7001
▁Houston	-10.7001
▁adapt	-10.7002
sale	-10.7003
▁covered	-10.7006
▁sister	-10.7008
▁template	-10.7008
▁5.0	-10.7009
▁Poll	-10.7011
▁diet	-10.7015
tex	-10.7016
▁NEWS	-10.7016
cade	-10.7017
▁1996	-10.7019
▁ET	-10.702
▁religion	-10.702
phi	-10.7022
▁iPad	-10.7022
ва	-10.7022
▁Machines	-10.703
▁accurate	-10.703
▁survey	-10.703
▁Choice	-10.7032
Net	-10.7034
MAX	-10.7039
▁changing	-10.7049
▁Brew	-10.7052
after	-10.7054
▁Hats	-10.7054
ं	-10.7059
▁Liberation	-10.7059
▁Pillow	-10.7059
oil	-10.706
▁proud	-10.7064
▁bowl	-10.7065
▁Hire	-10.7067
▁Nav	-10.7069
▁Budget	-10.7069
▁ت	-10.707
see	-10.707
▁Database	-10.707
▁Election	-10.7072
▁PH	-10.7073
▁Clinical	-10.7076
▁Updated	-10.7082
IDE	-10.7085
▁Gay	-10.7087
で	-10.7088
▁except	-10.7088
▁mountain	-10.7089
from	-10.709
FI	-10.7091
▁Jackson	-10.7092
▁Pennsylvania	-10.7096
▁id	-10.7097
▁Everything	-10.7098
▁recipes	-10.71
AV	-10.71
App	-10.7101
▁grey	-10.7102
cz	-10.7105
Web	-10.7105
▁teams	-10.7106
CM	-10.7106
▁Certified	-10.7107
▁sat	-10.711
mu	-10.711
vie	-10.7118
alt	-10.7118
▁missing	-10.7119
▁cancel	-10.7119
▁88	-10.712
▁Hood	-10.7122
▁prop	-10.7124
▁Cheers	-10.7124
▁larger	-10.7127
▁Nike	-10.7128
▁Applications	-10.7131
▁luck	-10.7135
ο	-10.7136
▁Female	-10.7136
▁Therapy	-10.7136
▁JOB	-10.7139
▁Czech	-10.7139
So	-10.7139
▁Arrivals	-10.7142
▁Put	-10.7143
▁script	-10.7146
▁prescription	-10.7147
▁notifications	-10.7147
▁Chief	-10.7147
▁Lan	-10.715
▁}}}	-10.7156
rio	-10.7156
Element	-10.7157
г	-10.7157
olin	-10.7157
▁temp	-10.7158
▁egg	-10.7158
pho	-10.716
▁rev	-10.7161
▁Ci	-10.7162
▁(5	-10.7163
▁Ok	-10.7166
▁Java	-10.717
selected	-10.717
eva	-10.7173
flex	-10.7174
▁kept	-10.7176
▁McC	-10.7177
▁Balance	-10.7179
shirt	-10.718
sville	-10.7181
ket	-10.7183
rac	-10.7184
▁audience	-10.7185
▁Womens	-10.7187
▁Audi	-10.7189
▁−	-10.719
ogen	-10.7191
▁pour	-10.7191
▁Chicken	-10.7195
▁lib	-10.7197
▁Anne	-10.7197
▁Parent	-10.7199
▁Fla	-10.7201
▁Sl	-10.7203
▁74	-10.7207
▁creation	-10.7209
MD	-10.7209
▁Answer	-10.721
▁comfortable	-10.7211
▁ft	-10.7211
▁mod	-10.7211
-23	-10.7212
▁recommended	-10.7212
▁FE	-10.7212
▁saving	-10.7217
▁Springs	-10.7218
yard	-10.7219
RES	-10.7221
And	-10.7222
scroll	-10.7223
▁Portal	-10.7227
▁86	-10.7229
▁Expand	-10.7229
▁dec	-10.723
3.2	-10.7233
▁sensor	-10.7234
hon	-10.7237
UD	-10.7238
▁boxes	-10.724
ENS	-10.7242
jet	-10.7253
▁escort	-10.7253
▁Iowa	-10.7254
▁Although	-10.7254
lab	-10.7255
ridge	-10.7255
▁sugar	-10.7255
▁Glen	-10.726
550	-10.7262
range	-10.7262
▁driving	-10.7263
ACE	-10.7273
soft	-10.7274
▁Got	-10.7275
▁core	-10.7275
▁skill	-10.7276
▁Youtube	-10.7276
▁NI	-10.7277
▁`	-10.7277
▁bench	-10.7279
rus	-10.728
fix	-10.728
asa	-10.728
▁Those	-10.7284
्	-10.7285
▁CE	-10.7287
▁rise	-10.7288
▁Caps	-10.7288
▁lines	-10.7291
▁Ter	-10.7291
▁route	-10.7294
▁ran	-10.7294
▁Rec	-10.7295
▁kick	-10.7295
']	-10.7296
ре	-10.7297
fill	-10.7301
▁Cru	-10.7302
IV	-10.7305
▁Rest	-10.7306
▁goals	-10.7307
Or	-10.7309
▁Campaign	-10.7312
▁trouble	-10.7312
cup	-10.7315
▁Ap	-10.7316
▁promote	-10.732
TRO	-10.7321
▁Trial	-10.7321
▁Essential	-10.7323
▁Packages	-10.7323
▁regard	-10.7323
▁Their	-10.7329
▁£5	-10.733
dar	-10.7331
▁Lauren	-10.7334
itt	-10.7335
where	-10.7336
▁Lv	-10.7337
▁Rica	-10.734
▁faith	-10.7342
▁Mexican	-10.7342
exp	-10.7343
▁von	-10.7346
▁guarantee	-10.7348
▁Rep	-10.7349
▁Automotive	-10.7352
▁sight	-10.7352
article	-10.7356
▁Zo	-10.7356
nan	-10.7356
▁Ali	-10.7357
ル	-10.7361
分	-10.7361
▁Im	-10.7362
▁passed	-10.7364
▁Username	-10.7365
▁honest	-10.7368
▁efficient	-10.7368
NER	-10.7369
cott	-10.737
rah	-10.7372
girl	-10.7373
▁def	-10.7374
▁hat	-10.7377
▁Bull	-10.7386
▁Tire	-10.7389
dem	-10.739
▁inc	-10.7391
▁Crystal	-10.7391
▁perhaps	-10.7391
▁theory	-10.7391
क	-10.7393
▁minor	-10.7395
▁placed	-10.7398
atch	-10.7401
AI	-10.7402
▁Chemical	-10.7403
▁documents	-10.7403
ote	-10.7403
▁Il	-10.7404
-26	-10.7405
fire	-10.7405
hai	-10.7408
3%	-10.7409
▁samsung	-10.7411
▁ok	-10.7413
▁prove	-10.7413
▁ap	-10.7414
▁whose	-10.7415
▁Picture	-10.7415
OUR	-10.7417
reg	-10.742
ERT	-10.7423
kon	-10.7424
hide	-10.7425
urg	-10.7427
▁excited	-10.7431
rom	-10.7432
ents	-10.7433
▁tip	-10.7435
▁Tiger	-10.7436
▁Growth	-10.7436
▁cabinets	-10.7436
etic	-10.7445
▁Democratic	-10.7445
atory	-10.7446
RG	-10.7447
▁Carl	-10.7448
dh	-10.7451
phy	-10.7452
▁Seed	-10.7453
▁Manufacturing	-10.7461
ees	-10.7462
ited	-10.7463
east	-10.7465
ister	-10.7466
▁(15	-10.7467
▁removed	-10.7468
▁Susan	-10.7471
は	-10.7471
▁worry	-10.7471
▁smile	-10.7473
▁refer	-10.7474
include	-10.7476
lyn	-10.7485
▁disabled	-10.7491
▁Teaching	-10.7491
wide	-10.7492
▁seven	-10.7493
▁Hor	-10.7493
▁Easter	-10.7496
rip	-10.7497
burn	-10.7499
▁coverage	-10.75
▁Athenaeum	-10.7501
▁Heavy	-10.7501
▁Remote	-10.7501
▁civil	-10.7502
▁crime	-10.7502
▁pla	-10.7503
▁PER	-10.7505
▁fee	-10.7507
▁SB	-10.7507
num	-10.7508
▁covers	-10.7508
yer	-10.751
▁minimum	-10.7511
ж	-10.7511
▁communities	-10.7512
▁sin	-10.7512
▁pur	-10.7516
▁Coll	-10.7517
▁Pur	-10.7518
=1	-10.752
▁Deal	-10.752
म	-10.7521
▁Illinois	-10.7521
▁و	-10.7523
prov	-10.7524
twitter	-10.7526
▁Found	-10.7526
???	-10.7526
IES	-10.7528
cro	-10.7528
▁greater	-10.7531
AK	-10.7533
▁dryer	-10.7537
▁Brook	-10.7537
999	-10.7538
▁aware	-10.7538
▁Qty	-10.7538
▁joy	-10.7539
raw	-10.7539
▁vision	-10.7539
▁fuel	-10.754
▁Wisconsin	-10.7542
▁Finish	-10.7542
▁---	-10.7542
▁centre	-10.7543
nor	-10.7543
▁Das	-10.7545
▁Bride	-10.7546
▁fail	-10.7547
▁Parking	-10.7548
=0	-10.7548
▁Animals	-10.7549
▁Wo	-10.7552
▁Random	-10.7552
▁spam	-10.7554
ido	-10.7554
hor	-10.7555
▁rental	-10.7557
▁west	-10.7559
ras	-10.7559
▁websites	-10.7561
▁Admin	-10.7561
▁RI	-10.7562
▁Sweden	-10.7562
▁Linux	-10.7562
▁Points	-10.7565
aux	-10.7568
▁highlight	-10.757
▁Gre	-10.7571
▁delete	-10.7571
が	-10.7572
ν	-10.7572
▁destination	-10.7572
▁funny	-10.7577
▁Error	-10.7578
▁Sil	-10.7579
Free	-10.7579
▁شركة	-10.7582
▁tape	-10.7584
▁Lisa	-10.7584
▁guests	-10.7585
▁clearly	-10.7588
My	-10.7591
▁Certificate	-10.7592
್	-10.7592
▁experiment	-10.7592
▁loan	-10.7592
350	-10.7593
USD	-10.7594
▁layer	-10.7601
▁Holding	-10.7602
▁Depth	-10.7603
▁Vis	-10.7603
cial	-10.7603
▁Clar	-10.7605
RIS	-10.7608
OVER	-10.761
▁Jet	-10.7612
base	-10.7612
▁chain	-10.7613
abilities	-10.7613
▁Ear	-10.7614
▁Cape	-10.7619
▁Bun	-10.7622
▁Taylor	-10.7623
▁Ep	-10.7623
now	-10.7625
▁Ways	-10.7626
▁RV	-10.7628
中	-10.7632
▁Premier	-10.7633
(!	-10.7634
▁Denver	-10.7635
▁programme	-10.7636
▁FM	-10.7638
curr	-10.7638
▁Jeans	-10.7638
window	-10.7639
nis	-10.7643
▁wash	-10.7643
▁pattern	-10.7644
xnxx	-10.7646
DP	-10.7647
city	-10.7647
▁Joint	-10.7647
▁Install	-10.7649
▁solve	-10.7649
▁MT	-10.7652
▁decide	-10.7653
▁Bass	-10.7654
hou	-10.7655
▁export	-10.7658
▁73	-10.7658
▁Bas	-10.7658
▁transform	-10.7658
▁Pump	-10.7659
▁Visa	-10.7659
logical	-10.7659
▁TOP	-10.7661
▁Scar	-10.7662
▁Intelligence	-10.7665
▁Tam	-10.7665
▁pat	-10.7666
▁ter	-10.7667
▁Jar	-10.7668
ز	-10.7669
▁Newsletters	-10.7674
▁Branch	-10.7674
▁Vegas	-10.7674
▁Investor	-10.7675
▁stream	-10.7675
▁None	-10.7676
▁contain	-10.7678
▁Answers	-10.7678
▁minute	-10.768
▁Exhibit	-10.7681
▁Industries	-10.7684
▁Transaction	-10.7684
▁Tennis	-10.7684
fra	-10.7685
▁dinner	-10.7686
duct	-10.7689
▁Major	-10.7689
▁Better	-10.7691
▁Aqua	-10.7692
▁RES	-10.7692
▁Nursing	-10.7694
▁porno	-10.7695
▁Ros	-10.7695
▁7:00	-10.7695
▁senior	-10.7697
▁Rich	-10.77
▁les	-10.7704
▁Wallpaper	-10.7705
▁Kill	-10.7706
▁Recipe	-10.7717
▁SL	-10.7718
='	-10.7719
▁Command	-10.7719
share	-10.7722
▁everyday	-10.7724
▁Marvel	-10.7724
▁column	-10.7725
▁Based	-10.7725
▁Dia	-10.7728
▁Bor	-10.7728
▁TE	-10.773
▁implement	-10.773
zie	-10.773
school	-10.7732
▁HTML	-10.7732
▁Demo	-10.7733
▁iron	-10.7733
▁department	-10.7735
▁Sony	-10.7738
▁Designs	-10.7742
▁slide	-10.7742
English	-10.7743
tw	-10.7747
▁heater	-10.7748
RD	-10.775
▁input	-10.7751
▁в	-10.7753
▁submit	-10.7756
stra	-10.7757
track	-10.7758
▁sk	-10.7762
▁Object	-10.7764
▁MAN	-10.7764
cel	-10.7764
ways	-10.7765
bble	-10.7765
▁Certification	-10.7766
▁Recreation	-10.7766
▁biggest	-10.7766
▁Muslim	-10.7767
then	-10.777
TT	-10.7772
▁Syn	-10.7772
▁Pictures	-10.7773
▁Arizona	-10.7777
▁Reader	-10.7778
▁writer	-10.7779
HC	-10.7781
ema	-10.7782
LM	-10.7783
▁Acc	-10.7783
▁lighting	-10.7784
▁Mechanicsville	-10.7787
▁BANK	-10.7788
▁HS	-10.7791
▁Friend	-10.7793
▁Alumni	-10.7797
Top	-10.7799
guard	-10.78
▁PU	-10.7802
Year	-10.7803
LP	-10.7803
BL	-10.7808
edit	-10.781
▁wave	-10.781
eta	-10.7811
▁Planet	-10.7811
▁Listings	-10.7818
-2016	-10.7818
▁registration	-10.7818
▁CT	-10.7825
▁followed	-10.7829
▁Motorcycle	-10.7829
ska	-10.783
▁Peace	-10.783
▁Again	-10.7835
▁Favorite	-10.7836
];	-10.7837
▁Beat	-10.7838
▁Ukraine	-10.7839
▁Spray	-10.7841
ARY	-10.7841
USE	-10.7846
▁achieve	-10.7847
▁completed	-10.7847
▁cho	-10.7848
▁nut	-10.7849
▁Pain	-10.7849
▁Austria	-10.7849
▁Plans	-10.785
▁broad	-10.7852
▁Guard	-10.7859
Close	-10.786
▁testing	-10.7868
mond	-10.787
▁Authors	-10.787
▁Snap	-10.7874
▁Poster	-10.7874
▁standards	-10.7875
▁During	-10.7877
▁competition	-10.788
▁Recommended	-10.7881
▁repeat	-10.7882
▁Legend	-10.7882
▁Target	-10.7884
ening	-10.7887
Gu	-10.7889
▁Rico	-10.789
▁teach	-10.7891
▁guest	-10.7891
▁]	-10.7892
▁PLUS	-10.7893
▁(-)	-10.7895
hop	-10.7896
▁manager	-10.7898
▁exciting	-10.7901
▁BMW	-10.7902
▁sn	-10.7903
▁Domin	-10.7904
▁Manufacturer	-10.7906
▁Collect	-10.791
ease	-10.7911
▁Response	-10.7912
▁premium	-10.7912
▁zero	-10.7914
RR	-10.7915
Vi	-10.7916
▁Gray	-10.7917
cio	-10.7917
▁cla	-10.7918
even	-10.7918
▁Pocket	-10.7922
▁(33)	-10.7925
▁Tower	-10.7925
▁Tape	-10.7925
▁mill	-10.7926
▁Bet	-10.7927
101	-10.7928
▁Pond	-10.7929
▁8:00	-10.7931
▁celebrate	-10.7933
▁According	-10.7933
dam	-10.7936
render	-10.794
9%	-10.7943
sia	-10.7945
▁1995	-10.7946
FS	-10.7948
-00	-10.795
▁challenges	-10.795
▁NFL	-10.7951
ти	-10.7952
▁ya	-10.7954
▁cooking	-10.7954
▁adding	-10.7955
▁graphic	-10.7957
▁Atlanta	-10.7958
▁Ghost	-10.7958
▁shade	-10.796
temp	-10.7961
6.00	-10.7961
▁<@	-10.7962
▁syn	-10.7963
▁Economy	-10.7964
▁Exhaust	-10.7964
Lo	-10.7965
▁mm	-10.7968
GI	-10.7968
▁PL	-10.797
▁79	-10.7971
tell	-10.7971
▁Default	-10.7974
ア	-10.7975
▁2020-01-17	-10.7975
ference	-10.7975
▁lunch	-10.7976
▁IL	-10.7981
▁domain	-10.7981
▁chairs	-10.7982
ли	-10.7983
oni	-10.7984
▁Speaker	-10.7984
ラ	-10.7985
▁combination	-10.7985
▁asking	-10.7988
त	-10.799
▁Bla	-10.7991
hat	-10.7992
▁NJ	-10.7992
▁Brain	-10.7992
▁Sin	-10.7993
▁classes	-10.7993
▁Historical	-10.7994
▁Alt	-10.7995
▁desire	-10.7996
▁Nigeria	-10.7998
▁oven	-10.8002
▁Badge	-10.8002
▁missed	-10.8004
▁MR	-10.8005
▁finance	-10.8007
▁Wilson	-10.801
weight	-10.8011
)}}	-10.8011
elli	-10.8014
▁Guaranteed	-10.8017
▁Editorial	-10.8019
▁Ranch	-10.802
▁notes	-10.8023
▁RM	-10.8026
▁84	-10.8027
▁Warranty	-10.8028
▁favourite	-10.8028
▁windows	-10.8031
fold	-10.8033
config	-10.8035
ando	-10.8036
▁Ron	-10.8037
▁Painting	-10.8038
▁organisation	-10.8039
▁debt	-10.804
▁evening	-10.8042
8.1	-10.8043
▁fu	-10.8045
afe	-10.8045
▁external	-10.8053
▁taller	-10.8054
▁root	-10.8055
▁ste	-10.8059
▁mess	-10.806
▁Suit	-10.8061
▁anywhere	-10.8065
▁busy	-10.8065
▁protein	-10.807
WAY	-10.8073
▁Preview	-10.8074
aster	-10.8074
▁Bangalore	-10.8075
rated	-10.8075
▁Kevin	-10.8076
stitution	-10.8076
EG	-10.8079
joomla	-10.8081
▁Ultimate	-10.8081
▁Telephone	-10.8081
▁Ready	-10.8083
otic	-10.8084
erg	-10.8086
▁97	-10.8086
LAR	-10.8087
▁doors	-10.8089
▁plants	-10.809
▁Chamber	-10.8092
▁MAR	-10.8092
▁87	-10.8099
▁Solid	-10.81
rise	-10.8101
amo	-10.8101
▁brands	-10.8102
DD	-10.8104
application	-10.8105
▁arch	-10.8105
kie	-10.8107
actic	-10.8109
▁delivered	-10.8111
▁intended	-10.8112
▁Universal	-10.8113
▁deutsch	-10.8113
▁logged	-10.8114
leg	-10.8114
round	-10.8116
2017	-10.812
anger	-10.8121
▁Rus	-10.8125
wh	-10.8126
▁honor	-10.8135
▁rent	-10.8136
6.5	-10.8137
▁Lanka	-10.8138
▁Minister	-10.8139
▁Charts	-10.814
wl	-10.8141
▁cent	-10.8143
rog	-10.8144
▁Professor	-10.8145
▁Reddit	-10.8145
▁increased	-10.8147
▁stores	-10.8148
▁Cent	-10.815
eon	-10.8155
1000	-10.8155
▁spirit	-10.8155
how	-10.8156
リ	-10.8156
▁enabled	-10.8157
mission	-10.8159
▁holding	-10.816
QUE	-10.8162
▁none	-10.8162
"}	-10.8165
ρ	-10.8167
▁promotion	-10.8168
▁FR	-10.8173
hole	-10.8174
build	-10.8176
▁applicable	-10.8177
cycle	-10.8178
ART	-10.8182
▁delay	-10.8183
Te	-10.8187
▁smooth	-10.8188
Title	-10.8192
El	-10.8194
▁magic	-10.8197
と	-10.8199
▁volunteer	-10.8199
▁(20	-10.8201
▁Speakers	-10.8202
110	-10.8202
GN	-10.8202
direct	-10.8207
▁Breakfast	-10.821
▁agency	-10.8211
▁Secure	-10.8212
▁Parents	-10.8214
▁leaders	-10.8216
▁Lunch	-10.8216
▁cable	-10.8217
▁Piece	-10.8219
▁boots	-10.822
▁comm	-10.8221
▁Yoga	-10.8224
nar	-10.8224
▁inspired	-10.8226
▁Sy	-10.8228
▁keeping	-10.8231
▁instrument	-10.8231
▁Holidays	-10.8232
ASS	-10.8233
▁BI	-10.8235
▁Jam	-10.8236
▁и	-10.8236
▁freedom	-10.8237
▁tele	-10.8237
▁techniques	-10.8243
▁sport	-10.8243
▁LOVE	-10.8244
▁Loan	-10.8244
▁fiction	-10.8245
▁GMT	-10.8245
▁Met	-10.8245
▁Senate	-10.8245
eff	-10.8246
▁Las	-10.8246
▁strip	-10.8251
▁81	-10.8254
than	-10.8255
▁Detail	-10.8258
boy	-10.8259
▁stamp	-10.8261
XL	-10.8262
▁Technologies	-10.8264
["	-10.8264
▁Que	-10.8265
▁$('#	-10.8265
▁Greek	-10.8265
▁CEO	-10.8265
▁Memory	-10.8267
на	-10.8269
247	-10.827
▁Pads	-10.827
dir	-10.8271
▁89	-10.8272
▁dic	-10.8274
▁Earrings	-10.8275
▁Foreign	-10.8275
▁Fruit	-10.8276
▁Coach	-10.8277
valid	-10.8282
▁Portfolio	-10.8285
rri	-10.8287
▁Miami	-10.8287
▁(34)	-10.8288
Ga	-10.8288
▁Jon	-10.8289
▁Intel	-10.8292
bell	-10.8293
▁Diet	-10.8295
▁boat	-10.8296
▁depot	-10.8296
▁harm	-10.8297
▁Present	-10.8298
▁Operations	-10.83
game	-10.83
gur	-10.83
▁finger	-10.8302
Inter	-10.8304
CP	-10.8306
-2015	-10.8307
▁Ministry	-10.8307
▁hurt	-10.8309
▁internal	-10.8309
tha	-10.8312
2.5	-10.8313
rock	-10.8315
▁Corp	-10.8316
ç	-10.8318
▁applied	-10.8318
▁Casual	-10.832
▁$0	-10.8324
ONE	-10.8328
▁appeal	-10.8329
jack	-10.8329
▁WH	-10.833
▁photograph	-10.8333
▁hire	-10.8334
▁Coin	-10.834
▁ki	-10.834
change	-10.8341
▁92	-10.8342
▁named	-10.8342
bank	-10.8342
▁filled	-10.8346
(0)	-10.8346
market	-10.8352
▁Partnership	-10.8353
▁Dutch	-10.8353
▁Atom	-10.8355
▁tight	-10.8358
▁laws	-10.8359
▁**	-10.8361
thing	-10.8363
▁pipe	-10.8364
▁prospect	-10.8364
▁visiting	-10.8365
kt	-10.8369
ITE	-10.8369
▁Employee	-10.8373
▁Greece	-10.8373
▁Wholesale	-10.8373
▁Pearl	-10.8374
▁Monthly	-10.8376
▁died	-10.8378
▁monthly	-10.8378
▁sm	-10.8379
▁350	-10.838
▁..	-10.8381
boards	-10.8382
unch	-10.8383
corn	-10.8384
wall	-10.8386
▁Boo	-10.8386
▁Candle	-10.8387
▁Mega	-10.8387
▁convert	-10.8388
▁Amp	-10.8388
ANG	-10.8389
▁Corner	-10.8393
▁draw	-10.8394
▁announced	-10.8395
上	-10.8395
▁leaving	-10.8395
-27	-10.8395
▁Others	-10.8398
▁presentation	-10.8402
▁Jennifer	-10.8406
▁quarter	-10.8406
ym	-10.8406
▁Outlook	-10.8408
▁Rated	-10.8409
▁teacher	-10.841
ncy	-10.8411
stan	-10.8411
mber	-10.8411
Min	-10.8414
▁INC	-10.8415
▁returns	-10.8415
LF	-10.8415
▁pl	-10.8415
▁distribution	-10.8417
▁practical	-10.8417
vil	-10.8418
INS	-10.8419
▁Role	-10.8421
▁Wonder	-10.8423
▁acid	-10.8425
▁presented	-10.8425
▁Costumes	-10.8425
▁Luxury	-10.8428
lio	-10.8428
▁Plate	-10.843
▁diy	-10.8431
til	-10.8431
▁Dun	-10.8431
▁GPS	-10.8432
▁coast	-10.8437
II	-10.8438
ages	-10.8438
titude	-10.8448
▁tube	-10.8448
▁Garage	-10.8449
▁Tab	-10.8449
ł	-10.845
▁Engagement	-10.845
125	-10.8452
nell	-10.8453
▁Button	-10.8453
▁leader	-10.8458
▁Exc	-10.8458
TRA	-10.8459
▁courses	-10.8461
प	-10.8461
▁yesterday	-10.8461
TB	-10.8463
▁Devices	-10.8465
park	-10.8466
▁Jr	-10.8466
ista	-10.8466
▁Fra	-10.8468
▁wire	-10.8469
uda	-10.8471
▁therefore	-10.8472
cil	-10.8473
▁Norway	-10.8475
▁Lawyer	-10.8475
ege	-10.8479
▁gallery	-10.8481
▁Person	-10.8482
(".	-10.8482
▁Structure	-10.8483
▁academic	-10.8483
▁engineering	-10.8484
foot	-10.8489
BD	-10.849
▁random	-10.8495
▁Tie	-10.8498
yne	-10.85
emi	-10.8502
▁VIEW	-10.8503
▁क	-10.8503
▁$50	-10.8503
▁default	-10.8504
▁Availability	-10.8505
▁Hockey	-10.8505
▁Portable	-10.8507
OO	-10.8509
/05/	-10.8509
▁Handle	-10.851
то	-10.8516
-40	-10.8516
▁participate	-10.8516
▁Donald	-10.8517
KS	-10.8519
rank	-10.852
▁Barn	-10.8524
▁photography	-10.8524
▁Communications	-10.8528
blogspot	-10.8528
▁Coupons	-10.853
Controller	-10.8531
▁disc	-10.8535
▁automatically	-10.8539
▁produced	-10.854
▁claims	-10.8544
▁debate	-10.8546
look	-10.8547
▁spec	-10.8547
▁dedicated	-10.855
▁Recovery	-10.855
▁injury	-10.855
用	-10.855
▁visitors	-10.8552
IX	-10.8553
cious	-10.8554
▁selling	-10.8554
▁IV	-10.8555
▁Cooking	-10.8558
▁Hour	-10.8559
element	-10.8559
▁described	-10.8559
▁OUR	-10.8559
cons	-10.856
▁bug	-10.856
▁occasion	-10.856
▁Traffic	-10.8561
she	-10.8562
MU	-10.8565
▁tv	-10.8565
shed	-10.8568
▁approved	-10.8569
▁Hip	-10.8572
ль	-10.8572
வ	-10.8572
▁technologies	-10.8572
▁Screw	-10.8572
▁served	-10.8577
anne	-10.8578
▁Spin	-10.858
SION	-10.8582
▁Publishing	-10.8583
▁famous	-10.8584
▁Mask	-10.8585
▁2021	-10.8585
torial	-10.8591
▁Stars	-10.8592
▁Representative	-10.8595
▁involve	-10.8595
dio	-10.8598
▁ads	-10.86
▁Third	-10.8607
▁Launch	-10.8609
▁Fil	-10.8609
Comp	-10.861
▁Graphic	-10.8616
▁Less	-10.8616
▁Belgium	-10.8617
levitra	-10.8617
▁Alerts	-10.8617
▁bonus	-10.8617
▁boys	-10.8619
▁trail	-10.8621
ри	-10.8623
▁broken	-10.8624
eck	-10.8625
▁Mental	-10.8626
▁mal	-10.8628
在	-10.8628
▁conduct	-10.863
▁Clinic	-10.8631
plus	-10.8632
encies	-10.8632
▁GU	-10.8635
▁Toy	-10.8636
rian	-10.8637
▁designer	-10.8637
2008	-10.8637
week	-10.8639
▁Korean	-10.8641
▁Valve	-10.8642
▁Always	-10.8642
▁Steven	-10.8643
bc	-10.8644
bridge	-10.8644
ਨਾ	-10.8644
▁sim	-10.8646
▁Half	-10.8648
tom	-10.8649
support	-10.8649
DM	-10.865
▁VIDEO	-10.8651
▁Vinyl	-10.8652
▁assistance	-10.8653
▁Pitch	-10.8654
TOR	-10.8656
▁gender	-10.8657
▁walking	-10.8657
▁Bikes	-10.866
▁GBP	-10.8661
▁Hang	-10.8661
")}	-10.8661
▁federal	-10.8662
▁eight	-10.8663
▁editor	-10.8663
▁representative	-10.8664
-50	-10.8665
▁Document	-10.8666
▁Mur	-10.8666
▁signal	-10.8668
▁230	-10.867
▁professionals	-10.867
▁Lite	-10.867
▁Comm	-10.867
▁BBC	-10.8671
▁shirt	-10.8672
▁Bluetooth	-10.8673
▁utilisation	-10.8674
▁Lewis	-10.8674
FENAC	-10.8674
▁determine	-10.8674
▁leadership	-10.8674
▁EM	-10.8676
▁drugs	-10.8676
▁pure	-10.8678
▁Crafts	-10.868
850	-10.868
▁elements	-10.8682
One	-10.8682
▁Luc	-10.8683
Image	-10.8684
▁Survival	-10.8685
▁chapter	-10.8685
▁foreign	-10.8685
TF	-10.8686
▁Alert	-10.8692
!”	-10.8692
та	-10.8692
▁deals	-10.8693
▁therapy	-10.8695
▁supported	-10.8696
▁FINAL	-10.8696
▁@>	-10.8697
align	-10.8698
nut	-10.8702
ulated	-10.8706
り	-10.8707
▁Kur	-10.8708
▁Joy	-10.8708
▁subscription	-10.8708
▁doctors	-10.8708
▁flowers	-10.8708
▁Rail	-10.8709
▁Minnesota	-10.8713
▁Letters	-10.8713
▁sum	-10.8714
made	-10.8715
▁Alternative	-10.8719
▁Independent	-10.8719
▁Buck	-10.8719
▁hits	-10.8726
▁developing	-10.8726
▁Circuit	-10.873
▁Permalink	-10.873
▁concrete	-10.873
▁Beer	-10.8731
▁Slide	-10.8731
▁Rent	-10.8735
▁horse	-10.8736
▁suffer	-10.8736
888	-10.8737
▁96	-10.8737
nov	-10.8739
▁employer	-10.8739
▁shut	-10.874
cart	-10.8741
▁Transmission	-10.8742
▁Bread	-10.8743
▁Brad	-10.8745
▁Giant	-10.8751
Job	-10.8751
ér	-10.8752
व	-10.8753
▁decoration	-10.8753
▁Faith	-10.8753
▁Lion	-10.8755
next	-10.8756
▁Nat	-10.8758
nick	-10.8759
MER	-10.8759
rug	-10.8762
▁confirm	-10.8763
0]	-10.8763
▁yellow	-10.8764
▁Publisher	-10.8764
fish	-10.877
bird	-10.8771
▁interface	-10.8776
▁origin	-10.8777
▁Dual	-10.8782
hub	-10.8783
▁Sir	-10.8786
▁SK	-10.8787
▁Publication	-10.8789
▁skip	-10.8793
ao	-10.8793
USA	-10.8793
status	-10.8796
▁exam	-10.8796
▁ACECLO	-10.8799
4.95	-10.8799
▁Seminar	-10.8799
à	-10.88
▁experts	-10.8801
▁dynamic	-10.8801
LB	-10.8805
▁argument	-10.8805
▁Neuro	-10.8805
▁Wow	-10.8805
▁Closed	-10.8806
gno	-10.8809
rol	-10.8809
▁Pull	-10.8809
▁caused	-10.8812
▁reveal	-10.8813
▁Sab	-10.8814
▁Rot	-10.8815
▁connected	-10.8817
▁Virgin	-10.8818
▁wo	-10.8818
▁liked	-10.882
▁industrial	-10.8822
▁Ye	-10.8822
▁Scholarship	-10.8822
▁boost	-10.8822
▁Political	-10.8823
▁suggestions	-10.8823
▁Educational	-10.8825
▁realize	-10.8828
lec	-10.8831
る	-10.8833
▁Deck	-10.8834
▁Storm	-10.8835
that	-10.8836
▁12:00	-10.8836
▁Shu	-10.8836
▁RD	-10.8838
pher	-10.8838
Star	-10.884
ibility	-10.8842
▁Prints	-10.8842
▁clicking	-10.8842
fully	-10.8843
▁Average	-10.8845
▁factor	-10.8845
TU	-10.8846
+'	-10.8847
clo	-10.8851
une	-10.8851
▁Brass	-10.8854
▁Bin	-10.8857
Car	-10.8858
▁organizations	-10.8861
-9]	-10.8861
▁holder	-10.8862
▁trends	-10.8864
▁god	-10.8867
한	-10.8868
▁Grill	-10.8869
▁PI	-10.8869
tab	-10.887
CU	-10.8873
▁Whi	-10.8873
▁bra	-10.8874
aught	-10.8875
▁Shape	-10.8875
4]	-10.8876
▁Provider	-10.8876
aki	-10.8877
opt	-10.888
▁Nepal	-10.888
▁Strap	-10.8881
Work	-10.8882
▁Athletics	-10.8885
▁С	-10.8885
▁established	-10.8887
odi	-10.8887
▁String	-10.8887
▁Jewellery	-10.8891
▁Prayer	-10.8891
▁salt	-10.8892
1.00	-10.8898
hot	-10.8899
▁Affairs	-10.8902
▁Facilities	-10.8902
▁Bee	-10.8902
▁extension	-10.8902
lex	-10.8904
journal	-10.8904
!=	-10.8905
▁RT	-10.891
▁Presentation	-10.8915
▁Cel	-10.8915
▁properly	-10.8916
note	-10.8917
▁che	-10.8918
▁Lot	-10.8919
▁bear	-10.8924
▁Portugal	-10.8925
▁Sketch	-10.8925
ん	-10.8925
▁]]	-10.8927
ла	-10.8931
MR	-10.8932
PAN	-10.8934
▁tough	-10.8934
▁Kal	-10.8935
LET	-10.8936
▁Miller	-10.8936
ego	-10.8936
▁mer	-10.8936
ो	-10.8937
▁Yarn	-10.8938
▁Cole	-10.8939
▁Earn	-10.894
▁cities	-10.894
blo	-10.8941
▁hum	-10.8941
▁Feel	-10.8945
cor	-10.8948
▁crazy	-10.8949
▁Vari	-10.8949
pol	-10.8952
▁Spo	-10.8953
▁plenty	-10.896
▁Seattle	-10.8962
dle	-10.8965
adi	-10.8966
eat	-10.8967
zu	-10.8967
▁Users	-10.8967
lean	-10.8968
fic	-10.8971
});	-10.8972
▁4-	-10.8972
▁Relationship	-10.8972
iki	-10.8972
▁Fred	-10.8973
▁Tru	-10.8973
▁😀	-10.8975
ancy	-10.8976
▁relationships	-10.898
▁locations	-10.8981
imi	-10.8983
▁Literature	-10.8984
▁facilities	-10.8984
ह	-10.8984
▁Wolf	-10.8985
▁Being	-10.8986
▁360	-10.8987
month	-10.899
▁Pub	-10.8992
▁Religion	-10.8995
rag	-10.8998
meta	-10.8998
Style	-10.8999
/4	-10.9
By	-10.9
120	-10.9001
profit	-10.9001
▁restaurant	-10.9005
▁experiences	-10.9007
▁Announcements	-10.9007
μ	-10.9007
▁Kansas	-10.9007
emo	-10.9008
esta	-10.9009
▁Kelly	-10.9009
cie	-10.901
ONS	-10.9012
lp	-10.9013
▁Memo	-10.9015
▁row	-10.9017
▁Sci	-10.9017
gers	-10.9017
▁contribution	-10.9019
▁Assembly	-10.9019
▁Dallas	-10.9019
May	-10.902
easing	-10.9021
▁returned	-10.9021
▁drag	-10.9021
zzle	-10.9023
▁Sie	-10.9025
lle	-10.9026
sburg	-10.9026
8%	-10.9029
▁capacity	-10.903
▁detailed	-10.9031
▁Patrick	-10.9031
▁homes	-10.9032
HTML	-10.9034
▁actions	-10.9034
kat	-10.9035
▁Def	-10.9036
Info	-10.9038
Out	-10.9039
▁(17	-10.9043
▁Dur	-10.9044
▁Henry	-10.9045
▁lettre	-10.9046
▁mostly	-10.9051
▁tutorial	-10.9054
▁toward	-10.9054
▁worse	-10.9055
▁Mono	-10.906
▁Hero	-10.9061
grant	-10.9064
750	-10.9065
▁Miscellaneous	-10.9065
▁architecture	-10.9065
▁Auction	-10.9065
▁tomorrow	-10.9065
▁garage	-10.9066
▁Char	-10.9067
FO	-10.9073
▁GB	-10.9074
▁upgrade	-10.9074
▁Standing	-10.9075
pop	-10.9075
▁Winner	-10.9076
▁Spi	-10.9076
▁Mont	-10.9077
▁Individual	-10.9077
▁Inventory	-10.9077
▁ceiling	-10.9077
▁char	-10.9078
api	-10.908
▁cry	-10.9081
hab	-10.9086
Event	-10.9086
▁Puerto	-10.9086
▁Trending	-10.9088
▁Drill	-10.909
▁eco	-10.9092
▁pump	-10.9094
▁Grid	-10.9095
▁bomb	-10.9096
▁Chairs	-10.9098
▁[1]	-10.9098
▁Brides	-10.91
▁livre	-10.9101
▁Eagle	-10.9101
walk	-10.9102
▁Allen	-10.9102
▁extend	-10.9102
▁estimate	-10.9103
wel	-10.9104
screen	-10.9105
▁Victor	-10.9108
DN	-10.9111
json	-10.9112
vant	-10.9113
▁Exercise	-10.9113
▁corporate	-10.9113
▁phase	-10.9114
▁thus	-10.9114
cam	-10.9115
avan	-10.9121
行	-10.9124
▁tickets	-10.9124
▁Ridge	-10.9125
Log	-10.9125
▁Lounge	-10.9125
▁Indoor	-10.9131
▁deposit	-10.9135
▁Supplier	-10.9136
▁Consulting	-10.9136
▁Both	-10.9138
stand	-10.9139
▁tap	-10.914
▁passion	-10.9141
which	-10.9142
▁hang	-10.9143
▁6:00	-10.9145
▁Plain	-10.9145
▁coupon	-10.9148
▁Recently	-10.9151
RAN	-10.9151
▁Counter	-10.9155
hoe	-10.9155
hm	-10.9156
▁Soul	-10.9157
▁clock	-10.9158
far	-10.9158
asse	-10.9159
▁brings	-10.9159
loc	-10.9161
▁stainless	-10.9161
TURE	-10.9162
EO	-10.9163
▁drawer	-10.9167
▁Doll	-10.9167
▁Knight	-10.9169
▁Drum	-10.9171
▁WhatsApp	-10.9172
▁Warning	-10.9179
enna	-10.9179
▁Zu	-10.918
BB	-10.9182
▁Qui	-10.9183
▁Viv	-10.9185
▁attract	-10.9189
▁GEAR	-10.919
▁payments	-10.9191
▁describe	-10.9192
▁proper	-10.9195
▁Hawaii	-10.9196
▁Packs	-10.9197
▁$0.00	-10.92
▁KO	-10.9205
▁Roster	-10.9205
ORE	-10.9205
!!!!!	-10.9205
▁Bug	-10.9206
awn	-10.9207
▁Sydney	-10.9208
ITY	-10.9208
▁Internal	-10.9209
▁10%	-10.921
▁Fold	-10.921
▁av	-10.9211
making	-10.9213
▁ਅ	-10.9213
▁Massage	-10.9213
chin	-10.9214
AW	-10.9216
▁HI	-10.9217
▁adults	-10.9218
▁brief	-10.922
zel	-10.922
▁Penn	-10.9221
▁practices	-10.9223
▁shelf	-10.9223
Art	-10.9224
▁reader	-10.9228
▁rose	-10.9229
▁linked	-10.923
▁Dor	-10.9231
▁CF	-10.9231
▁Jewish	-10.9231
▁Procedure	-10.9231
▁SIGN	-10.9232
▁[0]	-10.9234
▁Medal	-10.9235
▁Customers	-10.9238
▁sky	-10.9242
ctor	-10.9244
▁Bud	-10.9247
▁PART	-10.9248
▁83	-10.9248
itter	-10.9249
cache	-10.9252
▁Ross	-10.9252
▁meant	-10.9253
osis	-10.9254
SN	-10.9255
mos	-10.9256
rating	-10.9258
bat	-10.9259
▁Amar	-10.926
▁Rap	-10.926
▁Hook	-10.9261
vit	-10.9267
ground	-10.9267
##	-10.9272
▁Mis	-10.9272
▁brush	-10.9274
▁на	-10.9274
4.4	-10.9274
Site	-10.9275
▁maximum	-10.9279
▁Scotland	-10.9279
▁appointment	-10.9279
▁Drama	-10.928
ifying	-10.928
▁mouth	-10.9284
▁Merc	-10.9284
stick	-10.9285
▁Economics	-10.9285
▁flash	-10.9286
ener	-10.9287
▁Drivers	-10.9289
lets	-10.929
本	-10.9291
};	-10.9293
cell	-10.9293
▁split	-10.9294
mov	-10.9294
URE	-10.9295
▁::	-10.9295
STER	-10.9299
▁mistake	-10.93
▁processes	-10.9301
tax	-10.9302
▁Novel	-10.9302
▁Carol	-10.9303
和	-10.9303
▁Jacob	-10.9304
▁lie	-10.9304
bud	-10.9307
▁Monster	-10.931
▁Wool	-10.9311
▁booking	-10.9311
▁successfully	-10.9312
outs	-10.9313
▁Bookmark	-10.9314
▁Chip	-10.9315
▁scientific	-10.9315
▁readers	-10.9316
/31	-10.9316
What	-10.9318
▁Bib	-10.932
▁Export	-10.932
▁sec	-10.9321
▁onto	-10.9322
▁Tourism	-10.9323
▁Steam	-10.9324
▁Spark	-10.9325
▁PT	-10.9328
AZ	-10.9329
Get	-10.933
▁giveaway	-10.933
▁Hollywood	-10.9331
IF	-10.9331
▁Trim	-10.9331
▁prepare	-10.9331
▁Requirements	-10.9332
▁taxes	-10.9333
metry	-10.9334
▁stored	-10.9335
tention	-10.9336
▁4.0	-10.9339
▁Scholar	-10.9339
▁Toronto	-10.934
▁Heater	-10.9342
LAN	-10.9342
▁Trading	-10.9343
eq	-10.9345
▁messages	-10.9346
lux	-10.9349
▁artists	-10.9349
▁hearing	-10.935
▁Dodge	-10.9351
▁AUD	-10.9351
文	-10.9351
生	-10.9351
▁transaction	-10.9352
▁Buying	-10.9359
▁Blade	-10.9361
▁Championship	-10.9362
▁Metro	-10.9363
▁Similar	-10.9364
▁historical	-10.9367
sley	-10.9368
▁threat	-10.9368
scription	-10.9369
▁bond	-10.9373
▁Condo	-10.9374
3.00	-10.9375
▁forever	-10.9376
ו	-10.9376
▁Consultant	-10.9376
▁vehicles	-10.9376
▁remote	-10.9376
1.5	-10.9378
idad	-10.9381
▁Useful	-10.9381
▁rep	-10.9382
▁/*	-10.9383
INA	-10.9385
▁Clo	-10.9388
rite	-10.939
▁GET	-10.9395
▁ک	-10.9399
▁Mumbai	-10.94
▁Sugar	-10.9403
▁teachers	-10.9407
▁ir	-10.9407
▁APP	-10.9408
NK	-10.9408
▁Funding	-10.9409
▁Newest	-10.941
▁Temp	-10.9411
▁Waste	-10.9411
ط	-10.9412
▁contemporary	-10.9412
marine	-10.9413
▁rated	-10.9419
▁zone	-10.9423
▁wh	-10.9424
▁Import	-10.9424
▁Oracle	-10.9425
▁RU	-10.9426
▁3.5	-10.9427
▁becoming	-10.9431
▁Syria	-10.9434
Filter	-10.9434
▁98	-10.9435
grade	-10.9436
▁supplies	-10.9437
▁Reason	-10.9439
▁oz	-10.944
ody	-10.944
2%	-10.944
face	-10.9442
UNT	-10.9443
▁pharmacy	-10.9445
8.5	-10.9446
š	-10.9449
push	-10.945
]]	-10.9451
▁Decoration	-10.9452
tti	-10.9457
vier	-10.9458
▁struggle	-10.9461
▁Minor	-10.9462
▁Alan	-10.9462
▁Cle	-10.9463
▁Exhibition	-10.9464
shore	-10.9465
▁cop	-10.9467
▁opens	-10.9468
wise	-10.9468
bate	-10.9469
▁Reset	-10.9473
▁GT	-10.9473
▁contribute	-10.9473
▁Period	-10.9474
5.9	-10.9474
▁Beta	-10.9476
ride	-10.9476
▁325.0	-10.9478
▁(16	-10.948
▁virtual	-10.9481
▁vary	-10.9484
ज	-10.9486
paraturanleitung	-10.9486
▁Assessment	-10.9486
▁Attorney	-10.9486
▁chicken	-10.9486
ject	-10.9489
▁Rank	-10.9489
▁refund	-10.9489
▁leg	-10.9489
▁MLB	-10.949
▁coat	-10.949
▁Hell	-10.9491
▁Shin	-10.9494
▁Freedom	-10.9494
lag	-10.9494
▁Lum	-10.9495
▁dad	-10.9495
▁fly	-10.9498
450	-10.9498
▁Asked	-10.9499
▁animal	-10.95
▁efforts	-10.9501
▁AG	-10.9501
center	-10.9504
total	-10.9504
ario	-10.9505
▁hack	-10.9506
▁lid	-10.9507
ABLE	-10.9508
WE	-10.9509
5.5	-10.9513
ਮ	-10.9523
▁Pic	-10.9523
▁Tent	-10.9523
▁Example	-10.9523
▁Hunting	-10.9524
▁roof	-10.9526
▁Cer	-10.9526
!!!!	-10.9527
ICK	-10.9529
▁Funny	-10.9529
▁pill	-10.9531
▁NS	-10.9532
▁era	-10.9532
dan	-10.9532
▁Destination	-10.9535
▁Tap	-10.9535
CHE	-10.9537
▁anyway	-10.9538
▁container	-10.9545
ugu	-10.9546
cca	-10.9546
▁Tennessee	-10.9547
▁hd	-10.9548
South	-10.9549
▁(35)	-10.955
▁Places	-10.9552
▁Flow	-10.9555
▁Kra	-10.9555
logy	-10.9556
▁Os	-10.9557
▁Hide	-10.9558
▁sponsor	-10.956
ssel	-10.9562
-7]	-10.9564
▁managed	-10.9565
standing	-10.9566
▁Hop	-10.9568
san	-10.9571
library	-10.9571
▁cultural	-10.9571
▁Anniversary	-10.9572
▁Properties	-10.9572
false	-10.9572
eil	-10.9572
▁lift	-10.9577
▁Printed	-10.9577
▁AU	-10.9579
▁speaker	-10.9579
▁hunt	-10.958
▁compared	-10.958
▁Dear	-10.958
▁hundreds	-10.9581
▁conflict	-10.9584
▁Chile	-10.9585
▁Trends	-10.9588
▁Reserve	-10.9588
▁Rates	-10.9589
ATA	-10.9589
fair	-10.9592
▁%}	-10.9594
▁{%	-10.9596
▁Amazing	-10.9597
▁surgery	-10.9597
▁Warm	-10.9598
▁geo	-10.9598
bh	-10.96
▁weekly	-10.96
2020	-10.9601
▁Polo	-10.9601
▁Tail	-10.9601
▁mounted	-10.9602
▁50.0	-10.9606
▁Champion	-10.9608
入	-10.9609
▁Colombia	-10.9609
品	-10.9609
▁Romania	-10.961
wordpress	-10.9612
OX	-10.9612
ios	-10.9615
▁3.0	-10.9616
▁Switches	-10.962
▁spa	-10.962
▁Bench	-10.9621
▁Tournament	-10.9622
quin	-10.9623
db	-10.9624
▁twin	-10.9628
▁pic	-10.9629
Jo	-10.9632
▁Really	-10.9632
▁82	-10.9632
▁Entry	-10.9639
rill	-10.9642
▁defend	-10.9645
்	-10.9646
▁Lecture	-10.9646
source	-10.9649
ле	-10.9653
▁94	-10.9658
▁Connection	-10.9661
nda	-10.9663
▁Themes	-10.9663
train	-10.9664
▁Dad	-10.9667
▁Philip	-10.9668
▁Clark	-10.9668
▁weak	-10.9668
Page	-10.9675
▁supposed	-10.9676
▁replace	-10.9678
▁Zen	-10.9681
▁Shan	-10.9683
▁parking	-10.9685
▁rooms	-10.9685
['	-10.9687
▁agent	-10.9689
▁animals	-10.9695
▁AV	-10.9695
$1	-10.9696
是	-10.9696
▁Employer	-10.9696
▁Whether	-10.9696
▁Powder	-10.9696
▁instance	-10.9697
▁committed	-10.9697
TES	-10.9698
▁med	-10.97
▁blend	-10.9702
design	-10.9702
ਨ	-10.9704
▁putting	-10.9707
▁Pie	-10.9708
▁Beth	-10.9708
▁strategies	-10.9709
▁witness	-10.9709
▁personally	-10.9709
▁COL	-10.971
▁Sellers	-10.9718
▁crusher	-10.9724
2.0	-10.9728
cp	-10.973
Plugin	-10.973
▁Gate	-10.9731
▁appears	-10.9732
ú	-10.9734
▁Journey	-10.9734
DIUM	-10.9735
▁milk	-10.9738
shirts	-10.9744
▁Kind	-10.9746
▁amazon	-10.9747
▁Socket	-10.9747
▁Pl	-10.9747
▁Visitor	-10.9748
▁failure	-10.9748
▁Roger	-10.9748
▁flag	-10.9748
▁papers	-10.9749
▁Davis	-10.975
lusion	-10.9751
▁Thi	-10.9752
▁sch	-10.9753
▁obtain	-10.9754
kl	-10.9758
▁transport	-10.9758
▁raise	-10.9759
▁Distribution	-10.9759
▁destroy	-10.9759
▁carpet	-10.9762
▁Hunter	-10.9765
rine	-10.9766
RM	-10.9767
▁Result	-10.9768
umber	-10.9768
pal	-10.977
▁Christopher	-10.9772
▁murder	-10.9772
▁Such	-10.9772
▁Connecting	-10.9773
Ne	-10.9773
▁lol	-10.9774
mid	-10.9776
▁Sue	-10.9777
mine	-10.9777
(2)	-10.9778
flower	-10.978
cology	-10.978
▁lip	-10.9782
▁Tees	-10.9782
▁Led	-10.9783
News	-10.9783
▁Newer	-10.9785
▁GI	-10.9785
▁Venue	-10.9786
lift	-10.9788
▁Aero	-10.9792
quar	-10.9793
kes	-10.9793
bow	-10.9793
▁prepared	-10.9794
▁Recruiting	-10.9797
▁Mirror	-10.9799
Back	-10.9802
scribe	-10.9804
▁Areas	-10.9805
▁Sar	-10.9809
▁funding	-10.9809
▁entertainment	-10.981
nish	-10.9812
▁Cafe	-10.9812
bound	-10.9813
▁Theater	-10.9814
▁decisions	-10.9815
users	-10.9819
▁Nice	-10.982
▁authority	-10.9822
▁reward	-10.9823
▁Tutorials	-10.9824
▁tie	-10.9824
▁clinical	-10.9825
ISS	-10.9826
▁generally	-10.9829
rail	-10.983
▁river	-10.9831
▁Corn	-10.9833
-29	-10.9834
▁Wales	-10.9834
▁fireplace	-10.9837
▁installed	-10.9839
DY	-10.9841
▁LP	-10.9845
▁Sister	-10.9847
▁favor	-10.9847
▁pocket	-10.9848
▁replies	-10.9848
▁Bulk	-10.985
AMP	-10.9851
▁Guy	-10.9852
▁hook	-10.9853
uni	-10.9856
uld	-10.9856
▁Luke	-10.9857
▁trees	-10.9857
nik	-10.9858
▁Cities	-10.986
▁Frequently	-10.9861
▁Coming	-10.9862
▁shock	-10.9863
▁sitting	-10.9867
▁Seven	-10.9869
▁Dick	-10.9869
▁couch	-10.987
▁sample	-10.9871
rage	-10.9872
circ	-10.9874
▁planet	-10.9874
▁functionality	-10.9876
tour	-10.988
▁flo	-10.9881
▁93	-10.9882
▁sexy	-10.9882
hall	-10.9884
▁forms	-10.9885
▁Coat	-10.9885
280	-10.9886
mix	-10.9886
▁definition	-10.9886
▁negative	-10.9886
▁telling	-10.9887
▁Belt	-10.9889
▁factors	-10.989
▁quiet	-10.9891
▁Makeup	-10.9891
▁leaves	-10.9891
▁surprise	-10.9891
-1]	-10.9891
▁Yet	-10.9893
2014	-10.9898
ê	-10.9899
▁approval	-10.9899
▁innovation	-10.9899
▁459	-10.9899
▁Oxford	-10.99
▁songs	-10.9903
lice	-10.9903
-5]	-10.9904
connect	-10.9904
OST	-10.9905
▁Sector	-10.9911
▁Portrait	-10.9912
▁emotional	-10.9912
▁Relations	-10.9912
▁ETF	-10.992
Full	-10.9921
▁Conf	-10.9922
▁breakfast	-10.9925
▁Rad	-10.9926
sheet	-10.9927
320	-10.9929
WS	-10.993
▁apps	-10.9931
▁Whit	-10.9931
ega	-10.9936
▁Stands	-10.9936
▁gate	-10.9937
▁Communities	-10.9938
▁458	-10.9938
▁Spotlight	-10.9939
2011	-10.994
ingham	-10.994
scape	-10.9942
bag	-10.9948
▁Manage	-10.9949
▁Think	-10.9949
▁whom	-10.9949
▁possibly	-10.995
▁Utah	-10.995
▁COMP	-10.9951
▁Income	-10.9951
5.1	-10.9952
pil	-10.9952
▁1.6	-10.9953
▁Networking	-10.9955
imp	-10.9956
meem	-10.9956
wake	-10.9957
▁Bars	-10.9957
▁leads	-10.9959
▁signs	-10.9962
commerce	-10.9963
▁Boards	-10.9964
▁Labor	-10.9964
▁AA	-10.9965
▁1/4	-10.9965
▁Soon	-10.9966
▁gifts	-10.9967
gio	-10.9968
▁Method	-10.9968
ов	-10.9968
▁CAN	-10.9973
have	-10.9974
LAND	-10.9976
▁spending	-10.9978
▁cru	-10.998
Add	-10.9981
▁Julie	-10.9983
'+	-10.9983
112	-10.9983
IB	-10.9984
fect	-10.9985
▁poly	-10.9987
▁Wide	-10.9987
bid	-10.9988
▁tan	-10.9989
▁$12	-10.9989
▁Floral	-10.9989
▁Cord	-10.9991
▁Could	-10.9992
▁1992	-10.9992
▁Grace	-10.9995
▁700	-10.9995
▁respective	-10.9995
▁Shows	-11.0001
▁shoot	-11.0002
▁Brief	-11.0003
SCO	-11.0004
▁Charity	-11.0005
▁Neck	-11.0011
य	-11.0012
▁Alexander	-11.0015
▁nurse	-11.0015
▁Rentals	-11.0015
▁seal	-11.0016
high	-11.0017
▁Greg	-11.0017
▁Lace	-11.0021
▁Printing	-11.0023
▁raised	-11.0024
ality	-11.0026
▁Candy	-11.0026
▁Agriculture	-11.0027
▁(36)	-11.003
▁upload	-11.0031
▁VE	-11.0034
▁playlist	-11.0034
▁Pressure	-11.0034
▁READ	-11.0035
▁Kate	-11.0036
nam	-11.0037
▁Pets	-11.0037
▁sing	-11.0038
tegra	-11.0039
▁Emirates	-11.004
▁Rachel	-11.0042
▁indeed	-11.0044
RON	-11.0045
▁Pit	-11.0045
▁CM	-11.0047
▁Franc	-11.005
gui	-11.0051
▁1980	-11.0054
▁Marc	-11.0058
kit	-11.0058
▁Matter	-11.0058
▁Holders	-11.006
▁interests	-11.006
▁jul	-11.0061
sets	-11.0061
▁Boot	-11.0062
▁LU	-11.0062
▁Move	-11.0064
String	-11.0064
▁Phoenix	-11.0066
▁Too	-11.0066
ndi	-11.0066
▁1500	-11.0067
▁1993	-11.0068
3.0	-11.0068
-3]	-11.0068
▁Eli	-11.007
▁Instruments	-11.0072
▁1.3	-11.0072
▁Bean	-11.0074
▁Flor	-11.0074
▁thick	-11.0077
witch	-11.0083
ORT	-11.0083
▁google	-11.0085
▁kar	-11.0089
sort	-11.0089
Р	-11.0092
▁Analyst	-11.0092
uru	-11.0092
▁AZ	-11.0093
sell	-11.0093
apping	-11.0095
gif	-11.0095
▁CHE	-11.0095
▁5:00	-11.0096
iza	-11.0097
▁Castle	-11.0097
Product	-11.0098
▁Kings	-11.01
▁Quin	-11.01
▁runs	-11.01
▁swing	-11.01
▁$100	-11.0104
▁Locum	-11.0106
▁ski	-11.0106
Month	-11.0108
▁LC	-11.0111
▁Moving	-11.0113
▁los	-11.0114
ipped	-11.0115
▁clar	-11.0118
ς	-11.0118
▁rubber	-11.0119
▁Selling	-11.012
▁Needed	-11.0122
▁ANY	-11.0122
▁Shares	-11.0124
▁calling	-11.0125
▁followers	-11.0126
▁Banking	-11.0126
dot	-11.0126
▁detect	-11.0127
▁majority	-11.0128
rav	-11.0128
ota	-11.0129
▁Instructions	-11.0129
▁Tile	-11.0129
▁monitor	-11.0131
▁Citizen	-11.0131
▁university	-11.0132
ament	-11.0137
210	-11.0137
▁180	-11.0141
▁RS	-11.0143
▁ਗੁ	-11.0145
ਹ	-11.0145
▁Quarter	-11.0145
▁tank	-11.0146
▁Swiss	-11.0147
void	-11.0149
▁Sav	-11.0151
▁Berlin	-11.0151
-6]	-11.0155
▁Function	-11.0155
-2]	-11.0157
有	-11.0157
▁Chianti	-11.0158
PRO	-11.0163
msg	-11.0165
UC	-11.0167
▁hor	-11.0167
▁Without	-11.0167
achi	-11.017
Box	-11.0171
▁Laura	-11.0171
▁Circle	-11.0171
▁Oz	-11.0173
ume	-11.0176
-31	-11.0177
▁$15	-11.0177
▁ear	-11.0177
▁accent	-11.0179
WP	-11.018
▁inform	-11.0182
★	-11.0184
▁pussy	-11.0184
▁FROM	-11.0188
JA	-11.0189
▁abr	-11.0189
▁speaking	-11.019
▁hole	-11.0191
gas	-11.0192
photo	-11.0195
▁operations	-11.0197
▁ourselves	-11.0197
▁Showing	-11.0198
▁Assistance	-11.0199
▁HC	-11.0199
▁clothes	-11.0206
mouth	-11.0207
▁Milk	-11.0208
▁Kel	-11.0209
▁Essentials	-11.021
CHI	-11.021
▁hall	-11.021
olic	-11.021
▁supplier	-11.021
▁Vitamin	-11.021
▁Roof	-11.0212
ZE	-11.0214
Option	-11.022
▁COR	-11.0221
orn	-11.0221
KI	-11.0222
▁Processing	-11.0223
▁Argentina	-11.0223
▁1994	-11.0224
ots	-11.0225
rance	-11.0226
cross	-11.0226
bour	-11.0228
▁measurement	-11.023
▁Salary	-11.0231
▁Rs	-11.0232
lead	-11.0232
▁Rice	-11.0234
▁Sexy	-11.0235
▁Rick	-11.0235
▁eating	-11.0235
grad	-11.0235
▁administration	-11.0237
▁Rubber	-11.0238
▁Arrow	-11.024
Size	-11.0243
▁arrow	-11.0243
party	-11.0245
Home	-11.0245
▁sick	-11.0247
hard	-11.0247
▁funds	-11.0247
▁FO	-11.0248
▁WIN	-11.0249
Map	-11.0252
▁becomes	-11.0252
▁Walking	-11.0253
UA	-11.0254
▁contest	-11.0256
▁Compact	-11.0257
▁Bang	-11.0257
▁cal	-11.0258
▁1989	-11.0258
▁combined	-11.0262
aca	-11.0262
prednisone	-11.0263
▁belief	-11.0263
▁resort	-11.0269
▁reg	-11.0269
▁graduate	-11.0271
ICS	-11.0274
▁dot	-11.0275
▁HU	-11.0276
▁Exterior	-11.0276
▁certificate	-11.0276
▁Ontario	-11.0276
▁Regulation	-11.0277
▁films	-11.0278
▁Flange	-11.0278
▁purchased	-11.0279
xmark	-11.0281
living	-11.0283
variant	-11.0284
jun	-11.0285
▁Podcasts	-11.0286
▁Interviews	-11.0287
lush	-11.0288
Trans	-11.0288
▁Traditional	-11.0289
▁initiative	-11.029
▁Institution	-11.029
wind	-11.0293
oom	-11.0295
▁Carpet	-11.0295
▁Contest	-11.0295
▁Romance	-11.0297
LER	-11.0298
rang	-11.0299
650	-11.0301
▁Sara	-11.0302
stead	-11.0303
σ	-11.0303
.000	-11.0303
▁cheese	-11.0304
▁retail	-11.0305
▁cycle	-11.0305
▁Tweets	-11.0306
▁hero	-11.0308
▁Wait	-11.0308
▁ended	-11.031
▁_.	-11.0316
KO	-11.0316
▁Tur	-11.0317
▁Translation	-11.0317
▁advise	-11.0318
▁Alpha	-11.0319
▁Cheap	-11.032
▁html	-11.0324
alpha	-11.0324
111	-11.0326
augh	-11.0326
▁Lincoln	-11.033
▁Occasion	-11.033
▁Craig	-11.033
▁releases	-11.0331
▁Rd	-11.0331
▁manner	-11.0332
▁Comedy	-11.0332
▁stack	-11.0334
▁Players	-11.0334
▁arts	-11.0335
/2015	-11.0336
▁Qua	-11.0336
▁Birth	-11.0336
▁gear	-11.0337
raction	-11.0338
▁remains	-11.034
▁Lower	-11.034
▁Gor	-11.034
▁Horn	-11.034
▁Beck	-11.0341
▁Dakota	-11.0343
NL	-11.0343
▁Crew	-11.0343
▁Electro	-11.0344
▁Ent	-11.0345
▁TC	-11.0351
▁bla	-11.0351
▁Script	-11.0353
▁Kenya	-11.0354
▁Degree	-11.0356
во	-11.0359
nit	-11.0359
▁specifically	-11.036
▁charges	-11.036
▁foundation	-11.0364
▁Charge	-11.0365
ended	-11.0366
▁Nar	-11.0368
不	-11.0369
▁engineer	-11.0369
▁Cultural	-11.037
▁Century	-11.037
KE	-11.037
▁Defense	-11.037
360	-11.0371
▁demo	-11.0371
▁CBD	-11.0371
▁Advisory	-11.0372
▁Than	-11.0373
▁BAR	-11.0373
ffer	-11.0374
▁Opti	-11.0377
rack	-11.0378
▁Coaching	-11.0379
▁winning	-11.038
▁Route	-11.0383
▁Chronic	-11.0383
ю	-11.0383
8.0	-11.0384
▁Generation	-11.0384
▁fixed	-11.0385
▁Important	-11.0386
▁Ml	-11.0387
▁Photograph	-11.0388
mph	-11.039
▁vanity	-11.0391
▁Expo	-11.0392
स	-11.0394
clu	-11.0394
▁Push	-11.0396
▁knowing	-11.0397
▁mit	-11.0398
"===	-11.0399
▁INFO	-11.0401
▁Subscription	-11.0401
▁odd	-11.0403
Target	-11.0408
【	-11.041
▁Poland	-11.041
▁Denmark	-11.0411
▁0.1	-11.0413
tina	-11.0413
4.5	-11.0416
ced	-11.0418
▁EST	-11.042
▁Builder	-11.0421
▁trick	-11.0422
OY	-11.0422
】	-11.0423
ADA	-11.0424
Of	-11.0424
▁Casino	-11.0425
rier	-11.0426
ée	-11.0426
▁Finland	-11.0427
wich	-11.0429
mobile	-11.0429
0.8	-11.0432
▁outcome	-11.0434
nodeType	-11.0437
IFI	-11.0438
▁despite	-11.0439
stream	-11.044
▁provider	-11.0441
▁hanging	-11.0443
▁boot	-11.0444
items	-11.0445
ables	-11.0447
▁Ride	-11.0448
[0].	-11.0449
▁Couple	-11.0451
▁Cambridge	-11.0451
▁Dust	-11.0453
▁lightbox	-11.0456
▁continued	-11.0458
match	-11.0461
Search	-11.0463
▁adjust	-11.0464
▁badge	-11.0465
▁Gordon	-11.0465
▁Ladies	-11.0469
URI	-11.0471
embre	-11.0473
作	-11.0477
レ	-11.0477
▁oh	-11.0478
▁Pure	-11.0478
level	-11.0478
kg	-11.0479
ThisBlog	-11.0479
[1]	-11.048
▁Promotion	-11.0482
▁Eng	-11.0483
▁tro	-11.0486
▁willing	-11.0487
▁Teachers	-11.0488
LAS	-11.0489
▁Marriage	-11.0491
▁ART	-11.0492
ador	-11.0494
▁Pine	-11.0494
tus	-11.0496
▁FS	-11.0497
▁visa	-11.05
uba	-11.0501
▁continues	-11.0504
▁rid	-11.0504
▁Suspension	-11.0505
▁Marshall	-11.0505
▁aid	-11.0506
lac	-11.0507
ть	-11.0509
dig	-11.0512
▁Batman	-11.0514
▁linux	-11.0518
기	-11.0518
▁delicious	-11.0518
▁array	-11.0519
த	-11.0521
▁specialist	-11.0527
▁Volt	-11.0531
/03/20	-11.0531
ಿ	-11.0532
▁landscape	-11.0532
ía	-11.0533
▁Indiana	-11.0534
self	-11.0534
offset	-11.0537
▁titles	-11.0537
................	-11.0538
▁blow	-11.0541
▁bru	-11.0541
▁Camping	-11.0541
▁labor	-11.0545
▁portable	-11.0545
▁speech	-11.0545
available	-11.0546
▁presence	-11.0546
urn	-11.0548
▁'+	-11.0549
▁329	-11.0552
1-2	-11.0554
▁feb	-11.0557
nav	-11.0559
ā	-11.0559
▁Beyond	-11.0559
▁Different	-11.0559
▁Audit	-11.0559
makers	-11.0559
▁Bolt	-11.056
▁Throw	-11.0561
▁Blo	-11.0561
spire	-11.0564
▁studio	-11.0565
▁Wave	-11.0567
2015	-11.0567
sexual	-11.057
▁motion	-11.0571
▁folks	-11.0573
▁Built	-11.0573
▁Giveaway	-11.0573
atur	-11.0574
QUI	-11.0578
pub	-11.0582
▁Crown	-11.0583
▁village	-11.0584
query	-11.0585
▁operating	-11.0586
author	-11.0587
▁Concert	-11.0588
▁representation	-11.0589
elements	-11.059
▁assessment	-11.0591
▁owned	-11.0592
HP	-11.0593
create	-11.0594
▁killed	-11.0595
4.9	-11.0596
▁Renew	-11.0596
▁letters	-11.0599
hil	-11.0599
▁Egg	-11.06
▁455	-11.06
▁Cleveland	-11.06
▁reliable	-11.06
▁NZ	-11.0601
▁capture	-11.0602
▁resolution	-11.0603
related	-11.0603
▁Kam	-11.0603
▁appearance	-11.0603
▁Carrier	-11.0604
▁""	-11.0604
iana	-11.0604
▁Collar	-11.0605
▁Specialty	-11.0606
VER	-11.0613
▁comprehensive	-11.0614
▁Comfort	-11.0614
▁happening	-11.0614
▁ill	-11.0619
▁Provide	-11.0619
▁MON	-11.062
▁1.1	-11.0621
buck	-11.0626
header	-11.0627
997	-11.0628
▁consist	-11.063
▁Spare	-11.0632
330	-11.0635
vat	-11.0637
▁TI	-11.064
▁afternoon	-11.0641
kra	-11.0642
▁Includes	-11.0643
▁DNA	-11.0645
▁105	-11.0645
▁tag	-11.0647
▁Bearing	-11.065
▁flooring	-11.0651
▁reserve	-11.0651
ADE	-11.0653
types	-11.0654
EAT	-11.0655
▁Sometimes	-11.0655
▁Something	-11.0656
ão	-11.0657
CAM	-11.0662
▁Shell	-11.0669
boo	-11.0669
▁Oregon	-11.0669
bn	-11.0671
Address	-11.0671
doc	-11.0676
▁queen	-11.0676
iber	-11.0677
▁availability	-11.0678
▁365	-11.0678
aker	-11.0679
▁Shot	-11.0679
▁factory	-11.068
▁11:00	-11.0681
▁Ref	-11.0681
द	-11.0683
▁liquid	-11.0683
▁2309969	-11.0683
▁Financing	-11.0683
onia	-11.0683
▁standing	-11.0684
▁ultra	-11.0685
▁deserve	-11.0685
▁Stores	-11.0686
▁storm	-11.0687
▁Lou	-11.0687
▁Having	-11.0689
help	-11.0689
▁Ah	-11.0691
5.0	-11.0691
▁apple	-11.0694
▁solar	-11.0695
▁tune	-11.0696
▁stated	-11.0697
uma	-11.0697
recs	-11.0698
▁Formula	-11.0698
▁Giving	-11.0698
▁trading	-11.0699
flow	-11.0699
▁Jose	-11.0704
▁Mining	-11.0709
▁holidays	-11.0709
▁paying	-11.0709
▁suck	-11.071
▁CP	-11.071
▁literature	-11.071
▁symbol	-11.0711
▁football	-11.0711
▁Multiple	-11.0712
ک	-11.0712
Cha	-11.0712
▁loans	-11.0714
custom	-11.0714
▁seeking	-11.0716
▁Markets	-11.0716
▁focused	-11.0717
▁dish	-11.0717
lope	-11.072
▁Seasonal	-11.072
▁Around	-11.0722
azi	-11.0722
▁Der	-11.0724
▁Coats	-11.0724
▁LaserJet	-11.0724
▁*/	-11.0727
▁Graphics	-11.0727
▁trend	-11.0728
bling	-11.0728
▁Label	-11.0729
oper	-11.0729
▁Seller	-11.073
▁Az	-11.0731
220	-11.0737
▁Rat	-11.0738
▁submitted	-11.074
151	-11.0741
▁Ty	-11.0741
abad	-11.0742
▁Rental	-11.0743
▁456	-11.0743
▁Kon	-11.0743
wen	-11.0744
TIC	-11.0744
▁drawing	-11.0748
▁PHP	-11.0749
-8]	-11.0751
▁forest	-11.0753
▁Bha	-11.0753
▁ticket	-11.0754
▁GE	-11.0754
fn	-11.0754
▁opinions	-11.0754
▁Everyone	-11.0756
west	-11.0758
HR	-11.076
▁pad	-11.076
imo	-11.076
▁bal	-11.0761
▁CU	-11.0763
tile	-11.0763
▁tagged	-11.0767
Black	-11.0769
therapy	-11.0769
▁Cub	-11.077
▁gray	-11.0774
▁lifestyle	-11.0774
IZ	-11.0779
▁Pendant	-11.078
▁Mau	-11.0782
ometer	-11.0782
uffle	-11.0784
hedge	-11.0785
▁serving	-11.0785
▁crash	-11.0787
▁BLOG	-11.0788
CIA	-11.079
NP	-11.079
▁overview	-11.0793
▁Chargers	-11.0793
tier	-11.0794
131	-11.0795
▁Mrs	-11.0795
▁Islamic	-11.0798
▁Abhi	-11.0801
▁reached	-11.0801
claim	-11.0801
▁0%	-11.0804
0.1	-11.0804
entry	-11.0807
网	-11.0807
▁External	-11.0808
▁Technician	-11.0808
▁mattress	-11.0808
LK	-11.0808
▁Amy	-11.0808
▁anymore	-11.0809
▁SI	-11.0809
▁Stream	-11.0809
uge	-11.081
pear	-11.081
▁Desc	-11.0815
▁Kin	-11.0816
ologie	-11.0816
▁Dell	-11.0819
▁0.5	-11.0819
▁Designed	-11.082
Count	-11.0822
▁Poetry	-11.0823
▁species	-11.0825
stitu	-11.0825
▁Fix	-11.0825
lad	-11.0826
▁Hart	-11.0826
▁Rome	-11.0829
▁SF	-11.0831
▁processed	-11.0832
uto	-11.0833
▁BLACK	-11.0836
3.5	-11.0836
oul	-11.0841
▁licensed	-11.0841
zst	-11.0842
-60	-11.0842
CBN	-11.0845
▁attorney	-11.085
▁spiritual	-11.0851
Mon	-11.0852
▁Panels	-11.0854
▁Intake	-11.0854
HI	-11.0855
▁CHF	-11.0856
pedia	-11.0859
▁Morgan	-11.0859
▁Selection	-11.0859
▁Fiber	-11.086
▁grant	-11.0863
▁Facts	-11.0863
▁Nissan	-11.0864
▁Hydro	-11.0872
tique	-11.0872
▁indoor	-11.0872
ZA	-11.0873
IAN	-11.0873
▁CHA	-11.0876
▁0.3	-11.0877
▁accepted	-11.0877
lah	-11.0878
▁ceremony	-11.0878
▁familiar	-11.0878
▁slightly	-11.0878
▁housing	-11.0878
▁fellow	-11.0879
▁Cheese	-11.0879
▁Shift	-11.0882
▁faster	-11.0885
▁Much	-11.0885
ancing	-11.0889
▁Conduct	-11.089
??	-11.0892
▁religious	-11.0892
▁analyze	-11.0892
▁по	-11.0893
▁seconds	-11.0893
▁Acid	-11.0894
turn	-11.0894
sphere	-11.0894
▁tear	-11.0896
▁Div	-11.0898
▁justice	-11.0898
▁commitment	-11.0898
feed	-11.0899
very	-11.0899
▁username	-11.0903
loy	-11.0904
▁expression	-11.0905
É	-11.0906
▁revenue	-11.0906
▁Compliance	-11.0906
▁Footwear	-11.0908
▁Timing	-11.0908
qual	-11.0908
inder	-11.0908
VES	-11.0908
▁authors	-11.0912
▁spice	-11.0914
illion	-11.0914
▁Organ	-11.0914
▁Escorts	-11.0915
pod	-11.0916
▁VIN	-11.0917
家	-11.092
▁treated	-11.092
▁scan	-11.092
▁Curriculum	-11.092
▁gorgeous	-11.092
▁Congratulations	-11.092
▁Veteran	-11.092
▁evolution	-11.092
▁Francis	-11.0921
IONS	-11.0923
aunt	-11.0925
▁Esp	-11.0925
▁hide	-11.0928
settings	-11.0932
YO	-11.0932
▁translate	-11.0933
cake	-11.0933
▁infrastructure	-11.0935
▁twice	-11.0935
tie	-11.0938
▁exact	-11.0938
▁sentence	-11.094
▁Improv	-11.0942
▁Jason	-11.0945
▁PRI	-11.0946
▁Emb	-11.0947
▁Pumps	-11.0949
▁Bulgaria	-11.0949
▁expensive	-11.0949
▁Steering	-11.095
player	-11.0953
fan	-11.0953
▁Ranger	-11.0954
▁Eve	-11.0954
▁closer	-11.0955
▁Genre	-11.0955
▁Athletic	-11.0955
mma	-11.0956
will	-11.0959
▁Had	-11.0961
▁tables	-11.0961
▁Sheets	-11.0962
▁choices	-11.0963
▁australia	-11.0963
▁ਕੀ	-11.0963
▁Lawrence	-11.0963
੧੭	-11.0963
▁worst	-11.0963
{0}	-11.0963
▁keyword	-11.0964
▁स	-11.0966
tone	-11.0967
▁П	-11.0968
ISH	-11.0969
▁width	-11.0972
ト	-11.0974
▁proceed	-11.0976
▁joint	-11.0976
出	-11.0977
ர	-11.0977
▁Mortgage	-11.0977
▁Shield	-11.0977
▁Surf	-11.0978
▁Taiwan	-11.0979
▁Northwest	-11.0979
▁providers	-11.0979
▁THIS	-11.0979
▁Serie	-11.098
If	-11.0981
Error	-11.0983
▁hp	-11.0984
▁Bis	-11.0985
▁#3	-11.0987
▁TN	-11.0987
▁Porno	-11.0987
▁RH	-11.0987
▁opened	-11.0989
best	-11.099
高	-11.099
▁Awesome	-11.0992
▁Sweatshirts	-11.0992
gem	-11.0996
▁Fight	-11.1002
▁Butter	-11.1003
▁Rand	-11.1004
▁Phase	-11.1005
dder	-11.1005
▁executive	-11.1006
▁breast	-11.1006
NN	-11.1007
▁Tony	-11.1007
▁reporting	-11.1008
())	-11.1011
▁457	-11.1013
▁Lamps	-11.1015
2012	-11.1016
▁ARE	-11.1016
?!	-11.1018
▁ingredients	-11.1019
▁Vacation	-11.102
▁strike	-11.1022
▁(38)	-11.1023
▁smaller	-11.1024
▁Brush	-11.1025
▁Adults	-11.1025
▁Vote	-11.1026
ivers	-11.1028
pc	-11.1029
▁POST	-11.1031
ICO	-11.1032
Off	-11.1038
padding	-11.1041
plugins	-11.1041
▁ا	-11.1041
road	-11.1042
▁Kent	-11.1043
▁FT	-11.1043
▁Cyprus	-11.1044
RL	-11.1045
▁Fans	-11.1045
▁Currency	-11.1046
▁blind	-11.1049
tools	-11.1052
▁orange	-11.1053
▁Doc	-11.1055
▁lake	-11.1056
ception	-11.1056
▁managers	-11.1057
▁Fur	-11.1057
▁Associates	-11.1058
Op	-11.106
With	-11.1063
▁valuable	-11.1063
▁Knives	-11.1063
▁consumer	-11.1065
▁disorder	-11.1065
▁components	-11.1067
▁Thermo	-11.1071
HAN	-11.1073
▁Mats	-11.1076
RNA	-11.1077
▁Islam	-11.1077
▁Develop	-11.1078
▁increasing	-11.1078
OLD	-11.1078
▁Jessica	-11.1078
OG	-11.1078
dri	-11.1079
▁predict	-11.108
▁Iceland	-11.1082
▁Aus	-11.1084
▁Bol	-11.1086
▁bread	-11.1088
▁pray	-11.1089
全	-11.1091
▁Swimming	-11.1092
▁slip	-11.1093
▁Concept	-11.1096
▁Swim	-11.1096
▁Appliances	-11.1099
▁mac	-11.11
1.3	-11.1101
ICA	-11.1102
▁CIS	-11.1104
▁੬	-11.1104
▁blanket	-11.1106
▁Vincent	-11.1107
▁shooting	-11.1108
▁Mali	-11.1108
tip	-11.1114
▁Kir	-11.1115
▁Federation	-11.1121
▁Chemistry	-11.1121
▁Alliance	-11.1121
▁worldwide	-11.1124
▁Cinema	-11.1125
▁Jacket	-11.1125
▁Connectors	-11.1127
1%	-11.1127
ember	-11.1131
▁tags	-11.1135
▁Quilt	-11.1136
▁Emily	-11.1136
▁fer	-11.1136
▁Countries	-11.1136
▁Tripura	-11.1137
▁+=	-11.1137
ón	-11.1137
▁Cop	-11.114
▁reasonable	-11.114
mise	-11.1141
▁Recap	-11.1142
▁EFT	-11.1144
▁prayer	-11.1148
lement	-11.1149
inner	-11.1149
▁configuration	-11.115
▁Excellent	-11.115
440	-11.1151
▁zip	-11.1151
▁wholesale	-11.1151
graphy	-11.1152
2013	-11.1152
▁Minutes	-11.1155
▁commit	-11.1156
▁Maker	-11.1159
▁crush	-11.116
IRE	-11.116
smith	-11.116
▁Initiative	-11.1164
▁Thanksgiving	-11.1164
▁district	-11.1165
▁Croatia	-11.1166
3.4	-11.1167
▁Refer	-11.1169
▁SEC	-11.1174
oso	-11.1174
▁Equal	-11.1175
lich	-11.1176
▁Due	-11.1177
ер	-11.1177
▁incredible	-11.1179
▁Authority	-11.1183
option	-11.1183
iness	-11.1187
▁arrive	-11.1189
IER	-11.1191
▁Lie	-11.1192
GER	-11.1193
λ	-11.1193
▁pound	-11.1195
119	-11.1195
lusive	-11.1196
feature	-11.1202
▁interaction	-11.1203
▁Governance	-11.1208
▁Irish	-11.1209
▁"+	-11.1209
▁GL	-11.1209
1-3	-11.1209
▁MM	-11.1213
▁Bella	-11.1215
▁youth	-11.1219
▁educational	-11.122
▁DICLOFEN	-11.1222
▁Driving	-11.1222
rv	-11.1224
▁polish	-11.1224
▁gene	-11.1224
▁Insert	-11.1224
pit	-11.1225
SL	-11.1226
▁Hyper	-11.1227
▁Mul	-11.1228
▁showed	-11.1228
▁Bring	-11.1228
3.3	-11.1229
Cor	-11.1231
▁Vin	-11.1233
▁Weld	-11.1233
▁Tal	-11.1235
▁functions	-11.1236
▁Pharma	-11.1236
▁battery	-11.1237
▁cushion	-11.1237
dol	-11.1237
▁Television	-11.1237
para	-11.1237
EAR	-11.1238
▁Cleaners	-11.1241
Code	-11.1244
unit	-11.1244
▁Hose	-11.1245
High	-11.1245
▁hardware	-11.1245
9.5	-11.1248
Show	-11.1248
writer	-11.1249
,000,000	-11.1251
▁Alabama	-11.1251
▁Graduation	-11.1251
▁criminal	-11.1251
어	-11.1251
▁pleasure	-11.1252
▁wallpaper	-11.1253
▁SKU	-11.1253
▁NW	-11.1256
▁Meter	-11.1257
▁Weddings	-11.1257
▁Monte	-11.1263
▁Flo	-11.1263
▁0.2	-11.1264
▁Rom	-11.1266
▁Redmi	-11.1266
▁Cosmetic	-11.1266
▁Resume	-11.1266
▁Classico	-11.1266
▁dates	-11.1268
dging	-11.1271
▁В	-11.1271
▁Bottles	-11.1274
paper	-11.1275
▁edited	-11.1275
▁crack	-11.1275
▁lay	-11.1277
She	-11.128
▁Mah	-11.128
▁Accommodation	-11.1281
č	-11.1281
▁Blind	-11.1281
▁Afghanistan	-11.1281
▁variable	-11.1281
▁Manchester	-11.1282
cord	-11.1283
▁consumers	-11.1286
RED	-11.1287
▁Ads	-11.1291
ench	-11.1292
▁Starting	-11.1294
美	-11.1295
▁postings	-11.1296
▁Songs	-11.1298
▁Adapters	-11.1299
▁importance	-11.1299
chel	-11.1299
▁tiny	-11.1299
▁Ky	-11.1301
▁dogs	-11.1302
▁Million	-11.1305
Saint	-11.1306
▁Comb	-11.1307
Port	-11.1309
ਰਤਨ	-11.131
▁Oklahoma	-11.131
گ	-11.131
▁Stadium	-11.131
▁Physics	-11.1311
▁Keyboard	-11.1313
▁pc	-11.1314
hydr	-11.1315
▁observe	-11.1316
reference	-11.1318
▁lived	-11.1324
ਟਕਾ	-11.1325
▁statistics	-11.1325
▁Ji	-11.1325
▁Shar	-11.1325
▁matters	-11.1326
▁dealer	-11.1327
▁Units	-11.1328
▁Captain	-11.1328
CON	-11.1328
▁Late	-11.133
()}	-11.1333
mill	-11.1334
▁seriously	-11.1334
none	-11.1334
iger	-11.1334
Cat	-11.1335
▁Liquid	-11.1335
▁Months	-11.1336
trop	-11.1336
▁Philadelphia	-11.1337
products	-11.1338
ਮ੍ਰਿਤ	-11.134
ened	-11.134
▁insert	-11.134
super	-11.1343
232	-11.1344
▁warning	-11.1344
▁Hawk	-11.1344
▁cock	-11.1345
gus	-11.1345
▁Pattern	-11.1345
180	-11.1346
▁Feature	-11.1346
▁Pig	-11.1346
isk	-11.1347
▁Anderson	-11.1347
oodle	-11.1347
tree	-11.1347
cum	-11.1347
▁Lyn	-11.135
▁Theory	-11.135
▁inches	-11.1351
GU	-11.1352
▁upper	-11.1353
▁Pediatric	-11.1354
▁Mercedes	-11.1354
omic	-11.1354
prev	-11.1355
ikk	-11.1356
▁!=	-11.1357
▁1970	-11.1359
▁wrap	-11.136
2.99	-11.136
Char	-11.1361
cock	-11.1361
igo	-11.1362
▁chemical	-11.1364
erge	-11.1364
plication	-11.1365
▁lessons	-11.1366
ivo	-11.1367
▁Shoe	-11.1368
▁actor	-11.1369
地	-11.1369
▁Hamilton	-11.1369
▁Diversity	-11.1369
▁Turbo	-11.1371
Bar	-11.1372
tak	-11.1374
▁concerns	-11.1375
▁॥	-11.1378
loader	-11.138
▁Bone	-11.138
aine	-11.1382
▁Clock	-11.1382
▁flower	-11.1383
▁Same	-11.1396
▁Truth	-11.1396
aro	-11.1399
▁au	-11.1399
ம	-11.1399
η	-11.1399
▁Empire	-11.1399
▁1991	-11.1399
▁Princess	-11.14
▁900	-11.1405
▁Bomb	-11.1405
▁Loop	-11.1408
hh	-11.1408
AH	-11.141
▁Hybrid	-11.1414
▁Strong	-11.1414
té	-11.1414
▁Yeah	-11.1416
dent	-11.142
tig	-11.142
pool	-11.1422
▁aspects	-11.1423
▁Brick	-11.1425
ை	-11.1429
ま	-11.1429
▁Speech	-11.1429
ITION	-11.143
▁130	-11.1431
▁Split	-11.1432
▁caught	-11.1432
▁Sexual	-11.1433
▁Meetings	-11.1433
▁knows	-11.1435
▁ph	-11.1437
▁drivers	-11.1438
▁fell	-11.1439
115	-11.144
▁Comic	-11.1441
XZA	-11.1442
▁recovery	-11.1443
▁Wikipedia	-11.1444
KU	-11.1444
▁Sudan	-11.1445
▁Nam	-11.1446
ERO	-11.1446
rough	-11.1448
▁Gurgaon	-11.1449
▁Wy	-11.1449
ANI	-11.1451
RING	-11.1451
▁Words	-11.1455
▁Neil	-11.1456
▁Homepage	-11.1458
orsepius	-11.1458
▁Bundle	-11.1459
▁140	-11.146
lg	-11.1462
rina	-11.1463
▁cells	-11.1463
▁EP	-11.1465
attachment	-11.1466
phil	-11.1466
▁recording	-11.1468
cking	-11.147
▁Plants	-11.1473
▁Jonathan	-11.1473
▁Gadget	-11.1473
▁|--	-11.1475
▁draft	-11.1475
▁Retro	-11.1476
▁Connected	-11.1477
itis	-11.1478
▁Parties	-11.1478
▁Damage	-11.148
▁concern	-11.1485
LOG	-11.1489
Div	-11.149
zip	-11.1495
▁1.2	-11.1495
AIL	-11.1496
▁ل	-11.1497
▁plain	-11.1499
legacy	-11.15
▁Eva	-11.15
lore	-11.1501
▁Birds	-11.1502
▁Behavior	-11.1503
▁podcast	-11.1503
▁Already	-11.1503
▁Duty	-11.1504
▁tweet	-11.1506
▁Português	-11.1506
▁Kick	-11.1506
▁dev	-11.1507
▁Championships	-11.1507
▁constant	-11.1508
▁tall	-11.1511
▁Ticket	-11.1513
**	-11.1513
ე	-11.1518
▁Beverage	-11.1518
▁Hidden	-11.1518
ril	-11.1518
▁Temple	-11.1519
▁Diesel	-11.1519
▁organizer	-11.1519
▁organic	-11.152
mir	-11.1521
▁Pod	-11.1521
▁Roller	-11.1521
DT	-11.1524
▁pun	-11.1526
▁fri	-11.153
MED	-11.1531
duction	-11.1531
▁transition	-11.1532
first	-11.1532
▁Sunglasses	-11.1533
▁Simply	-11.1533
▁prompt	-11.1534
▁Prices	-11.1534
▁Organisation	-11.1534
wrap	-11.1535
▁icons	-11.1536
▁expertise	-11.1536
▁Opt	-11.1537
▁Plates	-11.154
▁containers	-11.1544
▁الم	-11.1545
generic	-11.1547
rator	-11.155
▁(37)	-11.1551
▁rod	-11.1551
▁Lang	-11.1552
▁(40)	-11.1552
▁Ox	-11.1555
▁Patch	-11.1558
▁operate	-11.1561
»	-11.1563
▁Supreme	-11.1564
▁Cycle	-11.1564
▁Starter	-11.1565
135	-11.1565
▁stopped	-11.1566
▁flu	-11.1566
▁VO	-11.1567
▁electrical	-11.1568
▁starts	-11.1568
comment	-11.1569
pay	-11.157
▁GP	-11.1571
▁objective	-11.1571
abi	-11.1573
bind	-11.1574
shell	-11.1575
iano	-11.1576
▁Tee	-11.1578
▁Nashville	-11.1579
▁Hold	-11.1581
▁Lists	-11.1581
▁portion	-11.1581
▁loving	-11.1581
▁Pol	-11.1583
ACT	-11.1587
▁depending	-11.1587
▁rear	-11.1589
ente	-11.1589
▁SUV	-11.1591
inst	-11.1592
▁donation	-11.1593
体	-11.1594
▁Disclosure	-11.1594
▁Canvas	-11.1594
▁Karen	-11.1598
▁Blend	-11.1598
server	-11.1599
strict	-11.1599
▁Lamp	-11.1604
North	-11.1607
▁Finally	-11.1608
▁anal	-11.1609
▁browsing	-11.1609
▁advisor	-11.1609
▁crowd	-11.1609
▁branch	-11.1609
▁defense	-11.161
▁relative	-11.161
▁sil	-11.1611
enberg	-11.1611
split	-11.1614
▁Chu	-11.1616
▁blogging	-11.1619
▁Leaders	-11.1621
▁apart	-11.1622
▁upcoming	-11.1623
▁joined	-11.1623
▁Misc	-11.1624
æ	-11.1624
▁Subaru	-11.1624
▁Elite	-11.1624
▁Shadow	-11.1624
▁romance	-11.1624
▁stretch	-11.1624
▁JP	-11.1624
lier	-11.1627
chester	-11.1628
cies	-11.1629
▁Chef	-11.1629
▁drain	-11.1631
▁Lone	-11.1631
isse	-11.1632
/6	-11.1633
▁plot	-11.1635
▁votes	-11.1635
▁Barbara	-11.1639
▁Tub	-11.1641
▁Stan	-11.1641
local	-11.1649
lik	-11.165
▁Appointment	-11.1654
▁Detroit	-11.1655
▁circuit	-11.1655
▁Protein	-11.1655
permalink	-11.1655
▁Spiritual	-11.1656
▁Logged	-11.1656
▁Toilet	-11.1658
▁Spice	-11.1664
PEC	-11.1664
▁bid	-11.1667
▁searching	-11.1667
▁Creation	-11.1668
ਤ	-11.167
▁permanent	-11.167
▁Estimate	-11.167
shadow	-11.167
▁Samoa	-11.1671
▁principles	-11.1672
▁compete	-11.1673
▁crop	-11.1674
▁lowest	-11.1676
▁Loren	-11.1676
ANA	-11.1677
6.0	-11.1677
▁Mall	-11.168
ishing	-11.1682
▁demonstrate	-11.1685
▁Cock	-11.1686
▁WW	-11.169
▁hidden	-11.169
7.1	-11.1693
gna	-11.1694
LIN	-11.1696
drive	-11.1696
▁978	-11.1699
▁retain	-11.17
▁association	-11.17
▁receiving	-11.17
▁Forecast	-11.17
▁Biology	-11.1705
▁MN	-11.1706
hir	-11.1707
▁Native	-11.171
OUT	-11.1712
hour	-11.1714
Default	-11.1716
▁comparison	-11.1716
▁john	-11.1716
▁sharp	-11.1716
▁BS	-11.1717
lung	-11.1718
▁greatest	-11.1719
▁Prep	-11.1722
▁Assist	-11.1723
▁REAL	-11.1723
"))	-11.1724
dog	-11.1725
▁poll	-11.1726
▁Saved	-11.1728
▁lucky	-11.173
女	-11.1731
140	-11.1731
▁Connecticut	-11.1731
▁festival	-11.1731
▁investigation	-11.1731
▁Finger	-11.1731
▁❤	-11.1736
▁conf	-11.1738
dn	-11.1738
▁airport	-11.1738
▁bigger	-11.174
▁facts	-11.1745
root	-11.1746
▁acknowledge	-11.1746
▁refresh	-11.1746
▁Classifieds	-11.1746
▁healthcare	-11.175
▁Programming	-11.175
▁HERE	-11.1751
mind	-11.1751
▁Pos	-11.1755
organ	-11.1756
ма	-11.1758
▁innovative	-11.1762
▁powder	-11.1762
▁crisis	-11.1762
▁featured	-11.1762
▁Operator	-11.1763
▁Sel	-11.1763
▁perfectly	-11.1765
1.2	-11.1766
▁decades	-11.1766
blank	-11.1767
tum	-11.1768
7.00	-11.1768
tune	-11.177
ault	-11.1775
▁spoke	-11.1775
GP	-11.1776
手	-11.1776
▁Libraries	-11.1777
▁Deluxe	-11.1777
го	-11.1777
▁Interactive	-11.1779
▁Britain	-11.1779
▁suggested	-11.1779
▁Rugs	-11.178
▁Resolution	-11.178
good	-11.1781
nova	-11.1782
▁Honey	-11.1783
hua	-11.1784
mode	-11.1784
▁Maryland	-11.1785
ш	-11.1787
▁complaint	-11.1787
▁rough	-11.1787
▁writers	-11.1788
▁Finding	-11.1789
▁depth	-11.1789
dos	-11.179
▁Sure	-11.179
▁Contemporary	-11.1793
kor	-11.1793
▁partnership	-11.1795
▁Background	-11.1796
▁alter	-11.1797
▁Mouse	-11.1798
▁15%	-11.18
▁Monitoring	-11.1802
▁Clamp	-11.1802
▁seemed	-11.1803
talia	-11.1803
▁previously	-11.1803
▁ਸ	-11.1804
▁';	-11.1806
▁Olympic	-11.1808
▁accommodation	-11.1808
▁Douglas	-11.1808
▁markets	-11.1808
▁clothing	-11.1811
▁contractor	-11.1813
▁protest	-11.1814
anti	-11.1814
▁Bloom	-11.1814
▁Zi	-11.1815
▁spark	-11.1817
▁Origin	-11.1819
BY	-11.1821
▁Gall	-11.1822
▁relief	-11.1823
▁laptop	-11.1824
illo	-11.1825
▁provision	-11.1826
▁signing	-11.1826
gia	-11.1827
▁belong	-11.1828
tooltip	-11.1829
bia	-11.183
▁reject	-11.1832
▁dollars	-11.1836
方	-11.1838
▁Brandon	-11.1838
▁DU	-11.184
▁lawyer	-11.1841
sports	-11.1842
address	-11.1842
▁Friendly	-11.1842
][	-11.1842
▁cutting	-11.1846
TING	-11.1846
rous	-11.1847
******	-11.1848
pause	-11.185
▁Wing	-11.1851
$(	-11.1854
れ	-11.1854
▁PHENYL	-11.1854
▁Administrator	-11.1854
▁Dist	-11.1857
▁Cabinets	-11.1858
▁rank	-11.186
▁Fluid	-11.1861
▁american	-11.1862
LV	-11.1862
་	-11.1867
▁Massachusetts	-11.1867
▁employment	-11.1868
target	-11.1868
thumb	-11.1868
▁belt	-11.187
▁checkout	-11.1871
333	-11.1874
children	-11.1875
▁Americans	-11.188
105	-11.1881
▁adopt	-11.1883
▁duty	-11.1884
지	-11.1885
▁Infrastructure	-11.1886
▁medication	-11.1886
▁Surface	-11.1887
▁quotes	-11.1887
▁mile	-11.1888
▁Hum	-11.1889
▁guard	-11.189
▁machines	-11.1895
▁0-0	-11.1895
▁east	-11.1895
=0;	-11.1898
▁Worth	-11.1899
▁bet	-11.19
学	-11.1901
▁Reduce	-11.1901
▁Ceremony	-11.1901
▁numerous	-11.1901
big	-11.1902
▁Borrow	-11.1902
▁Khan	-11.1903
%)	-11.1903
▁stands	-11.1904
Object	-11.1905
ц	-11.1908
▁Duration	-11.191
licit	-11.1916
▁Cuba	-11.1917
▁Missouri	-11.1917
▁Attack	-11.1917
▁Taste	-11.1918
202	-11.1919
▁programming	-11.1919
·	-11.1921
▁س	-11.1921
▁hoping	-11.1921
horn	-11.1922
▁XML	-11.1924
How	-11.1924
bang	-11.1925
▁tradition	-11.1925
▁Albert	-11.1926
▁meters	-11.1928
icle	-11.1929
▁Harris	-11.1932
子	-11.1932
▁introduction	-11.1933
▁Vendor	-11.1933
▁cre	-11.1936
Control	-11.1937
message	-11.1937
480	-11.1941
102	-11.1941
▁OUT	-11.1942
か	-11.1948
▁Cricket	-11.1948
▁refuse	-11.1948
▁^	-11.1949
slide	-11.1953
osa	-11.1954
▁Against	-11.1954
RAS	-11.1955
▁ISO	-11.1959
▁Traveler	-11.1961
▁Reflect	-11.1961
STR	-11.1962
0,00	-11.1962
▁Philosophy	-11.1964
▁assignment	-11.1964
▁smoke	-11.1966
/7	-11.1968
▁Jac	-11.1968
Sale	-11.1976
dev	-11.1977
▁ye	-11.1977
▁arrival	-11.198
️	-11.198
▁Slim	-11.1982
▁Libya	-11.1985
107	-11.1986
Can	-11.1986
▁Fact	-11.1986
▁suitable	-11.1989
▁Saw	-11.199
▁Prize	-11.1992
▁Jess	-11.1993
2.8	-11.1994
▁Hen	-11.1995
▁Hungary	-11.1995
系	-11.1995
JU	-11.1996
▁usage	-11.1996
▁Purple	-11.1996
▁commission	-11.1996
hara	-11.2
template	-11.2001
▁coaching	-11.2001
▁Overall	-11.2002
cloud	-11.2002
most	-11.2003
▁entirely	-11.2006
▁confidence	-11.2011
▁Tokyo	-11.2011
▁venue	-11.2012
▁Fittings	-11.2017
porn	-11.2017
▁VIP	-11.2019
▁Device	-11.2023
▁Semi	-11.2024
section	-11.2027
▁Vir	-11.2028
▁BOOK	-11.2028
▁Psych	-11.2029
▁bringing	-11.203
▁narrow	-11.203
margin	-11.203
agan	-11.2031
▁usual	-11.2032
▁tracking	-11.2033
▁informed	-11.2035
isa	-11.2039
▁Brushes	-11.2041
▁Promo	-11.2042
graphic	-11.2042
▁Brochure	-11.2043
▁Sustainability	-11.2043
▁Vacuum	-11.2043
▁Bristol	-11.2043
▁Adidas	-11.2043
▁heaven	-11.2043
ulate	-11.2043
▁(←	-11.2043
▁dar	-11.2044
▁consultation	-11.2048
usa	-11.2051
rub	-11.2057
▁iOS	-11.2058
▁Evolution	-11.2059
▁administrator	-11.2059
▁Dylan	-11.2059
▁Prof	-11.2059
▁tells	-11.2061
▁om	-11.2061
▁noticed	-11.2062
419	-11.2065
▁â	-11.2066
▁Neo	-11.2067
▁seller	-11.2069
▁é	-11.2071
▁lane	-11.2071
▁Var	-11.2072
▁tiles	-11.2074
ô	-11.2074
▁Webinar	-11.2075
ONG	-11.2078
▁Kentucky	-11.2079
▁1960	-11.2084
uli	-11.2084
ICAL	-11.2088
ク	-11.209
▁manufacturing	-11.209
▁cotton	-11.2091
▁Bah	-11.2091
viv	-11.2091
kha	-11.2091
▁Republican	-11.2094
miss	-11.2094
food	-11.2096
kill	-11.2098
▁Congo	-11.21
▁DOI	-11.21
iko	-11.2101
▁comic	-11.2103
XX	-11.2103
▁LG	-11.2105
▁").	-11.2105
▁Cabinet	-11.2106
▁Portuguese	-11.2106
-01-0000	-11.2106
أ	-11.2106
▁Dogs	-11.2106
dro	-11.2107
▁Skate	-11.2111
ssen	-11.2112
▁permit	-11.2115
▁Vice	-11.2116
▁ancient	-11.2117
▁allowing	-11.2117
▁Miles	-11.2118
▁assets	-11.2118
▁Types	-11.2121
▁Qatar	-11.2122
▁Estonia	-11.2124
▁chi	-11.2125
▁Drawing	-11.2125
139	-11.2126
▁Ago	-11.2129
▁somewhere	-11.2129
brook	-11.2131
host	-11.2132
▁Flex	-11.2135
▁Falls	-11.2136
▁Anyway	-11.2138
工	-11.2138
▁television	-11.2139
▁severe	-11.2139
▁Michelle	-11.2142
▁nail	-11.2142
▁Fees	-11.2143
▁membership	-11.2143
ру	-11.2144
▁Gary	-11.2144
▁Moto	-11.2145
<->	-11.2146
▁Draft	-11.2146
▁Lines	-11.2149
▁sym	-11.2151
▁constantly	-11.2153
TEN	-11.2154
も	-11.2154
า	-11.2154
▁Cambodia	-11.2154
DU	-11.2156
▁chip	-11.2158
PAR	-11.2158
▁begins	-11.2163
▁SAS	-11.2166
aja	-11.2166
▁Rub	-11.2169
▁ein	-11.217
▁Distance	-11.2172
▁Parenting	-11.2172
Ed	-11.2172
lene	-11.2173
dec	-11.2174
Mail	-11.2175
▁$("	-11.2181
219	-11.2184
▁Caribbean	-11.2186
▁removal	-11.2186
▁inbox	-11.2191
▁Advisor	-11.2194
▁Bil	-11.2195
Max	-11.2198
cay	-11.22
RK	-11.2201
▁Pregnancy	-11.2202
▁exterior	-11.2202
station	-11.2204
surge	-11.2205
▁₹	-11.2206
luc	-11.2208
________________	-11.2209
▁Bracelets	-11.2213
toggle	-11.2217
▁accuracy	-11.2218
▁vacation	-11.2218
▁identity	-11.2219
▁Mystery	-11.2219
▁Finder	-11.2219
▁parameter	-11.2219
greg	-11.2221
▁Progress	-11.2222
▁Languages	-11.2223
▁Commons	-11.2225
comp	-11.2235
▁Summit	-11.2235
▁plug	-11.2235
145	-11.2238
▁panels	-11.2239
7%	-11.2241
tek	-11.2243
RF	-11.2244
0.5	-11.2245
▁Gym	-11.2247
▁proof	-11.2248
▁Instead	-11.2248
TX	-11.225
▁eventually	-11.2251
▁Supervisor	-11.2251
234	-11.2254
init	-11.2258
▁Movement	-11.2258
mac	-11.2259
▁McK	-11.2262
finite	-11.2262
▁Heating	-11.2262
▁arrangement	-11.2262
▁Agents	-11.2263
▁angle	-11.2264
▁makeup	-11.2266
▁lady	-11.2266
▁bound	-11.2267
▁hotels	-11.2267
jadedphotography	-11.2267
spira	-11.2267
▁trigger	-11.2268
ledge	-11.2269
▁watched	-11.2269
▁obvious	-11.2269
▁Restaurants	-11.2271
YN	-11.2271
}}{{	-11.2273
▁YA	-11.2273
▁construct	-11.2273
▁hell	-11.2273
▁examples	-11.2273
@...	-11.2276
▁Brit	-11.2279
▁alert	-11.2279
▁$("#	-11.2282
▁Explorer	-11.2282
undefined	-11.2283
▁Porsche	-11.2283
▁Terminal	-11.2284
sitemaps	-11.2285
eahi	-11.2286
▁SQL	-11.2286
ен	-11.2287
▁Raj	-11.2288
▁Silk	-11.229
CY	-11.229
▁mature	-11.2297
さ	-11.2299
▁competitive	-11.2299
▁Dashboard	-11.2299
▁acquire	-11.2299
hoo	-11.23
▁Kor	-11.23
▁agreed	-11.23
▁folder	-11.2301
▁})	-11.2308
▁defined	-11.2311
6.2	-11.2312
▁recognize	-11.2315
ட	-11.2316
▁Strategic	-11.2316
▁collaboration	-11.2316
▁Haiti	-11.2322
▁Submission	-11.2324
▁toys	-11.2326
eye	-11.2327
▁Mine	-11.2327
▁Booking	-11.2327
▁SERVICES	-11.233
finity	-11.2331
▁counsel	-11.2332
▁encounter	-11.2332
4000	-11.2332
▁MSRP	-11.2333
▁Mehi	-11.2334
▁meat	-11.2336
▁evil	-11.2338
files	-11.234
▁tablet	-11.234
▁XS	-11.2343
West	-11.2343
1.7	-11.2343
▁Doors	-11.2344
▁Astro	-11.2344
▁printed	-11.2346
▁Scientific	-11.2348
▁Antonio	-11.2348
▁Trek	-11.2348
raz	-11.235
▁Kil	-11.235
▁concerned	-11.235
▁sustainable	-11.2351
ggy	-11.2352
▁Eu	-11.2356
Value	-11.2358
▁Aakh	-11.2361
▁warranty	-11.2362
construct	-11.2363
▁Skirts	-11.2365
▁semi	-11.2365
▁Vaara	-11.2366
▁Serve	-11.2369
▁Leaf	-11.237
▁Frames	-11.2371
▁Outside	-11.2371
▁sup	-11.2372
Hon	-11.2372
▁ku	-11.2372
▁Fuck	-11.2376
▁mixed	-11.2377
LINE	-11.2379
▁Maine	-11.2379
▁Vas	-11.238
▁Bab	-11.2381
▁committee	-11.2381
197	-11.2386
hit	-11.2387
bay	-11.2387
▁mai	-11.2391
tica	-11.2392
activ	-11.2393
▁nine	-11.2393
Color	-11.2393
Photo	-11.2394
visible	-11.2394
ਕ	-11.2397
▁enterprise	-11.2397
▁Vadh	-11.2398
▁Rewards	-11.2398
▁operators	-11.2398
▁Shirt	-11.2399
▁admit	-11.2399
▁Bhuru	-11.24
▁Directors	-11.2405
▁robot	-11.2407
▁Kha	-11.2409
▁native	-11.241
▁ONE	-11.2411
能	-11.2413
▁disappoint	-11.2414
▁emergency	-11.2414
aagu	-11.2414
▁Agenda	-11.2415
aves	-11.2416
▁$('.	-11.2416
▁affordable	-11.2417
1.4	-11.242
▁Kay	-11.2421
▁UTC	-11.2422
▁una	-11.2422
util	-11.2424
▁Upper	-11.2428
▁supporting	-11.2428
▁Pest	-11.2429
▁patterns	-11.2429
▁Scroll	-11.243
▁Guarantee	-11.243
▁Swedish	-11.243
▁ultimate	-11.2433
▁ven	-11.2437
▁accessible	-11.2437
▁°	-11.2443
Life	-11.2445
GG	-11.2446
7.99	-11.2446
▁Opportunity	-11.2447
▁Walker	-11.2447
▁Crow	-11.2449
430	-11.2449
▁rub	-11.2449
не	-11.2449
liner	-11.2452
ч	-11.2452
▁Motion	-11.2453
▁Dynamics	-11.2455
▁dimensions	-11.2455
ision	-11.2456
More	-11.2461
▁procedures	-11.2461
▁nude	-11.2462
▁Ukrainian	-11.2463
▁muscle	-11.2463
music	-11.2465
4.3	-11.2465
step	-11.2467
▁bone	-11.2467
phe	-11.2467
ication	-11.2467
▁Cum	-11.247
▁utili	-11.2471
▁Abuse	-11.2471
ulu	-11.2472
▁gather	-11.2474
▁Bottle	-11.2475
▁fur	-11.2475
ifies	-11.2479
가	-11.248
ción	-11.248
User	-11.2481
▁Console	-11.2482
▁utilize	-11.2483
dialog	-11.2483
chair	-11.2484
▁extract	-11.2485
▁prize	-11.2492
Fri	-11.2493
ACH	-11.2496
▁Ry	-11.2496
▁league	-11.2496
▁UAE	-11.2497
И	-11.2497
▁Beginner	-11.2497
▁relations	-11.2498
▁102	-11.2498
/2013	-11.2499
▁(41)	-11.2499
▁Managing	-11.25
▁Notification	-11.25
▁engagement	-11.2501
▁arrived	-11.2501
▁announce	-11.2502
▁massage	-11.2502
lov	-11.2503
▁Knit	-11.2504
▁Sweaters	-11.2506
chat	-11.2511
▁impossible	-11.2513
▁telecharger	-11.2513
▁directory	-11.2515
▁Raw	-11.2516
▁Discovery	-11.2518
▁yards	-11.2518
▁Documentation	-11.2519
Point	-11.2519
▁employee	-11.2522
▁regional	-11.2523
▁publication	-11.2524
▁Quiz	-11.2524
▁margin	-11.2526
normal	-11.2526
▁sew	-11.2527
123	-11.2527
物	-11.2529
▁Ceramic	-11.2529
▁elegant	-11.2529
▁Bracket	-11.2529
▁Landscape	-11.253
▁Promotions	-11.2531
hawk	-11.2532
▁Font	-11.2534
India	-11.2536
▁Cooling	-11.2538
ucci	-11.2539
▁chosen	-11.2542
▁canon	-11.2543
▁Gem	-11.2543
城	-11.2546
▁Messenger	-11.2546
▁swimming	-11.2546
▁Insights	-11.2548
▁raw	-11.2548
▁Ext	-11.2549
▁Prevention	-11.255
▁Fitting	-11.255
flu	-11.255
▁Glad	-11.255
▁Peru	-11.2553
▁MIL	-11.2553
▁Berg	-11.2554
▁shoulder	-11.2554
▁Thai	-11.2556
▁reset	-11.2558
▁Alice	-11.2559
Т	-11.2563
▁Amateur	-11.2563
▁Helmets	-11.2563
▁Tanks	-11.2564
▁Bead	-11.2569
▁Oral	-11.2569
▁Gardens	-11.2571
▁residents	-11.2572
▁Bake	-11.2573
可	-11.2579
ग	-11.2579
▁Columbus	-11.2579
▁museum	-11.2579
1,000	-11.258
▁Flood	-11.258
▁(39)	-11.2581
▁Rapid	-11.2582
▁Zero	-11.2583
bur	-11.2585
▁Picks	-11.2588
chu	-11.2588
▁collected	-11.2589
"==	-11.2589
▁Mate	-11.2591
▁Dean	-11.2591
▁neck	-11.2592
-2014	-11.2592
gua	-11.2593
stad	-11.2594
▁tonight	-11.2594
▁restore	-11.2594
▁Wor	-11.2596
▁intelligence	-11.2596
う	-11.2596
));	-11.2601
▁Accounting	-11.2605
3.99	-11.2607
▁bull	-11.2607
▁pit	-11.2609
▁determined	-11.2612
ರ	-11.2613
▁mortgage	-11.2613
▁symptoms	-11.2613
▁routine	-11.2613
▁arms	-11.2614
▁Normal	-11.2615
▁Galeri	-11.2615
▁Factory	-11.2618
106	-11.262
5.99	-11.2621
boro	-11.2622
▁Nothing	-11.2622
▁remaining	-11.2623
▁Twi	-11.2625
▁tent	-11.2626
6.1	-11.2626
▁Mirrors	-11.2627
▁Minimum	-11.263
▁tests	-11.263
mouse	-11.2632
maker	-11.2633
▁runner	-11.2634
EU	-11.2638
▁OKI	-11.2639
▁consult	-11.264
▁Below	-11.2641
▁lit	-11.2641
Atom	-11.2644
ф	-11.2644
White	-11.2644
while	-11.2645
United	-11.2646
Ã	-11.2647
▁Yamaha	-11.2647
▁guidelines	-11.2647
▁Disaster	-11.2648
say	-11.2649
4%	-11.2649
▁Justin	-11.2654
▁carefully	-11.2656
draw	-11.2657
Act	-11.2659
▁politician	-11.2663
▁shelves	-11.2664
brew	-11.2664
▁Judge	-11.2668
leigh	-11.2669
▁GM	-11.267
▁chic	-11.2672
Button	-11.2677
including	-11.2679
▁texture	-11.2679
DAY	-11.2679
▁patch	-11.268
▁extensive	-11.268
▁suspect	-11.2682
▁Chic	-11.2683
▁planned	-11.2683
▁Motors	-11.2683
▁okay	-11.2683
▁cleaner	-11.2683
▁Spider	-11.2684
▁restrict	-11.2686
▁turns	-11.2695
ジ	-11.2697
▁Lithuania	-11.2697
스	-11.2697
▁Tutorial	-11.2697
▁Pant	-11.2698
3.6	-11.2699
▁Rack	-11.27
2006	-11.27
▁Robot	-11.27
drop	-11.2701
877	-11.2702
▁intention	-11.2703
pository	-11.2705
▁conditioner	-11.2705
Loader	-11.2705
▁suite	-11.2706
▁Mason	-11.2706
etti	-11.2706
▁MK	-11.2707
6%	-11.2708
▁Gla	-11.2711
Attribute	-11.2714
▁approximately	-11.2714
▁stupid	-11.2714
▁reaction	-11.2714
▁scheme	-11.2714
▁Grow	-11.2716
▁layout	-11.2717
▁dust	-11.2721
▁Mala	-11.2723
195	-11.2725
ADOR	-11.2729
▁angel	-11.2731
▁Alcohol	-11.2731
▁Diploma	-11.2731
▁Accident	-11.2731
▁logic	-11.2733
▁Sad	-11.2734
▁Panama	-11.2736
▁gla	-11.2736
▁listening	-11.2737
▁Grove	-11.274
▁withdraw	-11.2743
▁Dal	-11.2745
▁Mills	-11.2746
▁grab	-11.2747
Video	-11.2747
▁navigate	-11.2748
국	-11.2748
▁Anthony	-11.2748
▁CART	-11.2748
▁incident	-11.2749
anasonic	-11.2749
▁Wet	-11.275
▁Informa	-11.2752
(3)	-11.2753
▁Commerce	-11.2754
▁golf	-11.2754
▁Antique	-11.2757
▁Planner	-11.2759
777	-11.2759
▁Away	-11.276
132	-11.2762
▁103	-11.2762
glo	-11.2763
▁matches	-11.2764
&&!	-11.2765
最	-11.2765
▁Bachelor	-11.2765
▁facility	-11.2765
▁Values	-11.2765
▁Citation	-11.2766
▁Cutting	-11.2769
▁pics	-11.2769
▁Refund	-11.2771
255	-11.2771
▁Ace	-11.2772
▁settle	-11.2773
▁dig	-11.2777
▁till	-11.2778
▁RAM	-11.2778
▁Currently	-11.2781
▁supplement	-11.2782
▁Xperia	-11.2782
parentNode	-11.2782
▁flavor	-11.2782
▁Oscar	-11.2783
ector	-11.2784
▁Multimedia	-11.2784
▁TU	-11.2785
trip	-11.2787
▁ut	-11.2787
▁Highway	-11.2788
▁mistakes	-11.2789
▁Morris	-11.2789
▁Pel	-11.2793
▁Ale	-11.2794
▁awards	-11.2798
▁forced	-11.2799
▁Domestic	-11.2799
▁obligation	-11.2799
▁Removal	-11.2799
▁1987	-11.28
▁residential	-11.28
▁HealthCare	-11.2802
heat	-11.2804
▁resolve	-11.2804
▁wing	-11.2804
▁massive	-11.2805
▁Rule	-11.2806
▁Sent	-11.2806
ORS	-11.281
▁Vel	-11.2813
▁Bou	-11.2814
whatsapp	-11.2815
▁council	-11.2816
EUR	-11.2818
▁Demon	-11.2818
▁candidate	-11.2818
▁Titan	-11.282
encia	-11.2821
▁corn	-11.2822
AKE	-11.2826
▁Admissions	-11.2833
▁Ribbon	-11.2833
▁forecast	-11.2834
bian	-11.2834
▁viewing	-11.2835
▁Historic	-11.2836
▁Relay	-11.2837
▁Mint	-11.2838
▁Booklet	-11.2839
▁agents	-11.2844
hra	-11.2844
▁legs	-11.2846
146	-11.2846
▁prime	-11.2848
▁Feet	-11.2849
instagram	-11.285
205	-11.285
kamagra	-11.285
Blue	-11.2851
▁Psychology	-11.2852
▁Chad	-11.2852
▁Andrea	-11.2853
lau	-11.2857
▁Cabin	-11.2857
▁Senator	-11.2862
▁Neg	-11.2864
▁regulations	-11.2864
Coll	-11.2866
ロ	-11.2868
▁Bangladesh	-11.2868
▁accomplish	-11.2868
▁Perhaps	-11.2868
▁proposed	-11.2868
▁survive	-11.2868
▁antique	-11.287
▁(42)	-11.2871
▁dollar	-11.2872
▁Volvo	-11.2872
2007	-11.2873
▁Adventures	-11.2875
▁Backpacks	-11.2876
UCH	-11.2877
▁bookmark	-11.2877
▁discovered	-11.2878
borough	-11.2878
▁Deer	-11.2881
▁Geek	-11.2881
▁Heather	-11.2882
▁Keywords	-11.2882
▁journalist	-11.2882
▁wondering	-11.2884
▁domestic	-11.2885
▁Highlights	-11.2885
pixel	-11.2887
FM	-11.289
▁Andy	-11.289
Blog	-11.2892
arguments	-11.2893
▁Tall	-11.2893
▁Kiss	-11.2893
147	-11.2896
LEY	-11.2898
Care	-11.2898
tv	-11.29
▁measures	-11.2902
▁Prediction	-11.2902
▁stunning	-11.2902
▁exhaust	-11.2902
▁Automation	-11.2902
CES	-11.2903
▁Certificates	-11.2905
▁Shore	-11.2906
fen	-11.2909
▁stain	-11.291
▁Italiano	-11.2911
▁Stress	-11.2911
LIDE	-11.2912
▁Lawn	-11.2912
▁exhibition	-11.2914
▁explained	-11.2915
green	-11.2915
15)	-11.2916
version	-11.2919
ض	-11.2919
▁screw	-11.2919
OU	-11.292
▁Snack	-11.292
▁Charlie	-11.2921
án	-11.2922
▁Signature	-11.2925
▁MLS	-11.2925
▁fake	-11.2929
Help	-11.293
▁dealing	-11.2932
▁Lessons	-11.2932
▁documentation	-11.2932
component	-11.2932
▁issued	-11.2936
▁Favourite	-11.2937
▁occupation	-11.2937
▁Logistics	-11.2937
indexOf	-11.2938
update	-11.2938
▁stopping	-11.2942
▁Goals	-11.2949
да	-11.2952
Shop	-11.2952
HG	-11.2953
▁Going	-11.2953
▁Ethics	-11.2954
▁behalf	-11.2954
▁argue	-11.2955
▁Toddler	-11.2955
▁Rise	-11.2956
ло	-11.2956
▁0;	-11.2956
▁restaurants	-11.2957
lick	-11.2957
▁decline	-11.2958
▁Quickview	-11.296
NES	-11.2964
▁launched	-11.2967
▁');	-11.2968
▁107	-11.2969
▁tub	-11.297
น	-11.2971
پ	-11.2971
▁Newspeak	-11.2971
▁Vegan	-11.2973
yes	-11.2974
▁Scene	-11.2975
▁rice	-11.2975
▁McG	-11.2978
▁650	-11.2982
▁Tablets	-11.2982
▁sole	-11.2983
▁typically	-11.2984
件	-11.2988
▁memories	-11.2989
▁Width	-11.299
▁Purpose	-11.2996
▁Might	-11.3003
▁Criminal	-11.3006
▁grateful	-11.3006
glass	-11.3007
▁Blank	-11.3009
VO	-11.301
▁(+1	-11.3014
▁Sem	-11.3014
▁wearing	-11.3014
▁Portland	-11.3016
▁math	-11.3017
plat	-11.3021
▁Sai	-11.3022
▁Emma	-11.3024
▁officers	-11.3024
▁Religious	-11.3024
▁revolution	-11.3024
▁Yan	-11.3025
rose	-11.3025
▁knee	-11.3026
▁bell	-11.3026
uki	-11.3027
109	-11.3028
▁Mir	-11.303
▁hip	-11.3032
▁poem	-11.3035
▁entered	-11.3036
focus	-11.3037
415	-11.3039
▁Treatments	-11.3041
▁strap	-11.3041
inventory	-11.3041
▁Nederland	-11.3041
▁climb	-11.3041
▁Generator	-11.3042
Mineral	-11.3042
▁pricing	-11.3042
evo	-11.3042
▁sauce	-11.3042
▁decorating	-11.3045
▁visited	-11.3046
▁sq	-11.3047
▁mono	-11.3048
▁Kindle	-11.3049
▁Norsk	-11.3049
▁750	-11.3052
talk	-11.3053
kov	-11.3054
▁hosting	-11.3055
▁7:30	-11.3056
1-4	-11.3059
▁nutrition	-11.3059
▁Gau	-11.3059
access	-11.3061
▁Sermon	-11.3062
friend	-11.3065
medic	-11.3066
Gen	-11.3067
143	-11.3069
мо	-11.3069
▁Mounts	-11.307
▁Mess	-11.3073
118	-11.3075
Monkey	-11.3076
▁fundamental	-11.3076
▁cum	-11.3076
▁ignore	-11.3076
optional	-11.3077
104	-11.3077
▁Glossary	-11.3078
▁combine	-11.3078
had	-11.3079
gallery	-11.308
▁Ronit	-11.3083
▁dreams	-11.3085
▁eBook	-11.3087
▁Harper	-11.3089
San	-11.3089
▁picked	-11.3089
▁errors	-11.3089
icia	-11.3091
▁jar	-11.3091
iframe	-11.3093
ს	-11.3094
▁Lebanon	-11.3094
▁alcohol	-11.3094
▁weapon	-11.3094
▁honda	-11.3095
▁Folk	-11.3095
▁legislation	-11.3096
▁neuro	-11.3096
▁Aircraft	-11.3098
udge	-11.3099
EW	-11.3099
▁candy	-11.31
340	-11.3102
▁Peak	-11.3102
▁surprised	-11.3104
ör	-11.3107
▁Boss	-11.3107
1-1	-11.3107
escent	-11.3108
▁engage	-11.3109
加	-11.3111
▁Adhesive	-11.3111
▁Metropolitan	-11.3111
▁distinct	-11.3111
▁Quartet	-11.3111
▁regularly	-11.3112
▁wealth	-11.3112
▁Deliver	-11.3112
▁newspaper	-11.3113
▁Racks	-11.3114
▁Sauce	-11.3114
quo	-11.3114
ación	-11.3114
ados	-11.3114
▁Vests	-11.3115
6.99	-11.3117
Sign	-11.3117
▁bridge	-11.3118
▁UC	-11.3119
▁Sharp	-11.3119
skies	-11.312
={	-11.3121
▁formula	-11.3121
}),	-11.3123
▁extended	-11.3124
▁Lib	-11.3126
▁Reach	-11.3128
▁Within	-11.3128
会	-11.3129
▁improved	-11.3132
▁bride	-11.3135
▁une	-11.3143
▁slave	-11.3144
float	-11.3147
ब	-11.3147
ר	-11.3147
brand	-11.3148
▁Armenia	-11.3148
original	-11.3148
▁laser	-11.3149
▁font	-11.3149
117	-11.315
▁Improvement	-11.3152
▁Carr	-11.3152
▁NBA	-11.3153
▁Allow	-11.3157
2.3	-11.3158
▁charm	-11.316
▁answered	-11.316
365	-11.3161
riz	-11.3161
▁128	-11.3162
▁jQuery	-11.3162
▁Revolution	-11.3162
▁Injury	-11.3164
▁Coil	-11.3165
▁Appeal	-11.3165
wire	-11.3167
▁lab	-11.3167
▁Sandals	-11.3167
▁Watt	-11.3168
fusion	-11.3169
▁Border	-11.3171
▁Lamb	-11.3172
▁canadian	-11.3173
144	-11.3173
▁decade	-11.3173
▁vent	-11.3174
▁Shoulder	-11.3175
hap	-11.3176
▁Roma	-11.3176
▁Marco	-11.3177
abil	-11.3179
▁5000	-11.3179
▁alerts	-11.318
260	-11.318
▁Lei	-11.318
▁urban	-11.3182
▁Latvia	-11.3182
▁smartphone	-11.3183
Wi	-11.3183
▁Devil	-11.3183
▁Thunder	-11.3183
▁Recruitment	-11.3183
▁Lynn	-11.3185
▁Classroom	-11.3186
▁insight	-11.3186
▁AK	-11.3187
▁bro	-11.3188
128	-11.3188
uce	-11.3189
▁Breaking	-11.3189
▁1986	-11.319
▁Scan	-11.319
camp	-11.3191
▁Excel	-11.3191
▁Slip	-11.3191
▁customize	-11.3193
▁Fried	-11.3195
member	-11.3197
▁Berry	-11.3197
▁unable	-11.3197
▁fulfill	-11.32
▁illegal	-11.32
▁Contains	-11.32
▁$16	-11.3202
▁handling	-11.3203
▁Reform	-11.3203
▁awareness	-11.3204
zza	-11.3207
▁Reporting	-11.3209
▁NM	-11.3209
ан	-11.321
▁Howard	-11.321
▁Tote	-11.321
▁REAR	-11.3214
▁Hunt	-11.3214
▁Axis	-11.3219
▁trademarks	-11.3221
▁Asset	-11.3221
▁exceptional	-11.3224
▁shoe	-11.3226
▁fitness	-11.3228
▁NYC	-11.323
▁sending	-11.323
▁extent	-11.3233
程	-11.3235
▁Families	-11.3235
▁Temperature	-11.3235
▁phrase	-11.3235
▁Galleries	-11.3235
appendTo	-11.3237
▁gig	-11.324
container	-11.3241
▁shit	-11.3242
▁yard	-11.3243
▁Apartments	-11.3245
▁implementation	-11.3245
▁producer	-11.3247
▁flour	-11.3248
uka	-11.3251
▁Ecuador	-11.3253
▁Myanmar	-11.3253
▁Increase	-11.3253
▁dear	-11.3254
▁Evening	-11.3254
▁Pac	-11.3254
▁1.8	-11.3256
▁everywhere	-11.3256
▁Bengal	-11.3257
▁Kris	-11.3257
▁Workshops	-11.3257
▁́	-11.3258
▁unto	-11.3258
▁Wayne	-11.3259
▁fighting	-11.3262
acle	-11.3262
▁Lol	-11.3263
hur	-11.3264
▁Specific	-11.3269
157	-11.327
Ü	-11.3271
▁Mathematics	-11.3271
▁bronze	-11.3271
▁Retirement	-11.3272
▁decorative	-11.3273
▁Perform	-11.3276
▁grown	-11.3276
▁Talent	-11.3276
Space	-11.3278
▁Labour	-11.328
▁surrounding	-11.3283
▁Robin	-11.3285
▁325	-11.3288
▁teeth	-11.329
▁extreme	-11.3291
▁alarm	-11.3293
▁1950	-11.3293
▁taught	-11.3293
230	-11.3296
facebook	-11.3297
Line	-11.33
113	-11.3302
▁SIM	-11.3302
▁examine	-11.3303
▁candidates	-11.3305
Menu	-11.3306
▁Michel	-11.3306
▁Chevrolet	-11.3307
▁Strength	-11.3307
▁Contests	-11.3307
▁jacket	-11.3307
▁Civic	-11.3308
▁Worship	-11.3308
ANN	-11.3309
▁citizens	-11.3309
▁Mut	-11.331
Content	-11.3314
▁PRODUCTS	-11.3319
▁salad	-11.3319
▁zu	-11.332
DEN	-11.332
▁Baltimore	-11.3325
▁Hampshire	-11.3325
▁ISBN	-11.3325
▁Inspection	-11.3325
▁performed	-11.3325
▁Magnet	-11.3329
........	-11.333
CHA	-11.3331
▁Colon	-11.3332
▁Crusher	-11.3333
ال	-11.3333
ETS	-11.3335
▁bunch	-11.3335
TN	-11.3338
828	-11.3339
▁Helen	-11.3341
142	-11.3341
itting	-11.3342
▁Parliament	-11.3343
▁qualified	-11.3343
▁circle	-11.3344
igue	-11.3344
▁Breast	-11.3345
▁jam	-11.3346
gress	-11.3346
▁Solo	-11.3346
2005	-11.3347
▁inspect	-11.335
▁190	-11.3353
▁Chance	-11.3355
170	-11.3357
▁Bir	-11.3357
▁forces	-11.336
き	-11.3361
▁conclusion	-11.3361
▁efficiency	-11.3361
▁Imam	-11.3361
▁dont	-11.3363
▁Typ	-11.3364
▁Skill	-11.3368
▁Tamil	-11.3368
lent	-11.3369
▁Writer	-11.3369
▁Notebook	-11.3373
▁8:30	-11.3374
Oh	-11.3375
▁Counsel	-11.3375
▁Meat	-11.3378
anga	-11.3378
カ	-11.3379
▁explanation	-11.3379
▁Consider	-11.3381
149	-11.3382
make	-11.3382
▁Hebrew	-11.3383
▁Tender	-11.3384
▁mad	-11.3385
▁Liz	-11.3385
▁kr	-11.3389
▁Chest	-11.3389
publish	-11.3389
▁LCD	-11.3392
Update	-11.3392
xxx	-11.3395
▁MENU	-11.3395
▁$11	-11.3397
[3]	-11.3397
JOURNAL	-11.3397
▁portfolio	-11.3397
▁Sierra	-11.3397
▁Anchor	-11.3397
▁Serbia	-11.3398
▁115	-11.3398
▁Laboratory	-11.3398
▁snap	-11.3398
clone	-11.3398
removeClass	-11.3398
INO	-11.3399
▁procedure	-11.34
PN	-11.3401
▁ml	-11.3402
▁mining	-11.3406
▁household	-11.341
7.2	-11.3411
▁Jade	-11.3411
▁currency	-11.3413
▁Understanding	-11.3415
▁younger	-11.3415
▁Merry	-11.3415
▁Turkish	-11.3415
▁Oven	-11.3416
▁broadcast	-11.3416
citation	-11.3416
solve	-11.3416
▁Rosa	-11.3417
getElement	-11.3417
▁Pilot	-11.3417
▁recommendations	-11.3418
99.00	-11.3419
▁Hur	-11.3424
▁Loans	-11.3424
AMA	-11.3424
▁Verde	-11.3425
▁personalized	-11.3425
tud	-11.3426
Men	-11.3426
▁Delta	-11.3426
heart	-11.343
VAL	-11.343
nate	-11.3431
▁Raipur	-11.3434
Owned	-11.3434
▁browse	-11.3434
▁Printable	-11.3435
▁Operating	-11.3435
▁Sup	-11.3436
full	-11.3436
yle	-11.3437
▁stuck	-11.344
0.6	-11.3442
▁attitude	-11.3442
▁gal	-11.3443
Contact	-11.3443
▁wool	-11.3443
▁М	-11.3444
ured	-11.3444
▁Yard	-11.3445
uan	-11.3446
▁govern	-11.3448
8.99	-11.3449
pine	-11.3449
4.8	-11.345
▁publisher	-11.345
▁Autumn	-11.3452
▁Vancouver	-11.3452
▁giant	-11.3453
▁passing	-11.3453
▁Lucia	-11.3454
▁cloth	-11.3454
▁samples	-11.3455
▁baking	-11.3456
lade	-11.3457
520	-11.3458
EVER	-11.3468
▁Rainbow	-11.3471
▁Trousers	-11.3471
▁guaranteed	-11.3476
▁●	-11.3481
prop	-11.3482
HL	-11.3484
▁dozen	-11.3485
▁displayed	-11.3486
▁Architect	-11.3487
▁Resident	-11.3487
▁Critical	-11.3487
▁Dimensions	-11.3488
▁Excellence	-11.3488
▁graduation	-11.3488
▁diversity	-11.3488
▁sleeve	-11.3488
▁Campground	-11.3489
▁Moore	-11.3491
▁(44)	-11.3492
▁Flip	-11.3495
2.7	-11.3495
Over	-11.3496
▁hill	-11.3499
137	-11.3503
▁recall	-11.3504
▁hung	-11.3506
▁leak	-11.3506
ன்	-11.3507
▁dangerous	-11.3508
▁monitoring	-11.3508
phpBB	-11.3508
▁pants	-11.351
▁noise	-11.351
▁herself	-11.3512
270	-11.3516
▁Vent	-11.3516
▁Hiking	-11.3517
▁carbon	-11.3518
▁Lit	-11.3518
▁rob	-11.3519
▁Tome	-11.3524
▁Globe	-11.3525
▁Lesson	-11.3529
▁Huge	-11.353
▁1988	-11.3532
▁Seats	-11.3534
▁Root	-11.3535
▁Draw	-11.3537
▁Celebrity	-11.3543
▁Treasury	-11.3543
▁diamond	-11.3543
Str	-11.3544
▁weird	-11.3545
▁Debt	-11.3545
oka	-11.3546
)&&(	-11.3548
▁ACT	-11.3549
GEN	-11.355
▁appeared	-11.355
▁publish	-11.3554
▁Greater	-11.3554
google	-11.3554
1.99	-11.3556
▁consultant	-11.3556
▁Coverage	-11.3556
door	-11.3557
▁UV	-11.3558
▁Harness	-11.3558
▁Clutch	-11.3562
▁certified	-11.3562
▁Dessert	-11.3562
▁Coco	-11.3562
▁Alaska	-11.3562
▁Legacy	-11.3562
▁thin	-11.3563
nya	-11.3564
▁Wife	-11.3565
Press	-11.3566
▁Secondary	-11.3568
Ver	-11.3569
nation	-11.3569
▁Commun	-11.357
617	-11.357
▁Necklaces	-11.3571
gil	-11.3573
Commerce	-11.3574
225	-11.3574
grave	-11.3575
▁obviously	-11.3578
▁recorded	-11.3578
ANS	-11.3579
▁Agricultural	-11.358
▁afraid	-11.358
▁Regulator	-11.358
▁Linda	-11.3582
▁Opera	-11.3583
▁immediate	-11.3585
-2013	-11.3586
▁Larry	-11.3587
▁Tapes	-11.3587
know	-11.3589
▁moon	-11.3589
▁Fear	-11.3589
▁JO	-11.3589
▁123	-11.359
▁Stud	-11.3591
Child	-11.3591
cient	-11.3599
▁Computing	-11.3599
▁Pretty	-11.3599
▁Rou	-11.3599
arian	-11.3601
ци	-11.3609
▁Bulletin	-11.3614
▁NU	-11.3616
▁Between	-11.3617
▁Ingredient	-11.3617
▁circumstances	-11.3617
▁happiness	-11.3617
▁Stewart	-11.3618
▁thrill	-11.3618
jer	-11.3618
▁chest	-11.3619
▁lesson	-11.3619
▁PhD	-11.3621
ام	-11.3623
ASH	-11.3625
▁loading	-11.3628
pha	-11.3632
▁Christianity	-11.3633
▁containing	-11.3635
数	-11.3636
メ	-11.3636
▁criteria	-11.3636
▁pillow	-11.3637
▁Hindi	-11.3638
▁commun	-11.3638
lain	-11.3639
▁Cause	-11.3641
neck	-11.3641
hee	-11.3641
fun	-11.3642
▁108	-11.3642
▁fault	-11.3642
▁$19	-11.3644
▁FRE	-11.3648
course	-11.3652
▁Integration	-11.3654
▁Luxembourg	-11.3654
▁compensation	-11.3654
▁identified	-11.3654
▁Outreach	-11.3654
▁Pierre	-11.3655
ece	-11.3656
▁wireless	-11.3658
cid	-11.3658
▁Towels	-11.3662
▁3/4	-11.3663
▁Instrument	-11.3665
iate	-11.3665
▁Democrat	-11.3666
generat	-11.3667
module	-11.3667
▁Mazda	-11.3673
인	-11.3673
▁Warehouse	-11.3673
travel	-11.3673
▁Morocco	-11.3674
+1	-11.3675
▁Ashley	-11.3677
▁Verified	-11.3678
▁mailing	-11.3678
▁Secretary	-11.3679
▁Writers	-11.368
▁losing	-11.3681
▁tramadol	-11.3682
919	-11.3683
▁VR	-11.3683
▁Shopify	-11.3685
▁Mugs	-11.3685
ambi	-11.3686
▁Ble	-11.3686
facet	-11.3687
science	-11.3691
ु	-11.3692
▁correspond	-11.3692
▁Laundry	-11.3692
▁lesbian	-11.3692
▁Canyon	-11.3692
OTT	-11.3693
▁submission	-11.3693
▁Decorative	-11.3694
State	-11.3697
▁painted	-11.3697
enti	-11.3699
TZ	-11.3702
what	-11.3702
▁Woo	-11.3706
下	-11.371
▁mp	-11.371
▁Acrylic	-11.371
▁Sustainable	-11.371
▁christmas	-11.371
▁Cycling	-11.371
▁Warrior	-11.371
fur	-11.3713
▁Soup	-11.3714
▁insights	-11.3715
▁exhibit	-11.3717
▁Leader	-11.372
▁Signal	-11.3722
▁Patterns	-11.3724
▁Operation	-11.3725
ਲ	-11.3729
▁fraud	-11.3729
EPHR	-11.373
▁Dublin	-11.373
390	-11.3731
zone	-11.3733
▁TIME	-11.3734
▁Charm	-11.3739
▁stair	-11.3739
▁photographer	-11.374
MIN	-11.374
▁109	-11.3742
▁bake	-11.3748
▁impressive	-11.3748
manjaro	-11.3748
5.2	-11.3751
▁institutions	-11.3751
▁3000	-11.3754
▁visible	-11.3754
▁instant	-11.3756
▁Volumi	-11.3757
-0.	-11.3758
wash	-11.3758
▁Ul	-11.3764
自	-11.3766
理	-11.3766
▁Handbook	-11.3767
マ	-11.3767
フ	-11.3767
რ	-11.3767
▁vBulletin	-11.3767
▁yield	-11.3767
truc	-11.3768
▁riding	-11.3768
▁Aaron	-11.3769
alok	-11.377
/02/20	-11.3771
▁moral	-11.3771
▁Belle	-11.3774
▁Dock	-11.3775
▁1985	-11.3776
iller	-11.3776
ROS	-11.3776
issa	-11.3777
▁Tablet	-11.378
Service	-11.3781
▁Carter	-11.3783
▁Salvador	-11.3786
▁Rebecca	-11.3786
▁Gabriel	-11.3786
375	-11.3786
▁qualify	-11.3786
ffi	-11.3786
▁Gasket	-11.3787
▁smell	-11.3788
▁investors	-11.3789
▁division	-11.3789
▁----	-11.379
licate	-11.379
103	-11.3792
▁youtube	-11.3793
▁Mechanical	-11.3796
rik	-11.3798
BEL	-11.3799
▁Confirm	-11.3802
▁Fence	-11.3803
LESS	-11.3804
▁Savings	-11.3804
▁Mitsubishi	-11.3804
▁featuring	-11.3804
▁Buffalo	-11.3804
▁pizza	-11.3805
shield	-11.3805
▁assistant	-11.3806
▁pepper	-11.3806
▁Underwear	-11.3808
▁Thoughts	-11.3808
▁grass	-11.3809
▁union	-11.3809
▁classroom	-11.3809
▁BBQ	-11.381
▁escape	-11.3811
etta	-11.3813
fast	-11.3813
▁Lots	-11.3814
▁cruise	-11.3814
yahoo	-11.3816
5.6	-11.3817
Height	-11.382
者	-11.3823
▁Upgrade	-11.3823
▁Creating	-11.3829
530	-11.3829
DX	-11.383
affe	-11.3833
▁Mixed	-11.3834
▁Warren	-11.3836
▁steam	-11.3836
JUNG	-11.3838
lord	-11.3838
correct	-11.384
may	-11.384
▁til	-11.3842
ਜ	-11.3842
▁Experiment	-11.3842
▁Instructor	-11.3842
▁chief	-11.3843
768	-11.3845
modal	-11.3847
▁ene	-11.3849
▁Hammer	-11.3849
unny	-11.385
▁mouse	-11.3852
▁Prev	-11.3856
▁introduced	-11.3856
▁reform	-11.3856
▁tire	-11.386
3.8	-11.3861
▁Horizon	-11.3861
▁Liberty	-11.3861
▁Donation	-11.3862
ор	-11.3866
Win	-11.3867
def	-11.3868
▁Setting	-11.3871
▁Sho	-11.3872
▁Bruce	-11.3873
▁Customize	-11.3873
▁charged	-11.3874
▁plane	-11.3875
▁publications	-11.3876
▁lens	-11.3876
▁technique	-11.3879
▁zoom	-11.388
▁jewelry	-11.388
▁Equity	-11.388
oxid	-11.3881
Store	-11.3883
Author	-11.3884
merge	-11.3885
write	-11.3885
~~	-11.3885
-2-	-11.3887
▁effectively	-11.3891
▁paste	-11.3893
Mod	-11.3894
▁printing	-11.3898
▁anxiety	-11.3899
▁inspiring	-11.3899
▁Jamaica	-11.3899
▁Wildlife	-11.39
▁relate	-11.39
▁bulb	-11.3901
LOC	-11.3902
PU	-11.3904
▁Judi	-11.3906
▁Tales	-11.3908
LED	-11.3908
▁lg	-11.3909
scale	-11.3909
iah	-11.391
1.9	-11.391
▁£6	-11.3911
看	-11.3918
▁Tha	-11.3918
▁Slovenia	-11.3918
▁flexible	-11.3918
▁crystal	-11.3918
▁HK	-11.3919
▁Scripture	-11.392
▁Lev	-11.3921
uh	-11.3923
2,000	-11.3923
▁Newspaper	-11.3925
ERN	-11.3926
ür	-11.3926
Sea	-11.3927
240	-11.3928
▁Patio	-11.393
▁IBM	-11.393
▁Musical	-11.3932
▁Soap	-11.3932
War	-11.3933
▁Searches	-11.3933
▁confirmed	-11.3934
▁Fran	-11.3934
▁Catch	-11.3936
▁Hoop	-11.3937
器	-11.3937
▁Unfortunately	-11.3937
▁accordance	-11.3937
▁diagram	-11.3937
▁Applied	-11.3938
▁carried	-11.3938
▁Blowjob	-11.3938
▁preferences	-11.3938
▁console	-11.3938
▁Straight	-11.3939
▁Tutor	-11.3941
▁gym	-11.3943
▁Bearings	-11.3944
corp	-11.3947
▁peak	-11.3948
▁Gauge	-11.3953
▁boss	-11.3954
▁trim	-11.3956
ய	-11.3956
▁Lap	-11.3956
▁SHIPPING	-11.3957
▁Feraday	-11.3957
▁agencies	-11.3957
▁Further	-11.3957
American	-11.3957
▁Worldwide	-11.396
▁nav	-11.3961
wait	-11.3965
dex	-11.3965
▁Methods	-11.3972
▁Needle	-11.3974
ੀ	-11.3976
▁ocean	-11.3976
▁toyota	-11.3976
▁brave	-11.3979
input	-11.3981
phan	-11.3982
▁dolor	-11.3983
▁shell	-11.3987
▁Shock	-11.3987
frame	-11.3991
Your	-11.3996
▁Conversion	-11.3997
Review	-11.3999
▁Bot	-11.4
animation	-11.4003
espite	-11.4004
▁Compass	-11.4005
成	-11.4011
▁ordered	-11.4012
10,000	-11.4012
▁catalog	-11.4013
法	-11.4014
▁guidance	-11.4014
▁FRONT	-11.4014
▁processor	-11.4015
white	-11.4015
▁Broker	-11.4017
▁Keyword	-11.4019
▁Gab	-11.402
▁disability	-11.4021
▁Malta	-11.4023
▁Refine	-11.4023
▁Triple	-11.4024
rar	-11.4025
credit	-11.4026
ajax	-11.4028
friendly	-11.4028
▁Dominican	-11.4028
▁Subscriptions	-11.4029
fest	-11.4029
hun	-11.403
ISE	-11.4032
▁enjoying	-11.4032
179	-11.4033
度	-11.4033
▁preparation	-11.4034
▁passenger	-11.4034
▁premier	-11.4034
▁convention	-11.4035
▁Magn	-11.4035
▁Marketplace	-11.4036
▁typ	-11.4036
▁illness	-11.4037
▁Instruction	-11.4037
CLASS	-11.4039
▁INTER	-11.4041
▁invite	-11.4042
clean	-11.4042
▁considering	-11.4043
▁ease	-11.4043
▁define	-11.4044
▁variation	-11.405
dine	-11.4052
Width	-11.4052
ummer	-11.4052
proof	-11.4053
ச	-11.4053
▁contrast	-11.4053
▁Goal	-11.4054
▁dispute	-11.4054
▁ORDER	-11.4055
▁introduce	-11.4059
▁fourth	-11.4061
Du	-11.4061
UF	-11.4062
▁Mist	-11.4064
xml	-11.4065
▁Highland	-11.4068
Form	-11.4068
134	-11.4069
部	-11.4072
ร	-11.4072
▁Hyundai	-11.4072
▁thorough	-11.4072
▁replied	-11.4072
▁Harvard	-11.4072
▁Voucher	-11.4072
▁expenses	-11.4072
▁establish	-11.4073
▁Airlines	-11.4073
256	-11.4074
▁toilet	-11.4074
=”	-11.4079
512	-11.408
MAT	-11.408
▁DEC	-11.4085
де	-11.409
verb	-11.409
▁asian	-11.4091
▁joke	-11.4092
ਪ	-11.4092
▁Confidential	-11.4092
▁Uganda	-11.4092
お	-11.4092
▁£8	-11.4092
▁gap	-11.4092
▁Guillen	-11.4092
▁Gardening	-11.4093
▁preferred	-11.4094
owl	-11.4095
▁Constitution	-11.4095
▁2.4	-11.41
▁generate	-11.41
▁CAP	-11.4101
▁diff	-11.4102
▁slots	-11.4102
building	-11.4103
ور	-11.4103
▁Diana	-11.4104
▁Hex	-11.4104
▁$13	-11.4106
▁Celebration	-11.4111
▁SEARCH	-11.4111
▁Yesterday	-11.4111
▁technician	-11.4111
리	-11.4111
▁Relief	-11.4111
▁Cushion	-11.4111
370	-11.4111
▁guitar	-11.4111
▁telephone	-11.4112
▁Mum	-11.4112
▁Bridal	-11.4112
health	-11.4113
large	-11.4113
▁contained	-11.4114
▁Dirt	-11.4119
See	-11.4119
▁summary	-11.412
410	-11.4122
▁186	-11.4123
▁vegetable	-11.4131
▁hyper	-11.4131
▁nuclear	-11.4131
▁Brooklyn	-11.4131
▁Pizza	-11.4131
▁signature	-11.4132
▁condo	-11.4135
▁$30	-11.4136
Edition	-11.4136
TIVE	-11.4138
illi	-11.4143
▁Effects	-11.4145
vir	-11.4146
▁mainly	-11.4148
chy	-11.4148
▁Stickers	-11.4149
rash	-11.4149
▁stool	-11.415
▁Involved	-11.415
▁ceramic	-11.415
▁fantasy	-11.415
▁Safari	-11.415
security	-11.4151
▁Crop	-11.4151
▁bodies	-11.4152
Plus	-11.4153
▁healing	-11.4153
▁Bedding	-11.4154
rinkle	-11.4154
Enabled	-11.4158
▁Blow	-11.4158
193	-11.416
▁strange	-11.4163
▁fishing	-11.4169
▁Territory	-11.417
▁Written	-11.417
의	-11.417
하	-11.417
▁communicate	-11.417
▁Layout	-11.417
▁capabilities	-11.4171
▁1.4	-11.4172
▁↑	-11.4173
▁recover	-11.4173
▁Bulbs	-11.4176
133	-11.4177
▁heating	-11.4179
▁keyboard	-11.4179
OOT	-11.418
▁Deposit	-11.4182
▁Fee	-11.4183
Exp	-11.4189
LOW	-11.4189
▁Utility	-11.4189
▁Mama	-11.4191
company	-11.4191
▁checking	-11.4191
▁realized	-11.4198
226	-11.4199
▁nearby	-11.4199
▁outstanding	-11.4201
▁Salad	-11.4202
▁Wax	-11.4204
anza	-11.4205
425	-11.4207
▁Dump	-11.4208
▁genuine	-11.4209
▁Lodge	-11.4209
▁transmission	-11.421
▁Puzzle	-11.421
▁STE	-11.421
▁Silicon	-11.421
▁Arthur	-11.4211
osh	-11.4213
7.9	-11.4213
▁TRI	-11.4214
▁Hathi	-11.4215
impl	-11.4217
▁Apartment	-11.4218
▁revision	-11.4221
▁Task	-11.4221
▁Fancy	-11.4224
▁Harbor	-11.4225
▁THAT	-11.4227
▁Newfoundland	-11.4229
▁mechanism	-11.4229
▁BUY	-11.4229
worthy	-11.4229
▁Pun	-11.4229
▁performing	-11.423
▁160	-11.4231
▁Anal	-11.4234
▁Arabic	-11.4237
▁Whole	-11.4238
▁Indie	-11.4239
lop	-11.4244
▁Glasses	-11.4245
▁Rig	-11.4248
▁neighbor	-11.4248
▁Animation	-11.4248
▁Belarus	-11.4248
▁Javascript	-11.4249
▁Bureau	-11.425
▁BEST	-11.4251
JPG	-11.4251
▁Terra	-11.4255
▁sony	-11.4255
▁Pole	-11.4255
4.2	-11.4256
▁Via	-11.426
VR	-11.4265
▁Cry	-11.4265
▁KY	-11.4266
▁turning	-11.4267
950	-11.4268
π	-11.4268
▁Facility	-11.4268
로	-11.4268
¥	-11.4268
Cart	-11.4268
Hi	-11.4269
Nor	-11.427
▁Amanda	-11.4271
▁(46)	-11.4272
description	-11.4275
▁中文	-11.4278
▁Nik	-11.4282
▁MX	-11.4284
▁shaped	-11.4285
Key	-11.4287
IKE	-11.4288
▁appliance	-11.4288
▁convenient	-11.4288
▁neither	-11.4288
▁Horror	-11.4288
▁Albania	-11.4288
iche	-11.4288
toxic	-11.4288
▁+44	-11.4289
▁western	-11.429
▁Disorder	-11.4291
VC	-11.4291
▁Mei	-11.4291
CLAUS	-11.4291
▁Lemon	-11.4292
There	-11.4295
▁2.1	-11.4295
▁typical	-11.4295
211	-11.4298
▁Regard	-11.43
▁Nancy	-11.43
kun	-11.4301
▁kg	-11.4302
▁Isle	-11.4303
▁Strange	-11.4304
▁confident	-11.4306
ੈ	-11.4308
▁Clinton	-11.4308
▁Immigration	-11.4308
▁Melbourne	-11.4308
▁BRO	-11.4311
▁Upgrades	-11.4311
▁affected	-11.4311
▁Moo	-11.4315
ité	-11.4315
▁6:30	-11.4315
film	-11.4322
File	-11.4323
uw	-11.4327
Shirt	-11.4327
▁discussed	-11.4328
plane	-11.4329
▁closet	-11.433
Japan	-11.433
▁Lease	-11.4331
▁(45)	-11.4332
Math	-11.4332
1.8	-11.4333
▁©2020	-11.4333
▁POS	-11.4335
▁interact	-11.4336
▁clearance	-11.4339
▁plea	-11.434
▁Duck	-11.4341
vita	-11.4342
▁assess	-11.4344
person	-11.4345
ற	-11.4348
▁celebration	-11.4348
▁automatic	-11.4348
▁Mattress	-11.4349
169	-11.435
currency	-11.4351
▁scrap	-11.4352
iPo	-11.4352
NIC	-11.4352
▁rush	-11.4356
▁Accent	-11.4359
▁Fisher	-11.436
▁Followers	-11.4366
▁blame	-11.4367
▁Preparation	-11.4368
▁Demand	-11.4369
▁wage	-11.4369
▁correctly	-11.437
▁checked	-11.4371
▁outfit	-11.4373
▁DAY	-11.4373
0.99	-11.4373
only	-11.4378
▁trash	-11.4383
TECH	-11.4385
▁continuous	-11.4388
BibTex	-11.4388
▁LFD	-11.4389
▁crew	-11.4389
▁excess	-11.4389
▁Genesis	-11.439
▁WILL	-11.439
ALS	-11.4391
▁Rp	-11.4392
Play	-11.4393
patient	-11.4395
therapist	-11.4398
▁Cartoon	-11.4398
chet	-11.4401
▁Levi	-11.4405
network	-11.4405
ENG	-11.4407
▁1:00	-11.4407
▁Blvd	-11.4408
▁Together	-11.4408
▁Greeting	-11.4408
▁MINI	-11.4408
parse	-11.441
▁Chapel	-11.4411
variation	-11.4411
▁Spread	-11.4412
URA	-11.4413
dress	-11.4413
4.0	-11.4416
▁日本語	-11.4419
▁Emp	-11.4419
▁integrated	-11.4422
▁elite	-11.4424
▁4.5	-11.4426
▁Boost	-11.4426
ş	-11.4428
▁scenario	-11.4428
▁certification	-11.4428
EAN	-11.4428
▁Cameron	-11.4428
▁neighborhood	-11.4428
RAMINE	-11.4429
▁Interface	-11.4429
▁tested	-11.4431
▁Southwest	-11.4431
▁loop	-11.4432
▁Vie	-11.4439
culture	-11.444
▁Pam	-11.4442
3.9	-11.4443
▁poster	-11.4444
▁Joel	-11.4444
156	-11.4446
ら	-11.4448
▁rot	-11.4448
2019_0031	-11.4448
ੇ	-11.4448
▁Adjustable	-11.4448
▁Rugby	-11.4448
▁choosing	-11.4448
Ru	-11.4448
▁reduced	-11.4449
amba	-11.4451
▁basically	-11.4451
Don	-11.4452
youtube	-11.4452
Auto	-11.4454
▁priority	-11.4458
▁RED	-11.4463
▁LIST	-11.4463
▁formal	-11.4463
esse	-11.4463
0.9	-11.4463
oria	-11.4465
▁Sharing	-11.4466
▁Relevance	-11.4468
▁Vegetable	-11.4468
▁Heaven	-11.4468
▁Gospel	-11.4468
▁analytics	-11.4468
▁legend	-11.447
cru	-11.4471
▁publishing	-11.4473
Set	-11.4473
▁Bryan	-11.4474
002	-11.4474
▁transportation	-11.4474
▁boring	-11.4475
▁Advance	-11.4477
gard	-11.4478
▁GRA	-11.4478
▁Johnny	-11.448
▁Southeast	-11.4482
▁Swan	-11.4485
情	-11.4486
▁Fragrance	-11.4488
▁physician	-11.4488
▁Русский	-11.4488
▁Calculate	-11.4488
▁Expect	-11.4491
▁О	-11.4492
▁arrange	-11.4494
▁prison	-11.4495
Request	-11.4497
▁pitcher	-11.4498
▁Hob	-11.4499
▁MEN	-11.4501
chain	-11.4504
▁Lazio	-11.4509
LIQUID	-11.4509
▁campus	-11.4509
▁Smoke	-11.451
▁Maximum	-11.451
▁verify	-11.4513
href	-11.4515
▁wise	-11.4516
▁pace	-11.4521
firm	-11.4521
▁Dawn	-11.4523
▁blogger	-11.4525
▁afford	-11.4525
196	-11.4526
▁attached	-11.4526
▁citizen	-11.4527
▁expressed	-11.4527
▁NV	-11.4528
§	-11.4529
▁injuries	-11.4529
▁Leggings	-11.4529
oire	-11.4529
▁Population	-11.453
▁Transition	-11.4533
▁developers	-11.4535
HENI	-11.4535
▁quantity	-11.4536
import	-11.454
riot	-11.4541
▁bass	-11.4547
▁PayPal	-11.4549
▁gentle	-11.4549
▁tale	-11.4557
Har	-11.4559
wart	-11.4561
NOW	-11.4561
URS	-11.4562
▁mor	-11.4563
fund	-11.4563
SKY	-11.4564
ಾ	-11.4569
▁Scooter	-11.4569
▁convince	-11.457
▁Lindsay	-11.457
▁specified	-11.4571
▁yeah	-11.4571
108	-11.4571
worm	-11.4572
tube	-11.4573
gam	-11.4574
▁loose	-11.4574
▁Headwear	-11.4575
School	-11.4575
▁Guardian	-11.458
ATIONS	-11.4587
好	-11.4589
ILE	-11.459
▁vacuum	-11.459
onne	-11.459
▁Lesbian	-11.459
▁organized	-11.4592
LOS	-11.4594
▁HL	-11.4595
▁Banner	-11.4596
bp	-11.4597
▁Shri	-11.4597
▁Unique	-11.4599
4.7	-11.46
▁Contra	-11.46
▁Adapt	-11.4602
▁Slow	-11.4602
▁10.0	-11.4604
▁SHA	-11.4605
▁ع	-11.4609
▁ACCESSORIES	-11.461
▁refrigerator	-11.461
♥	-11.461
tactical	-11.4611
▁Heroes	-11.4612
▁Lenses	-11.4612
▁carrier	-11.4613
Air	-11.4615
▁Wright	-11.462
amine	-11.4624
/04/20	-11.4624
▁450	-11.4629
天	-11.463
▁Conservation	-11.4631
▁Mauritius	-11.4631
▁brilliant	-11.4631
▁Bitcoin	-11.4631
▁Ghana	-11.4631
▁Sterling	-11.4631
▁soil	-11.4634
KER	-11.4635
ви	-11.4636
▁controlled	-11.4637
▁(+2	-11.464
▁SAN	-11.4641
▁critic	-11.4644
▁joining	-11.4646
▁Thin	-11.4649
▁Suggest	-11.4651
▁Profit	-11.4651
מ	-11.4651
▁observation	-11.4651
✔	-11.4651
▁Capacity	-11.4651
Email	-11.4656
Check	-11.4659
▁Conv	-11.4661
▁$500	-11.4661
LX	-11.4662
▁china	-11.4663
2.9	-11.4664
▁Shaw	-11.4667
▁epi	-11.4667
▁ப	-11.4667
▁href	-11.4671
コ	-11.4672
▁Contribution	-11.4672
▁Definition	-11.4672
▁Evaluation	-11.4672
▁eligible	-11.4672
▁whirlpool	-11.4672
▁usuario	-11.4672
▁agenda	-11.4673
▁Supplements	-11.4674
▁Directed	-11.4676
▁BACK	-11.4677
QUA	-11.4677
▁Chess	-11.4679
▁reduction	-11.4679
bottom	-11.4679
writing	-11.468
▁frequently	-11.468
▁Д	-11.4685
▁Schu	-11.4685
136	-11.469
▁ABC	-11.469
▁Protocol	-11.4693
▁strategic	-11.4693
CAR	-11.4693
▁purple	-11.4693
▁dual	-11.4694
▁Reality	-11.4697
think	-11.4697
▁scaled	-11.4699
Note	-11.4702
compare	-11.4702
▁Vista	-11.4702
▁Okay	-11.4704
▁Josh	-11.4704
▁Liv	-11.4706
▁Tracking	-11.4707
▁Spell	-11.4708
cla	-11.4708
7.0	-11.4709
▁capable	-11.4709
▁Myth	-11.471
▁researchers	-11.4711
208	-11.4712
620	-11.4712
psych	-11.4712
合	-11.4713
為	-11.4713
Botswana	-11.4713
▁Aluminium	-11.4713
▁anonymous	-11.4713
▁Graph	-11.4714
▁APR	-11.4714
▁modified	-11.4715
▁countertop	-11.4715
▁(43)	-11.4716
▁Pour	-11.4719
Select	-11.4721
▁Era	-11.4722
▁Cad	-11.4724
▁Household	-11.4724
▁***	-11.4729
ische	-11.4729
▁Into	-11.4731
性	-11.4734
א	-11.4734
▁necessarily	-11.4734
▁depression	-11.4734
▁Headphones	-11.4734
▁Trend	-11.4734
▁Leisure	-11.4734
▁android	-11.4738
▁fairly	-11.4739
▁Inch	-11.4745
▁viewed	-11.4745
▁Grab	-11.4745
235	-11.4752
▁CHI	-11.4753
式	-11.4754
▁Deepthroat	-11.4755
▁compliance	-11.4755
▁michael	-11.4755
▁proposal	-11.4755
▁Funeral	-11.4755
▁Packaging	-11.4756
▁Vibrat	-11.476
▁Perth	-11.4762
complete	-11.4764
▁matching	-11.4765
▁Hiring	-11.4767
▁Mold	-11.4772
▁ext	-11.4772
ALI	-11.4775
「	-11.4775
ה	-11.4775
▁Artificial	-11.4775
▁Crazy	-11.4775
▁royal	-11.4776
Input	-11.4777
▁unknown	-11.4778
sound	-11.4778
▁boil	-11.478
▁Vic	-11.4783
▁Mailing	-11.4784
▁pleased	-11.4785
MON	-11.4785
▁Techniques	-11.4786
▁Perry	-11.479
▁Logan	-11.4791
▁controller	-11.4791
▁consideration	-11.4792
Based	-11.4792
ographic	-11.4794
▁breaking	-11.4795
小	-11.4795
icide	-11.4796
▁Attachment	-11.4796
▁Nicole	-11.4796
▁BRAND	-11.4798
agn	-11.4801
▁flying	-11.4804
▁fucking	-11.4805
ь	-11.4806
RAM	-11.4807
▁vital	-11.4809
FEN	-11.4812
」	-11.4817
Click	-11.482
▁Babies	-11.482
elves	-11.482
▁Extract	-11.4822
▁referred	-11.4822
▁Sofa	-11.4827
edge	-11.4827
CHLORP	-11.4829
ARI	-11.4829
580	-11.4829
▁من	-11.483
006	-11.4832
finder	-11.4837
▁challenging	-11.4838
▁consequence	-11.4838
▁participation	-11.4838
▁Occupation	-11.4838
▁improving	-11.4838
1600	-11.4841
▁Kap	-11.4846
▁Pound	-11.4848
▁[2]	-11.485
lé	-11.4855
Term	-11.4857
Kazakhstan	-11.4859
▁Administrative	-11.4859
▁Comparison	-11.4859
▁consumption	-11.4859
▁Proudly	-11.4859
tmpl	-11.486
▁Effective	-11.4862
▁Serving	-11.4863
CET	-11.4865
▁4:00	-11.4867
8.2	-11.4868
▁LOL	-11.4869
▁Though	-11.4871
▁за	-11.4871
▁grill	-11.4874
▁Fern	-11.4878
▁Fellow	-11.4879
▁tattoo	-11.488
▁babies	-11.488
Driver	-11.4883
▁SERVICE	-11.4883
▁Charter	-11.4884
▁Mak	-11.4885
▁cord	-11.4886
▁lifetime	-11.489
World	-11.4891
▁sidebar	-11.4891
▁DON	-11.4891
2003	-11.4891
▁CBS	-11.4892
630	-11.4895
your	-11.4897
▁Evil	-11.4898
▁PCB	-11.49
▁Fame	-11.4901
く	-11.4901
▁Digest	-11.4902
▁tomato	-11.4903
▁expectations	-11.4904
▁honey	-11.4905
570	-11.4906
▁elect	-11.4907
▁Alarm	-11.4907
▁Sew	-11.4907
▁PVC	-11.491
hong	-11.4911
▁Mann	-11.4911
▁Moment	-11.4912
French	-11.4912
▁Ruth	-11.4915
▁clinic	-11.4917
3.7	-11.4918
▁Rural	-11.4918
505	-11.4919
plex	-11.4919
▁Converter	-11.492
要	-11.4922
▁Epi	-11.4922
▁Inquiry	-11.4922
[...]
