<unk>	0
<s>	0
</s>	0
▁de	-3.14705
,	-3.40197
s	-3.43734
.	-3.51052
'	-3.69847
▁la	-3.78787
▁le	-4.01365
▁	-4.07537
▁et	-4.11883
▁l	-4.17486
▁à	-4.2485
▁en	-4.26062
▁d	-4.50633
▁du	-4.60826
▁est	-4.6649
-	-4.73154
e	-4.74936
▁des	-4.76133
▁les	-4.7704
▁il	-5.06611
▁dans	-5.08895
▁un	-5.12034
▁a	-5.17875
▁une	-5.21782
▁au	-5.22852
▁par	-5.24513
▁##	-5.33332
’	-5.3592
▁"	-5.38846
▁pour	-5.41994
▁(	-5.44586
r	-5.45752
▁sur	-5.71255
▁qui	-5.72891
▁son	-5.77008
"	-5.78483
▁se	-5.78758
▁elle	-5.81015
a	-5.81191
▁que	-5.8407
▁avec	-5.84543
)	-5.92191
▁sa	-5.9826
nt	-6.02234
▁s	-6.07288
t	-6.10055
es	-6.13792
▁été	-6.17142
é	-6.22345
un	-6.26426
▁plus	-6.27583
▁sont	-6.30498
y	-6.33877
er	-6.3441
▁:	-6.38519
▁,	-6.40106
▁qu	-6.42202
c	-6.42966
o	-6.43529
n	-6.44558
▁ce	-6.45409
▁aux	-6.45698
est	-6.46332
il	-6.48681
ment	-6.50857
l	-6.51441
en	-6.52643
d	-6.54982
▁comme	-6.58624
une	-6.58717
ant	-6.59381
i	-6.62755
▁ou	-6.65337
▁.	-6.65377
▁ses	-6.65858
▁deux	-6.66199
▁n	-6.66696
▁«	-6.66992
▁c	-6.67866
▁cette	-6.73621
le	-6.74907
▁fait	-6.76653
▁ont	-6.80957
m	-6.85365
▁pas	-6.86182
▁après	-6.86244
▁entre	-6.87371
▁ne	-6.87658
),	-6.88301
",	-6.89314
in	-6.90092
).	-6.96322
▁mais	-6.96855
re	-7.01895
▁sous	-7.02073
g	-7.02616
al	-7.03316
▁»	-7.04274
▁y	-7.0867
u	-7.09215
la	-7.09417
p	-7.09557
▁lors	-7.11359
▁également	-7.12528
ra	-7.13721
▁lui	-7.17566
ent	-7.18369
f	-7.1856
▁première	-7.19982
on	-7.2033
▁où	-7.22547
▁france	-7.22958
▁leur	-7.23647
▁partie	-7.24217
it	-7.25829
▁depuis	-7.26585
▁était	-7.2983
de	-7.30384
ne	-7.30686
ou	-7.31569
an	-7.32205
▁nom	-7.32376
b	-7.32822
▁dont	-7.33451
▁premier	-7.33781
or	-7.33922
".	-7.3422
▁re	-7.34996
▁même	-7.35957
ation	-7.37618
h	-7.38392
▁ainsi	-7.39855
ée	-7.40033
mi	-7.41068
ci	-7.42279
▁in	-7.42562
▁ans	-7.42893
k	-7.43226
w	-7.43822
▁né	-7.44234
▁puis	-7.46602
us	-7.46628
▁mort	-7.46838
lon	-7.47004
▁nord	-7.47065
▁alors	-7.47176
▁trois	-7.4794
▁famille	-7.48445
x	-7.4852
▁saint	-7.48545
au	-7.49042
que	-7.49523
elle	-7.49633
ar	-7.49637
z	-7.50175
ur	-7.51836
▁guerre	-7.5209
▁fin	-7.53565
et	-7.54238
▁sud	-7.54396
▁on	-7.54606
▁biographie	-7.55189
▁plusieurs	-7.55397
▁aussi	-7.56463
na	-7.56659
▁années	-7.57253
v	-7.57359
▁ces	-7.60376
▁t	-7.61633
▁jusqu	-7.61688
▁avant	-7.61847
▁dé	-7.61866
▁région	-7.62153
ait	-7.62164
▁français	-7.62457
▁groupe	-7.64072
▁vers	-7.64418
▁être	-7.64973
is	-7.65164
université	-7.65399
▁ville	-7.66725
à	-7.66734
▁p	-7.67641
▁pendant	-7.6924
th	-7.69267
el	-7.69271
▁pays	-7.70644
ie	-7.70806
▁contre	-7.71083
▁m	-7.71209
te	-7.71459
▁commune	-7.72727
▁co	-7.73083
ia	-7.73677
ri	-7.74986
▁;	-7.75157
▁cours	-7.75369
li	-7.75527
di	-7.75995
▁17	-7.76052
at	-7.76438
▁grand	-7.77588
▁saison	-7.77693
;	-7.7823
▁peut	-7.79692
ch	-7.79949
▁b	-7.81163
me	-7.81273
▁g	-7.82513
ta	-7.82962
ti	-7.8308
▁cha	-7.83407
▁2018	-7.84566
▁située	-7.84975
▁18	-7.84993
▁carrière	-7.85042
▁mo	-7.85089
▁16	-7.85488
▁fois	-7.85615
ul	-7.85779
ma	-7.86166
▁paris	-7.86548
▁ré	-7.86751
▁vie	-7.871
▁film	-7.87747
▁con	-7.88263
ga	-7.88459
▁devient	-7.88483
▁fut	-7.88489
▁autres	-7.88565
▁notamment	-7.88649
▁avoir	-7.89253
ce	-7.89893
ro	-7.89925
▁monde	-7.89987
né	-7.90212
▁place	-7.904
▁membre	-7.904
am	-7.9098
▁tant	-7.9176
eau	-7.92674
▁titre	-7.93692
▁si	-7.93701
▁nouvelle	-7.93834
▁femmes	-7.94226
▁ligne	-7.94656
église	-7.94866
▁partir	-7.94935
▁bien	-7.95949
ouest	-7.96452
▁tour	-7.97009
▁population	-7.97506
ni	-7.97707
▁avait	-7.98017
▁car	-7.98194
ing	-7.9839
les	-7.98897
ique	-7.98907
▁tout	-7.99556
▁situé	-7.99834
um	-8.00039
état	-8.00135
▁politique	-8.00136
▁h	-8.00478
▁département	-8.00872
▁of	-8.01039
age	-8.01229
▁général	-8.01634
▁prix	-8.01777
▁r	-8.02097
ine	-8.02353
▁société	-8.02426
▁suite	-8.02583
▁2	-8.02673
vi	-8.0307
ton	-8.03336
to	-8.04381
aux	-8.04386
▁histoire	-8.04387
▁non	-8.04598
▁début	-8.04709
▁temps	-8.04764
ès	-8.04766
▁».	-8.04811
▁série	-8.06203
da	-8.0627
▁centre	-8.06606
▁the	-8.06723
▁quatre	-8.06769
és	-8.07002
▁états	-8.07082
▁très	-8.07268
▁national	-8.07386
ard	-8.08108
▁k	-8.08235
▁fils	-8.08523
mo	-8.08775
▁tous	-8.08903
ka	-8.09088
man	-8.09582
▁3	-8.09805
▁v	-8.10178
▁j	-8.10435
▁rivière	-8.115
▁sans	-8.11563
autres	-8.11678
▁service	-8.12179
no	-8.12214
▁1	-8.12595
co	-8.12686
▁tard	-8.12838
▁f	-8.12846
▁grande	-8.13305
▁("	-8.13526
lo	-8.13582
▁nouveau	-8.13797
ter	-8.14228
▁père	-8.14349
▁jean	-8.14468
ées	-8.14544
ad	-8.14679
▁peu	-8.14941
▁ensuite	-8.15152
▁nationale	-8.1531
unis	-8.15779
▁leurs	-8.15816
▁pro	-8.16063
go	-8.16128
5	-8.16463
▁15	-8.16541
che	-8.17218
j	-8.17226
bi	-8.17523
▁deuxième	-8.17882
▁lieu	-8.18407
8	-8.18932
if	-8.19108
▁ha	-8.19189
▁é	-8.20387
▁maison	-8.21329
▁part	-8.21332
▁roi	-8.21559
▁française	-8.22729
ir	-8.23196
▁cas	-8.236
ge	-8.23983
son	-8.23991
▁faire	-8.24223
▁nombre	-8.25846
▁4	-8.26151
ot	-8.26238
▁parti	-8.26507
▁trouve	-8.26622
▁base	-8.26647
ion	-8.27875
▁moins	-8.28654
▁2005	-8.28848
ck	-8.28957
▁localité	-8.29506
▁pi	-8.29998
:	-8.30071
▁chef	-8.30465
▁i	-8.30479
7	-8.30769
▁soit	-8.31788
▁président	-8.32073
ac	-8.32107
ry	-8.32417
▁nommé	-8.32719
té	-8.32835
▁site	-8.32886
▁w	-8.33
▁née	-8.33149
▁membres	-8.33779
▁ils	-8.33995
▁liste	-8.34421
ale	-8.34434
▁construction	-8.34516
école	-8.35135
3	-8.35418
do	-8.35521
▁fille	-8.35533
▁mar	-8.35548
▁compte	-8.35567
▁durant	-8.35677
▁new	-8.35789
▁encore	-8.35882
iste	-8.35911
▁pa	-8.35915
")	-8.36287
aire	-8.3632
be	-8.36667
ité	-8.36868
▁près	-8.37224
bo	-8.37631
▁john	-8.37745
lé	-8.38012
dé	-8.38167
ca	-8.38237
ng	-8.38519
▁pierre	-8.38554
▁mi	-8.38786
être	-8.38788
▁dernier	-8.39014
▁celle	-8.39136
▁femme	-8.39242
va	-8.39508
▁(19	-8.39553
eur	-8.39606
▁vi	-8.39695
▁mondiale	-8.40003
île	-8.4002
ex	-8.40162
▁na	-8.40207
ille	-8.40387
▁américain	-8.40393
▁historique	-8.40517
▁gouvernement	-8.40693
ho	-8.41092
▁projet	-8.41286
▁forme	-8.41321
ke	-8.41368
▁espèce	-8.41698
▁environ	-8.41824
▁date	-8.41886
▁celui	-8.4193
▁an	-8.42131
▁rôle	-8.42132
▁mois	-8.42328
art	-8.42672
ement	-8.4289
équipe	-8.42908
▁po	-8.43021
▁corps	-8.43192
▁autre	-8.43382
▁va	-8.43495
st	-8.43612
▁2017	-8.43732
origine	-8.438
▁long	-8.43874
▁royaume	-8.43948
▁travail	-8.44059
histoire	-8.44068
ic	-8.44107
sse	-8.44165
▁formation	-8.44477
▁ma	-8.44717
▁musique	-8.44724
▁chez	-8.45519
▁e	-8.4597
▁club	-8.46019
▁sein	-8.46158
con	-8.46435
▁système	-8.46824
▁période	-8.47053
▁enfants	-8.4724
▁prend	-8.47256
aient	-8.47325
nord	-8.47532
du	-8.47533
ve	-8.47691
/	-8.47725
able	-8.47734
▁ba	-8.47944
▁plan	-8.47949
▁remporte	-8.48114
▁sorti	-8.48162
▁championnat	-8.48173
▁5	-8.4823
▁réalisé	-8.48256
▁sol	-8.48284
as	-8.48314
▁force	-8.48433
▁and	-8.48471
▁année	-8.48913
▁conseil	-8.48928
▁eu	-8.48946
▁quelques	-8.49062
ayant	-8.49291
▁bo	-8.49528
▁recensement	-8.49716
▁seconde	-8.49723
ré	-8.50028
▁%	-8.50282
▁ar	-8.50317
ko	-8.50343
ier	-8.50343
▁lac	-8.50433
▁présente	-8.5048
br	-8.50689
▁cependant	-8.50801
▁recherche	-8.51519
armée	-8.51613
▁personnes	-8.51753
▁al	-8.51862
pa	-8.51899
▁cet	-8.51921
mb	-8.51926
ue	-8.52
▁marie	-8.5205
im	-8.52116
tu	-8.52458
▁château	-8.52516
▁10	-8.52768
isme	-8.5278
▁village	-8.53022
▁professeur	-8.53099
▁di	-8.53297
▁per	-8.53341
▁écrit	-8.53691
2	-8.53776
▁face	-8.53784
the	-8.5383
▁république	-8.53849
▁droit	-8.53967
▁nombreux	-8.5415
ver	-8.54246
▁participe	-8.54442
-19	-8.54459
▁13	-8.54688
▁travaux	-8.54697
▁station	-8.54844
▁publié	-8.55014
1	-8.55015
année	-8.55132
ph	-8.55171
▁2014	-8.5538
▁tel	-8.55448
▁ga	-8.55484
▁ii	-8.55646
ise	-8.55711
ron	-8.55788
▁connu	-8.55856
▁élections	-8.55985
po	-8.56094
▁ni	-8.5611
▁jour	-8.56139
▁études	-8.56308
ba	-8.56333
▁he	-8.56446
▁-	-8.56707
▁12	-8.57094
aï	-8.57096
extrême	-8.57657
▁étaient	-8.57763
gi	-8.57796
ut	-8.57915
▁poste	-8.58097
▁bar	-8.58129
▁cinq	-8.58383
▁genre	-8.58414
tre	-8.58466
▁commence	-8.58571
▁york	-8.58611
▁chanson	-8.58962
▁international	-8.59215
▁pré	-8.59609
▁épouse	-8.5992
▁russe	-8.59931
ol	-8.60045
▁mer	-8.6013
om	-8.60131
▁britannique	-8.60287
▁cameroun	-8.60295
á	-8.60462
▁développement	-8.60576
ina	-8.60658
ngc	-8.60711
▁finale	-8.60868
afin	-8.61046
▁reste	-8.61262
ha	-8.61282
▁bi	-8.61303
▁canton	-8.6146
gu	-8.62045
▁6	-8.62063
ll	-8.62721
▁mère	-8.63282
▁van	-8.63578
▁ro	-8.63867
id	-8.64043
tra	-8.64044
▁porte	-8.64167
▁2016	-8.64313
▁z	-8.64369
4	-8.64463
▁charles	-8.64627
▁ra	-8.6473
▁ka	-8.64901
▁jeux	-8.64918
▁ministre	-8.64943
▁st	-8.65116
▁phare	-8.65154
▁raf	-8.65537
▁rue	-8.65622
▁col	-8.65691
▁coupe	-8.65745
lt	-8.65867
ff	-8.66026
▁point	-8.66153
▁catholique	-8.66168
der	-8.66414
▁toujours	-8.66421
land	-8.66474
os	-8.66612
▁public	-8.6684
min	-8.66948
▁bois	-8.67341
▁troisième	-8.674
qui	-8.67529
ins	-8.67547
amp	-8.67735
▁rencontre	-8.67767
▁me	-8.67882
▁match	-8.68018
▁port	-8.68174
ki	-8.68192
▁ko	-8.68744
▁ta	-8.68791
▁14	-8.68856
▁militaire	-8.68881
▁habitants	-8.69148
od	-8.69174
▁raison	-8.69196
▁2011	-8.69339
ive	-8.69484
tte	-8.69632
ère	-8.70169
▁cour	-8.70231
▁description	-8.70656
pi	-8.70702
▁homme	-8.70705
lu	-8.70862
▁création	-8.71012
za	-8.71033
qu	-8.71074
▁or	-8.71333
▁loi	-8.71364
▁o	-8.71394
ag	-8.71532
▁vol	-8.71727
pe	-8.71765
▁zone	-8.71928
▁communauté	-8.71996
▁direction	-8.72006
▁louis	-8.72035
▁to	-8.72044
▁fer	-8.72156
▁fi	-8.72169
▁obtient	-8.72345
agit	-8.72521
chi	-8.72557
▁nombreuses	-8.72674
▁sch	-8.72752
▁production	-8.7297
mé	-8.72989
▁proximité	-8.73013
▁étant	-8.73024
tion	-8.73049
▁toutes	-8.7321
▁permet	-8.73477
▁vo	-8.73747
▁québec	-8.73758
▁x	-8.73796
mer	-8.73814
sa	-8.73991
9	-8.7403
▁gra	-8.7404
▁reçu	-8.74041
ière	-8.7411
ct	-8.74163
ateur	-8.74613
per	-8.74846
▁mis	-8.74971
ja	-8.75158
▁gu	-8.75332
è	-8.75357
ville	-8.75368
ov	-8.75384
▁livre	-8.75465
hi	-8.75754
▁rend	-8.7594
▁construit	-8.75953
hui	-8.7606
▁donc	-8.76087
▁)	-8.76196
▁tournoi	-8.7648
eux	-8.76485
▁go	-8.76852
▁dernière	-8.76895
▁programme	-8.76896
▁2019	-8.76952
▁rapport	-8.76982
vant	-8.77116
▁donne	-8.77332
époque	-8.77661
▁mal	-8.77715
▁laquelle	-8.77904
▁roman	-8.784
▁cor	-8.78747
rie	-8.789
▁mise	-8.78914
▁tête	-8.79109
▁9	-8.79159
vo	-8.79349
▁cela	-8.79378
▁pe	-8.79409
ance	-8.79414
▁mesure	-8.7947
▁bataille	-8.79706
▁formula	-8.79708
▁ex	-8.79835
ab	-8.7986
▁gare	-8.79887
▁but	-8.80126
mp	-8.80378
io	-8.80416
▁travaille	-8.80456
▁fa	-8.80597
âge	-8.8062
▁classe	-8.80672
▁meurt	-8.80711
▁frontière	-8.80824
▁mariage	-8.80858
▁six	-8.81119
ang	-8.81149
6	-8.8115
▁élu	-8.81324
▁hommes	-8.81363
em	-8.81472
▁do	-8.8155
▁directeur	-8.81573
▁américaine	-8.81582
▁ch	-8.81669
institut	-8.81705
&	-8.81737
▁hu	-8.81776
▁2015	-8.81867
▁seul	-8.81924
▁7	-8.81941
ig	-8.82079
▁fonction	-8.82223
▁jeune	-8.82275
▁be	-8.82393
▁comté	-8.82466
▁paul	-8.8267
venir	-8.8284
▁millions	-8.82892
▁lorsque	-8.83162
▁joue	-8.8332
▁pont	-8.83344
ux	-8.83719
▁ja	-8.83741
▁division	-8.838
▁pouvoir	-8.83804
▁doit	-8.83878
▁mont	-8.83898
nes	-8.83906
▁rejoint	-8.84176
▁ho	-8.84759
▁retour	-8.8488
▁réseau	-8.84888
▁el	-8.85057
▁demande	-8.85096
▁musée	-8.85367
▁certains	-8.8542
▁équipe	-8.85666
ner	-8.85822
▁niveau	-8.86043
▁toute	-8.86076
▁cadre	-8.861
▁comité	-8.86114
isation	-8.86223
▁côté	-8.86473
▁domaine	-8.86476
▁28	-8.86589
▁passe	-8.86619
▁ben	-8.86631
▁route	-8.86705
▁gi	-8.86754
abord	-8.86761
gra	-8.86789
▁succès	-8.86879
▁no	-8.86939
ak	-8.87032
▁2012	-8.87279
▁&	-8.87461
use	-8.87486
▁2013	-8.8768
▁jeu	-8.87681
▁points	-8.88008
▁mon	-8.88074
ais	-8.88165
▁20	-8.88218
▁siège	-8.88346
▁exemple	-8.88562
▁pu	-8.88568
ed	-8.88724
ey	-8.88795
▁souvent	-8.88861
ront	-8.88976
si	-8.88995
▁su	-8.89194
▁vitesse	-8.89261
▁petit	-8.89266
▁sera	-8.8943
mar	-8.89441
ade	-8.89447
▁man	-8.89575
▁décide	-8.89658
uni	-8.89811
▁comprend	-8.89967
▁culture	-8.90312
▁jours	-8.90436
▁(18	-8.90516
▁principalement	-8.90582
op	-8.90602
▁bâtiment	-8.90617
gh	-8.90819
par	-8.90944
gue	-8.91199
▁reçoit	-8.9128
▁créé	-8.91482
▁église	-8.91572
▁londres	-8.9177
▁met	-8.91843
▁type	-8.91894
val	-8.91981
▁tr	-8.92208
▁octobre	-8.9228
▁rouge	-8.9228
vers	-8.92292
▁ri	-8.92556
gé	-8.92563
▁mouvement	-8.92768
▁anglais	-8.93381
▁robert	-8.93777
▁mars	-8.93796
ure	-8.93852
▁11	-8.93856
éri	-8.93867
née	-8.94151
▁bal	-8.94169
hu	-8.94483
vaient	-8.94736
▁ca	-8.94828
▁val	-8.95034
▁album	-8.95301
▁peuvent	-8.9547
mon	-8.95504
euse	-8.95551
zi	-8.95773
up	-8.95856
nd	-8.96073
bas	-8.96127
cu	-8.9621
▁particulier	-8.96312
▁style	-8.96313
▁internationale	-8.96318
berg	-8.96438
▁contrôle	-8.96743
ence	-8.96781
▁compagnie	-8.96784
andis	-8.96873
▁effet	-8.97014
sh	-8.97051
ordre	-8.97238
▁inter	-8.97665
même	-8.9769
▁classement	-8.9779
▁petite	-8.98002
▁allemand	-8.98107
▁sciences	-8.98193
ai	-8.98259
ice	-8.98427
▁féminin	-8.98631
▁travers	-8.9867
ev	-8.98697
▁premiers	-8.9875
▁devenu	-8.98776
▁activités	-8.98944
▁comte	-8.98951
▁li	-8.99196
▁composé	-8.99354
▁journaliste	-8.99446
nne	-8.99469
vin	-8.99654
▁seule	-8.99662
▁vit	-8.9974
▁scène	-8.99809
▁milieu	-8.99818
▁cause	-8.99831
▁équipes	-8.99962
urs	-9.00001
▁cimetière	-9.0026
▁frère	-9.00518
ty	-9.0059
▁terme	-9.00737
▁propre	-9.00739
car	-9.0077
ils	-9.00772
ger	-9.01015
▁utilisé	-9.01026
out	-9.01043
▁ver	-9.01108
▁territoire	-9.01191
▁ci	-9.01287
▁so	-9.01329
tt	-9.01799
près	-9.01807
fi	-9.01845
ud	-9.02057
▁côte	-9.02187
bre	-9.022
▁2010	-9.02241
▁signe	-9.02277
▁haut	-9.02395
▁œuvres	-9.02458
▁déjà	-9.02523
▁défense	-9.02609
▁royal	-9.02869
▁aurait	-9.02959
▁sou	-9.03063
èrent	-9.03094
▁version	-9.03098
▁siècle	-9.03123
▁journal	-9.03243
▁mé	-9.03257
▁commission	-9.03445
▁font	-9.03655
▁piste	-9.03717
aide	-9.03912
▁dix	-9.03994
▁joueur	-9.04103
▁principal	-9.04214
den	-9.04575
ette	-9.04755
ange	-9.04867
association	-9.0504
▁mari	-9.05087
▁8	-9.0517
▁aujourd	-9.05208
ly	-9.05312
▁sort	-9.05331
ich	-9.05658
▁william	-9.05698
▁distribution	-9.05781
▁bas	-9.05904
autre	-9.05916
▁espèces	-9.05944
ien	-9.05946
elles	-9.06124
▁beaucoup	-9.06253
▁situation	-9.06253
▁2009	-9.06265
lie	-9.06319
▁évêque	-9.06322
▁()	-9.06526
ide	-9.06609
▁vue	-9.06652
▁grâce	-9.06729
▁contrat	-9.06729
▁wa	-9.06783
▁relations	-9.06918
cha	-9.07016
▁min	-9.07176
▁berlin	-9.07244
00	-9.07544
▁te	-9.07666
lin	-9.07717
été	-9.07757
▁bon	-9.07784
▁fort	-9.07814
raient	-9.07838
ya	-9.07948
▁ceux	-9.0807
▁cal	-9.08117
▁jardin	-9.08171
empire	-9.08171
com	-9.08266
▁fr	-9.08279
▁terre	-9.08313
▁voie	-9.08315
▁chambre	-9.08328
▁san	-9.08362
▁2008	-9.0869
▁football	-9.08719
▁dénombré	-9.08911
▁mayo	-9.08912
▁ru	-9.0893
europe	-9.08944
▁for	-9.08966
ler	-9.09084
▁sc	-9.09157
▁lutte	-9.09203
▁ancien	-9.09268
▁appelé	-9.09425
ist	-9.09549
mont	-9.09614
▁her	-9.09822
▁rive	-9.09916
▁ministère	-9.10127
▁thomas	-9.10127
gr	-9.10195
▁prince	-9.10218
union	-9.10439
▁province	-9.10532
▁moment	-9.10658
▁mat	-9.10671
▁lequel	-9.10817
▁publie	-9.11024
▁trans	-9.11043
ong	-9.11088
▁théâtre	-9.11121
gt	-9.11163
▁compétition	-9.11492
académie	-9.1162
▁2007	-9.11636
▁2000	-9.11654
▁chine	-9.11724
▁ju	-9.1174
après	-9.11786
▁référence	-9.12008
▁haute	-9.12016
cl	-9.12016
▁septembre	-9.12122
ten	-9.12182
▁présent	-9.1227
í	-9.1241
▁total	-9.12411
ez	-9.12417
▁sept	-9.1242
▁ti	-9.1257
▁phase	-9.12628
ont	-9.12689
▁cap	-9.12722
▁quand	-9.12793
▁canada	-9.12876
▁suivant	-9.13006
▁ad	-9.13108
▁campagne	-9.13138
▁suisse	-9.13144
he	-9.13172
tic	-9.13311
▁–	-9.1365
▁jeunesse	-9.13708
▁position	-9.1384
▁art	-9.13882
ham	-9.13893
gen	-9.14043
▁françois	-9.14112
ts	-9.14211
end	-9.14227
and	-9.14328
oc	-9.14547
▁camp	-9.14574
don	-9.14626
fa	-9.14629
▁santé	-9.1472
ay	-9.14825
sion	-9.14834
▁finalement	-9.14939
ché	-9.14958
ienne	-9.14988
ian	-9.15046
▁publique	-9.15209
▁certaines	-9.15325
ap	-9.15385
▁mission	-9.15425
▁annonce	-9.15496
▁mathématiques	-9.15508
ru	-9.15583
▁peintre	-9.15752
▁sp	-9.15797
istes	-9.15828
▁jeunes	-9.1591
▁rome	-9.15934
▁dit	-9.1599
▁produit	-9.1601
▁originaire	-9.16236
▁donné	-9.1625
▁marque	-9.16408
sur	-9.16478
her	-9.16552
▁second	-9.16723
▁ligue	-9.168
▁mai	-9.16966
je	-9.17212
▁atteint	-9.17292
▁mètres	-9.17305
▁th	-9.17385
isé	-9.17392
port	-9.17608
ire	-9.17667
▁privée	-9.17724
▁gr	-9.17777
▁combat	-9.17866
▁découverte	-9.17872
▁termine	-9.17971
▁figure	-9.1837
▁garde	-9.18441
▁ab	-9.18577
▁br	-9.18609
ip	-9.18669
▁suivante	-9.18779
organisation	-9.18858
ines	-9.18869
▁connue	-9.18924
q	-9.19146
▁joseph	-9.19193
ji	-9.19616
▁œuvre	-9.19689
ante	-9.19755
▁législatives	-9.19763
ana	-9.19934
▁règne	-9.1998
▁1970	-9.19985
▁hi	-9.20013
ste	-9.20104
▁critique	-9.20118
▁air	-9.20297
▁divers	-9.20314
ari	-9.20315
▁festival	-9.20526
▁2021	-9.20533
lier	-9.20612
wa	-9.20754
▁pan	-9.20901
iques	-9.20922
▁régionales	-9.21065
▁centrale	-9.21105
▁manière	-9.21112
▁technique	-9.21247
▁différents	-9.21447
▁gar	-9.21536
▁novembre	-9.21628
▁radar	-9.21643
▁olympiques	-9.21717
vé	-9.2182
▁numérique	-9.2182
▁seulement	-9.21851
ica	-9.22002
ze	-9.22053
tri	-9.22096
fab	-9.221
oli	-9.22101
issant	-9.22113
angleterre	-9.22187
▁telle	-9.22267
▁2020	-9.2254
ley	-9.22591
]	-9.22742
▁populaire	-9.22744
▁mu	-9.22784
rent	-9.22931
▁pri	-9.23018
eurs	-9.23102
▁large	-9.23148
▁voyage	-9.2329
▁surtout	-9.23306
▁obtenu	-9.23366
▁chaîne	-9.23424
▁juin	-9.23462
▁anne	-9.23475
▁acteur	-9.23763
▁longue	-9.23841
entreprise	-9.23893
▁différentes	-9.23942
cr	-9.23946
20	-9.24169
▁2006	-9.24286
▁lorsqu	-9.24294
▁von	-9.2432
ö	-9.24437
▁comptait	-9.24455
ny	-9.24472
ori	-9.24549
▁sécurité	-9.24607
▁bou	-9.24671
fl	-9.24701
▁blanc	-9.24724
▁vidéo	-9.24728
ven	-9.24742
des	-9.24806
▁maître	-9.24991
▁course	-9.25012
▁palais	-9.25016
▁radio	-9.25227
▁structure	-9.25258
▁fo	-9.25397
▁député	-9.25412
▁langue	-9.25592
nh	-9.25639
▁étudie	-9.25736
▁personnel	-9.25783
▁central	-9.25892
▁catégorie	-9.25914
tan	-9.25926
entrée	-9.26008
▁créée	-9.26063
▁théorie	-9.26161
▁commencé	-9.26162
▁droits	-9.26221
afrique	-9.26237
▁(20	-9.26281
▁rou	-9.26281
pp	-9.26322
▁autour	-9.26509
cy	-9.26621
▁courte	-9.26728
▁déclare	-9.26743
▁géographie	-9.26743
mettre	-9.26933
▁généralement	-9.26943
idae	-9.26945
ran	-9.27029
▁tri	-9.27035
▁elles	-9.2724
ek	-9.27511
▁avril	-9.27572
▁am	-9.27643
éra	-9.27738
▁toutefois	-9.27916
▁1990	-9.2792
ois	-9.27992
▁quitte	-9.28123
auteur	-9.28181
0	-9.28184
entre	-9.28216
ix	-9.28305
jean	-9.28395
ons	-9.28419
tro	-9.28534
▁james	-9.28634
▁vingt	-9.28728
▁plantes	-9.28771
▁je	-9.29125
▁2002	-9.29145
iv	-9.29487
▁sé	-9.29559
▁médaille	-9.2956
▁sortie	-9.297
▁russie	-9.29702
▁super	-9.2972
▁nouvelles	-9.29839
était	-9.29843
▁fil	-9.2986
▁comp	-9.29869
▁[	-9.2991
▁district	-9.29962
▁données	-9.30182
▁télévision	-9.30305
▁malgré	-9.30315
▁george	-9.30501
ow	-9.30515
▁courant	-9.30795
▁pape	-9.30798
▁tableau	-9.30869
rait	-9.30898
▁2004	-9.30925
ign	-9.30963
ensemble	-9.31068
▁religion	-9.31102
▁bu	-9.31116
▁europe	-9.31165
▁semble	-9.31521
▁libre	-9.3154
ore	-9.31676
50	-9.31682
ens	-9.31956
▁tu	-9.32068
▁com	-9.32087
▁cro	-9.32223
▁fondation	-9.32226
ster	-9.3249
▁champ	-9.32554
ah	-9.32608
▁24	-9.32619
ancien	-9.32727
▁marché	-9.32783
tes	-9.32876
▁(«	-9.32947
▁feu	-9.33112
▁30	-9.33121
▁parlement	-9.33213
ber	-9.3323
▁prague	-9.33372
tor	-9.33453
iz	-9.33461
zo	-9.33547
intérieur	-9.33567
lement	-9.33579
▁revue	-9.33653
▁visite	-9.33655
▁principale	-9.33683
▁construite	-9.33754
ski	-9.33786
▁ensemble	-9.33834
gan	-9.33856
objet	-9.33944
▁italien	-9.3398
▁caractéristique	-9.34006
▁fédération	-9.34008
ach	-9.34071
▁pé	-9.34153
▁km	-9.3437
▁jo	-9.34404
▁féminine	-9.34418
pro	-9.34429
tur	-9.34445
▁don	-9.34445
▁pris	-9.34569
▁politiques	-9.34596
▁""	-9.34634
▁parc	-9.34773
▁section	-9.34819
10	-9.34851
album	-9.34855
homme	-9.34859
non	-9.34872
▁marine	-9.34975
▁soutien	-9.35034
▁huit	-9.35166
▁henri	-9.35182
▁martin	-9.35216
â	-9.35232
▁école	-9.35246
▁magazine	-9.35258
▁juillet	-9.35259
▁navire	-9.35292
▁allemagne	-9.35373
lan	-9.35549
▁char	-9.35792
▁da	-9.35838
▁fond	-9.35857
▁plupart	-9.35895
▁possible	-9.35895
▁jamais	-9.35917
▁lê	-9.35936
ble	-9.35954
let	-9.3596
az	-9.36045
sch	-9.36089
▁mor	-9.36089
▁anti	-9.36124
nie	-9.36341
▁ouvert	-9.36402
argent	-9.36449
aud	-9.36481
▁allemande	-9.36533
▁bord	-9.3655
▁décrit	-9.36589
environ	-9.36796
▁all	-9.36822
bus	-9.3685
▁sœur	-9.36859
▁mag	-9.3686
ture	-9.36872
ane	-9.36897
▁arts	-9.37175
▁présence	-9.37182
▁double	-9.37183
lis	-9.37406
cher	-9.37446
▁important	-9.37531
▁historiques	-9.37634
▁ke	-9.37845
dia	-9.37888
▁rapidement	-9.37898
▁pratique	-9.37952
▁can	-9.38052
action	-9.38208
▁bande	-9.38258
▁har	-9.38262
▁joué	-9.38321
▁voir	-9.38357
▁nommée	-9.38412
av	-9.38444
▁troupes	-9.38458
-20	-9.3848
▁congrès	-9.38485
▁terrain	-9.38488
▁front	-9.38528
▁100	-9.38596
▁david	-9.38602
lle	-9.38799
▁rang	-9.3884
▁chemin	-9.38977
▁em	-9.39121
▁lycée	-9.39143
▁gauche	-9.39143
spect	-9.39158
▁2018.	-9.39331
ations	-9.39385
▁mode	-9.39473
▁sub	-9.39584
▁parents	-9.39589
▁serait	-9.39608
▁contexte	-9.39805
▁1960	-9.39811
su	-9.39866
12	-9.39872
▁presse	-9.39945
▁parfois	-9.39958
▁(17	-9.40049
nce	-9.40221
▁professionnelle	-9.40255
▁jacques	-9.40297
▁célèbre	-9.40471
▁responsable	-9.40471
▁limite	-9.40478
▁montréal	-9.40493
▁représentant	-9.40526
▁voit	-9.4059
ium	-9.40621
▁galaxie	-9.4068
▁état	-9.40701
lla	-9.40765
▁économique	-9.40798
ici	-9.41107
▁ammotrech	-9.41143
▁tchad	-9.41162
▁continue	-9.41175
sé	-9.41228
▁pen	-9.4128
▁nations	-9.4131
ob	-9.41505
aires	-9.41572
▁victoire	-9.41668
▁men	-9.41691
▁ros	-9.41696
dy	-9.41722
▁mou	-9.41816
▁50	-9.41888
ani	-9.42121
har	-9.42147
viennent	-9.42172
tique	-9.42186
▁mary	-9.42411
▁article	-9.42453
▁temple	-9.42498
eu	-9.42721
▁tir	-9.42746
▁écrite	-9.42762
ok	-9.42792
tal	-9.42818
▁heures	-9.42848
tré	-9.43126
▁vice	-9.43142
ott	-9.43145
▁angleterre	-9.4318
▁soviétique	-9.43183
▁janvier	-9.43186
▁montagne	-9.4319
▁quatrième	-9.43271
▁moyenne	-9.43301
»	-9.43306
tant	-9.4342
▁suit	-9.43488
▁vis	-9.435
▁existe	-9.43572
▁simple	-9.43722
▁salle	-9.4379
▁studio	-9.43873
▁organisé	-9.43909
all	-9.44012
▁baron	-9.44135
▁charge	-9.44186
▁britanniques	-9.44188
▁quartier	-9.44212
▁naît	-9.44281
occasion	-9.44281
▁époque	-9.44339
tz	-9.44459
▁cinéma	-9.44557
ker	-9.44592
vis	-9.44777
tient	-9.4481
nant	-9.44845
▁retraite	-9.44867
▁commun	-9.44891
▁diocèse	-9.44919
▁premières	-9.44993
ns	-9.45138
erie	-9.45168
▁navires	-9.4523
▁développé	-9.45267
▁possède	-9.45267
▁dynastie	-9.45267
mann	-9.4527
▁2003	-9.45281
15	-9.45297
▁groupes	-9.45389
▁code	-9.45401
▁personne	-9.45481
-1	-9.45487
shi	-9.45491
▁moyen	-9.4552
▁décembre	-9.45535
▁ancienne	-9.45663
▁bâtiments	-9.45775
ub	-9.45775
▁chargé	-9.45933
cho	-9.45938
▁collège	-9.45971
abbaye	-9.45971
▁meilleur	-9.46007
▁chapelle	-9.46125
bl	-9.46188
▁juge	-9.46211
ologie	-9.46225
▁post	-9.46267
▁reprises	-9.46298
bu	-9.46351
ient	-9.46407
▁valeur	-9.46413
▁montre	-9.46423
édition	-9.4644
ini	-9.46622
men	-9.46702
ô	-9.46715
din	-9.46748
▁ber	-9.46748
atif	-9.46761
alité	-9.46874
▁passé	-9.46909
▁lieux	-9.46918
net	-9.47023
▁gri	-9.47105
famille	-9.47154
▁supérieure	-9.47215
▁che	-9.47219
▁secrétaire	-9.47395
▁main	-9.47397
▁remplacé	-9.47508
▁hôtel	-9.47579
▁000	-9.47668
enseignement	-9.47739
▁chant	-9.47739
▁enfin	-9.47763
lia	-9.47769
œuvre	-9.47866
▁inclu	-9.48159
ite	-9.482
▁tombe	-9.4829
ó	-9.48442
▁suivi	-9.48444
mat	-9.48578
▁champion	-9.48588
▁naturelle	-9.4859
▁science	-9.48597
empereur	-9.48614
cc	-9.4863
ball	-9.48671
š	-9.48747
ans	-9.48774
han	-9.48793
▁bibliothèque	-9.48839
▁gestion	-9.48839
▁aérienne	-9.48949
engage	-9.49004
▁invité	-9.49017
log	-9.49075
pu	-9.49083
▁recherches	-9.49115
▁générale	-9.49132
▁ram	-9.49133
▁mur	-9.49234
ec	-9.49245
▁propose	-9.49254
▁retrouve	-9.49317
▁19	-9.49323
▁services	-9.49424
cor	-9.4949
▁sens	-9.49493
▁littéraire	-9.49569
▁rugby	-9.49569
air	-9.49684
▁prendre	-9.49826
én	-9.49837
iss	-9.49902
by	-9.49962
▁ami	-9.5002
we	-9.50072
▁certain	-9.50104
ali	-9.50112
fu	-9.50129
▁sélection	-9.50208
▁surface	-9.50304
▁importante	-9.50306
▁chinois	-9.50362
▁départ	-9.5038
ves	-9.50725
orient	-9.5074
yn	-9.50779
orchestre	-9.50847
honneur	-9.50851
▁modèle	-9.50868
▁scientifique	-9.50869
hôtel	-9.50917
dessus	-9.50945
ène	-9.50953
19	-9.50973
▁livres	-9.50976
▁nigeria	-9.51055
▁communes	-9.51132
▁couple	-9.51281
▁hauteur	-9.51313
iser	-9.51345
▁représente	-9.51463
ano	-9.51464
chari	-9.51603
administration	-9.51611
▁sainte	-9.51617
▁constitue	-9.51629
▁composition	-9.51792
▁1999	-9.51796
▁1980	-9.51797
kin	-9.5182
▁court	-9.51828
▁fu	-9.51892
▁maintenant	-9.51912
fer	-9.51961
▁diffusée	-9.52055
▁outre	-9.52125
rou	-9.52206
▁accord	-9.52214
itié	-9.52405
▁source	-9.52413
▁u	-9.52423
▁red	-9.52536
architecte	-9.52543
▁doctorat	-9.52543
▁numéro	-9.52543
▁reprend	-9.52543
▁artistique	-9.52547
▁celles	-9.5269
assemblée	-9.52708
mor	-9.52744
▁pilote	-9.52745
so	-9.52748
▁2001	-9.52848
▁vote	-9.53047
▁dispose	-9.53074
ole	-9.53169
▁unique	-9.5322
▁train	-9.5324
▁civile	-9.53269
▁bureau	-9.53274
italie	-9.53298
▁protection	-9.533
▁proche	-9.53302
▁chevaux	-9.53303
▁réalisateur	-9.53303
▁débuts	-9.53332
▁furent	-9.53334
14	-9.53393
▁édition	-9.53401
▁affirme	-9.53417
▁royale	-9.53489
ind	-9.53561
kov	-9.53599
▁traité	-9.53601
▁morte	-9.53678
▁terres	-9.53732
ave	-9.53767
ables	-9.53774
▁publiée	-9.53844
▁déroule	-9.53913
allemagne	-9.53925
▁occupe	-9.53983
▁conçu	-9.54064
▁concours	-9.54064
-18	-9.54074
▁probablement	-9.54088
▁faisant	-9.54097
▁1998	-9.54227
▁perd	-9.54291
hé	-9.54296
▁association	-9.54334
▁attaque	-9.54343
▁annoncé	-9.54413
60	-9.54439
ancienne	-9.54452
▁dirige	-9.54482
ef	-9.54545
▁sal	-9.54695
▁distance	-9.54772
▁ed	-9.54971
▁néerlandais	-9.55103
%	-9.55113
▁bel	-9.55159
▁chi	-9.55232
▁grands	-9.55248
quel	-9.554
éducation	-9.55484
tel	-9.55507
▁remporté	-9.55608
▁henry	-9.55609
▁voix	-9.5563
▁conseiller	-9.55644
bert	-9.55738
▁inscrit	-9.55782
oul	-9.55833
▁éléments	-9.5591
ik	-9.5604
▁championnats	-9.56201
▁mac	-9.56316
▁naissance	-9.56389
▁participé	-9.56389
saint	-9.56444
▁apparaît	-9.56454
▁iii	-9.56475
▁prise	-9.56517
▁nouveaux	-9.56622
one	-9.56635
dr	-9.56687
▁considéré	-9.56692
ius	-9.56768
▁ve	-9.5677
vait	-9.56837
mes	-9.56856
▁pou	-9.56961
▁transport	-9.56988
igne	-9.57023
dis	-9.57131
▁fondé	-9.5716
économie	-9.57177
▁février	-9.57177
▁richard	-9.57187
▁réserve	-9.57402
▁physique	-9.57448
30	-9.57536
▁arrive	-9.57551
▁signal	-9.57647
cou	-9.57648
bar	-9.57842
▁eux	-9.57896
▁cheval	-9.57932
▁1994	-9.5797
▁faveur	-9.5797
▁compris	-9.57974
▁1950	-9.57981
▁commandant	-9.58048
▁notre	-9.58068
▁commandement	-9.58116
can	-9.5813
my	-9.5816
qué	-9.58293
▁grandes	-9.58307
hy	-9.58398
▁kilomètres	-9.58399
uc	-9.58405
ira	-9.58406
▁projets	-9.5844
▁tor	-9.58463
▁articles	-9.58497
▁eaux	-9.58505
▁21	-9.58527
25	-9.58617
van	-9.58669
ogone	-9.58683
▁ob	-9.58711
▁fonds	-9.58748
xi	-9.58759
▁synopsis	-9.5877
▁principaux	-9.5877
duc	-9.58831
▁sommet	-9.58991
af	-9.59001
▁médi	-9.59046
▁longueur	-9.59113
bou	-9.59115
▁fondée	-9.5921
iens	-9.5923
êt	-9.59262
lac	-9.5928
▁maria	-9.59487
jo	-9.59586
▁riche	-9.59598
▁belge	-9.59606
▁médias	-9.59608
▁supérieur	-9.5978
tru	-9.59899
ert	-9.60149
▁ferme	-9.60223
ida	-9.60229
▁artistes	-9.60464
particulièrement	-9.60497
▁25	-9.60519
▁prison	-9.60559
▁envoyé	-9.6062
▁duc	-9.60701
▁droite	-9.60785
").	-9.60793
▁militaires	-9.60865
40	-9.60866
▁derniers	-9.61105
nier	-9.61188
▁pre	-9.61209
▁khashoggi	-9.61209
▁côtés	-9.61242
▁établi	-9.61244
▁circonscription	-9.61455
▁war	-9.61529
dire	-9.61637
venant	-9.61732
old	-9.61856
ama	-9.61966
gal	-9.6202
espace	-9.62022
–	-9.62027
▁façon	-9.62036
▁rakovník	-9.62036
▁moderne	-9.62048
▁soldats	-9.62111
▁utilise	-9.6223
▁télévisée	-9.62491
▁vert	-9.62603
els	-9.62762
aine	-9.62815
aceae	-9.62872
gon	-9.62882
▁entièrement	-9.62903
ling	-9.63047
▁organisation	-9.63081
▁race	-9.63108
▁conférence	-9.63199
▁arrêté	-9.63329
▁choisi	-9.6356
▁présenté	-9.6362
17	-9.63649
▁appelée	-9.63708
▁plutôt	-9.6371
▁massif	-9.63711
▁poète	-9.63727
▁lignes	-9.6373
▁police	-9.6373
uv	-9.63738
field	-9.63739
▁collaboration	-9.63756
fe	-9.6376
▁actrice	-9.63963
▁via	-9.63968
▁août	-9.63976
▁nature	-9.64257
▁demi	-9.64392
▁bra	-9.64447
▁organisée	-9.64518
▁single	-9.64563
▁vallée	-9.64576
amour	-9.64655
▁mention	-9.6471
▁fou	-9.64767
▁peter	-9.64784
gré	-9.64837
dame	-9.64861
▁georges	-9.64993
▁beau	-9.65094
▁néerlandaise	-9.65113
▁propos	-9.65151
▁mot	-9.65155
▁décision	-9.65412
▁statut	-9.65412
▁domin	-9.65415
rom	-9.65423
indépendance	-9.65463
▁gou	-9.65502
ep	-9.65587
▁taille	-9.65594
burg	-9.65628
▁question	-9.65731
▁alexandre	-9.65748
▁associé	-9.65798
ain	-9.65803
uk	-9.65845
▁désigne	-9.65862
▁bro	-9.65938
▁professionnel	-9.66068
70	-9.66081
ouverture	-9.66105
▁résultats	-9.66106
ino	-9.66112
▁tournée	-9.66138
▁ir	-9.66187
án	-9.66205
▁coup	-9.66258
▁college	-9.66274
▁conduit	-9.66275
étend	-9.66302
tou	-9.66355
ps	-9.66359
isse	-9.66396
▁titres	-9.66409
▁réalise	-9.66441
▁régiment	-9.66456
▁presqu	-9.665
▁fonctions	-9.6658
way	-9.6659
▁collection	-9.66592
▁techniques	-9.66872
dou	-9.66907
▁mas	-9.66914
ami	-9.67046
▁faible	-9.67133
▁actif	-9.67144
opération	-9.6717
lou	-9.67191
▁23	-9.67249
dor	-9.67276
▁lettres	-9.67432
anne	-9.67504
▁franc	-9.67693
▁ge	-9.67777
16	-9.67955
ju	-9.68023
▁frères	-9.68037
▁compose	-9.68102
▁communiste	-9.68132
éré	-9.68187
▁épreuves	-9.68246
▁commande	-9.68265
▁peine	-9.68351
vent	-9.68402
▁personnage	-9.68412
▁peinture	-9.68414
...	-9.68604
▁crée	-9.68648
_	-9.68706
▁permis	-9.68715
▁cat	-9.68732
":	-9.68831
▁systèmes	-9.6887
▁japonais	-9.68904
▁diplôme	-9.68906
▁relative	-9.68909
▁passage	-9.6892
▁branche	-9.68941
▁paix	-9.68959
"),	-9.69038
ish	-9.6904
ème	-9.69081
▁créer	-9.69217
fo	-9.69277
▁im	-9.69358
rick	-9.69365
▁ph	-9.69397
▁chemins	-9.6957
▁av	-9.69585
ques	-9.69597
ification	-9.69607
а	-9.69796
▁ferroviaire	-9.69798
▁permettant	-9.69831
ria	-9.69852
▁officiellement	-9.69946
▁composée	-9.69958
▁lance	-9.70013
▁rendu	-9.70034
22	-9.70094
fond	-9.70178
▁os	-9.70183
▁propriétaire	-9.70248
▁pièce	-9.70254
▁jou	-9.70285
▁personnages	-9.70299
▁européenne	-9.70316
▁locale	-9.70322
▁vienne	-9.70445
▁pot	-9.70479
_1	-9.70537
▁latin	-9.70552
ung	-9.70656
▁1995	-9.70699
▁littérature	-9.70699
▁hogg	-9.70707
66	-9.70718
▁nuit	-9.70768
11	-9.70807
▁décédé	-9.70821
▁réunion	-9.70899
ford	-9.70955
▁neuf	-9.71074
▁reine	-9.71135
▁européen	-9.71231
▁îles	-9.71242
▁relation	-9.71255
▁galaxies	-9.71325
ight	-9.71343
rat	-9.71484
esse	-9.71514
sk	-9.71544
émission	-9.71588
▁wo	-9.71607
énergie	-9.71608
▁concernant	-9.71608
▁moscou	-9.7161
▁participation	-9.71613
▁michel	-9.71615
▁révolution	-9.71619
▁rural	-9.71621
ō	-9.71644
▁californie	-9.71694
▁vient	-9.71696
▁bonne	-9.71927
▁diverses	-9.72014
▁capitale	-9.72035
▁accident	-9.72039
▁universitaire	-9.72126
▁monument	-9.72132
▁devenue	-9.72216
▁philippe	-9.72246
▁hall	-9.72284
ei	-9.72293
68	-9.72331
vel	-9.72385
▁format	-9.72439
49	-9.72473
pre	-9.72474
▁society	-9.72526
▁capacité	-9.72526
▁cathédrale	-9.72526
▁bassin	-9.72562
hr	-9.72567
organisme	-9.72579
avoir	-9.72669
▁nous	-9.7272
▁dis	-9.72801
sp	-9.72947
idée	-9.72985
▁basée	-9.73007
▁unités	-9.73063
ku	-9.73069
▁luc	-9.73127
line	-9.73139
ima	-9.7316
▁my	-9.73274
ures	-9.73302
▁tra	-9.73335
▁appel	-9.7335
о	-9.73449
oideae	-9.73452
65	-9.73487
ate	-9.73524
tier	-9.73536
▁japon	-9.7362
espagne	-9.7364
évêque	-9.73642
ttes	-9.73662
18	-9.73682
▁problèmes	-9.73785
étude	-9.74
▁affaires	-9.74044
zélande	-9.74386
▁conflit	-9.74387
▁scott	-9.74403
well	-9.74424
▁juste	-9.74436
tr	-9.74459
▁canal	-9.74463
▁travaillé	-9.74516
ye	-9.74536
off	-9.7458
▁éditions	-9.74591
▁»)	-9.74612
cus	-9.74642
▁vu	-9.7466
▁zones	-9.7467
▁att	-9.74745
▁sha	-9.74749
▁sert	-9.74832
inter	-9.74932
▁texte	-9.75016
▁lettre	-9.75037
▁petits	-9.75163
▁aucun	-9.75189
▁aucune	-9.75264
teurs	-9.75272
ft	-9.75273
▁music	-9.75299
roy	-9.753
▁endémique	-9.7533
▁étudié	-9.7533
▁photographie	-9.75331
étranger	-9.75342
▁civil	-9.75356
▁là	-9.75381
atelier	-9.75397
ros	-9.75511
▁wil	-9.75688
▁anna	-9.75706
▁réalisée	-9.75772
▁recueil	-9.75814
45	-9.75875
pt	-9.75966
bel	-9.75986
▁sujet	-9.75995
▁organise	-9.76005
54	-9.76068
ath	-9.76113
42	-9.7614
▁ki	-9.76164
▁bur	-9.76224
▁transports	-9.76267
▁églises	-9.76275
▁2018-2019	-9.76282
▁complexe	-9.76282
▁pignon	-9.76294
illustr	-9.7632
▁médecin	-9.76393
fin	-9.76439
▁officielle	-9.76523
▁2020.	-9.76652
▁filles	-9.76666
espèces	-9.76671
▁maisons	-9.768
vie	-9.76809
yo	-9.76843
▁social	-9.76936
▁secteur	-9.76979
▁drag	-9.77051
▁personnelle	-9.77126
▁sh	-9.77129
▁comporte	-9.77153
col	-9.77161
▁sociale	-9.77208
arrondissement	-9.77244
▁désormais	-9.77244
▁façade	-9.77244
▁titulaire	-9.77244
▁puissance	-9.77248
ata	-9.77262
▁lord	-9.7727
▁respect	-9.77341
▁lou	-9.77365
▁cou	-9.77569
▁fc	-9.77609
▁wi	-9.7761
▁sélectionné	-9.77618
aut	-9.77619
▁ouvrages	-9.77687
▁rég	-9.77742
▁bri	-9.77759
▁dés	-9.77888
sco	-9.78133
information	-9.78175
▁1982	-9.78215
▁spectacle	-9.78215
▁reconnaissance	-9.78218
▁forêt	-9.78228
▁cra	-9.78288
▁matière	-9.783
▁conditions	-9.78343
▁privé	-9.78414
▁viol	-9.7842
▁quant	-9.78458
arrivée	-9.78493
▁nu	-9.78604
▁vente	-9.78609
ita	-9.78654
80	-9.78744
hen	-9.78843
del	-9.78981
arrêt	-9.78999
▁médecine	-9.79081
tour	-9.79126
ï	-9.79152
▁formé	-9.79173
▁blanche	-9.79181
▁vainqueur	-9.79195
▁school	-9.792
bon	-9.79209
▁dico	-9.79318
espèce	-9.79367
kh	-9.79382
▁portée	-9.79385
shire	-9.79398
▁ailleurs	-9.79478
▁40	-9.79483
ref	-9.79513
ières	-9.79532
obtenir	-9.79619
▁villa	-9.7964
▁ordre	-9.79735
▁tom	-9.79736
▁matchs	-9.79777
ction	-9.79913
ative	-9.80025
▁gros	-9.80094
▁produits	-9.80167
▁déclaré	-9.80185
▁patrimoine	-9.80185
▁dispute	-9.80185
▁liberté	-9.80185
▁autorités	-9.80212
dan	-9.80214
▁documentaire	-9.80246
▁régulièrement	-9.80246
▁belgique	-9.80346
ible	-9.80407
cal	-9.8047
▁hy	-9.80579
▁trop	-9.80584
▁pr	-9.80594
▁kar	-9.80641
37	-9.80686
▁issu	-9.80772
▁29	-9.80855
▁plein	-9.80878
▁propriété	-9.81038
▁2017.	-9.81047
embouchure	-9.81185
▁administrative	-9.81185
▁constellation	-9.81185
▁effectué	-9.81185
▁lauréat	-9.81185
▁1992	-9.81186
▁profit	-9.81194
père	-9.81211
67	-9.81334
agence	-9.81338
▁intitulé	-9.81341
▁cycle	-9.81382
▁(1	-9.81382
bourg	-9.81423
▁league	-9.81449
▁suivantes	-9.81493
▁épisodes	-9.81744
sky	-9.81746
ell	-9.81769
▁saoudien	-9.81833
▁échange	-9.81878
▁inc	-9.81883
▁ton	-9.8192
red	-9.81955
▁mondial	-9.81983
▁classique	-9.82082
▁ac	-9.82194
▁1991	-9.82195
étoile	-9.82196
▁1969	-9.822
▁seigneur	-9.82377
▁1997	-9.82446
▁basse	-9.82451
▁films	-9.82548
▁ép	-9.82601
pl	-9.82679
▁pl	-9.82717
▁limitée	-9.8273
dones	-9.82764
▁pat	-9.82839
▁diffusé	-9.82856
mari	-9.82871
die	-9.82917
artiste	-9.82919
▁traditionnelle	-9.82938
▁cl	-9.8295
▁enfant	-9.82976
acteur	-9.83003
▁we	-9.8301
cht	-9.83083
(	-9.8313
▁entreprise	-9.83164
▁concept	-9.83189
е	-9.83213
▁suède	-9.83216
▁contraire	-9.83216
▁preuve	-9.83216
▁indique	-9.83256
tylé	-9.83292
▁toit	-9.83321
▁tar	-9.8341
tch	-9.83422
▁qualité	-9.83453
▁flo	-9.83541
ula	-9.83645
▁espagnol	-9.83829
image	-9.83875
iers	-9.83883
bra	-9.83923
bé	-9.84025
▁semaine	-9.84206
59	-9.84216
44	-9.84221
équipage	-9.84246
▁agricole	-9.84246
▁majorité	-9.84247
gou	-9.84364
▁joueuse	-9.84366
▁allemands	-9.84425
▁doté	-9.84465
▁scientifiques	-9.84492
21	-9.84539
▁far	-9.84554
gel	-9.84566
▁libération	-9.84591
▁hé	-9.84607
▁réuni	-9.84629
architecture	-9.84652
oï	-9.84743
installe	-9.84831
appel	-9.85008
nder	-9.85038
▁direct	-9.85044
ara	-9.85056
nu	-9.85146
û	-9.85162
awa	-9.85163
itaire	-9.85236
°	-9.85288
▁cinquième	-9.85288
▁rigadin	-9.85288
▁commerce	-9.85294
▁revient	-9.85317
▁loin	-9.85321
▁consul	-9.85374
ren	-9.85391
▁aff	-9.85431
24	-9.85442
▁publication	-9.85481
▁défaite	-9.85494
▁activité	-9.85497
elli	-9.85528
▁ouverte	-9.85556
34	-9.85612
▁ker	-9.8562
article	-9.85718
▁albert	-9.85738
▁désigner	-9.85804
▁étudiants	-9.85866
▁andré	-9.85981
▁sir	-9.85982
rin	-9.86129
mu	-9.86142
pri	-9.86156
cule	-9.86163
▁bl	-9.8628
cer	-9.86283
▁italie	-9.8631
▁tradition	-9.86331
▁fleuve	-9.86341
▁company	-9.86341
▁1996	-9.86347
ivoire	-9.86352
▁principe	-9.86354
▁parcours	-9.86355
▁coût	-9.86358
▁évolue	-9.86359
▁conception	-9.86368
oni	-9.86476
▁maire	-9.86514
▁sources	-9.86523
igu	-9.86549
▁xi	-9.86736
irlande	-9.86791
▁monuments	-9.86795
accord	-9.86798
▁cité	-9.86858
▁minutes	-9.86912
▁marche	-9.86915
▁chansons	-9.86935
▁comment	-9.86942
enne	-9.87079
90	-9.87123
hôpital	-9.87405
▁difficile	-9.87405
▁mandat	-9.87407
▁north	-9.87408
▁1989	-9.87411
▁chanteuse	-9.87432
▁réforme	-9.87444
▁crise	-9.87449
27	-9.87458
▁reconnu	-9.87497
tar	-9.87526
▁world	-9.87596
bb	-9.8769
ning	-9.87703
vre	-9.87853
amérique	-9.87879
président	-9.87884
ers	-9.87884
▁québécois	-9.87889
usine	-9.87929
▁ku	-9.87958
▁bern	-9.87998
gna	-9.88099
naire	-9.88102
▁plat	-9.88369
▁utilisée	-9.8837
stin	-9.88457
ulaire	-9.88463
▁monastère	-9.8848
▁processus	-9.8848
▁příbram	-9.8848
▁mâle	-9.8848
▁disponible	-9.8848
▁plaque	-9.88482
éro	-9.88494
exploitation	-9.88497
ième	-9.88526
▁es	-9.88536
▁vivant	-9.88552
lay	-9.88568
▁religieuse	-9.88573
▁compositeur	-9.88673
années	-9.88726
▁rendre	-9.88767
euros	-9.88797
ète	-9.88858
aéroport	-9.8897
alliance	-9.88973
▁pièces	-9.89015
▁spéciale	-9.89147
▁dirigé	-9.89165
pen	-9.89177
▁cur	-9.89318
▁sta	-9.89339
▁web	-9.89351
graphe	-9.8938
▁diffusion	-9.89567
▁dollars	-9.89567
baptiste	-9.89567
▁barrage	-9.89568
▁1981	-9.89574
▁résistance	-9.89576
▁!	-9.89697
▁chanteur	-9.89701
tiques	-9.89722
▁trouvent	-9.89746
nom	-9.89767
▁françaises	-9.89768
▁opérations	-9.89778
atrice	-9.89798
▁soutenu	-9.89809
▁italienne	-9.89836
hon	-9.89906
▁commercial	-9.90015
▁jeanne	-9.90125
teur	-9.90189
▁rep	-9.90231
▁victor	-9.90291
▁local	-9.90292
▁arabe	-9.90317
▁critiques	-9.90397
essai	-9.90408
ort	-9.90482
ella	-9.90598
▁contemporaine	-9.90635
dit	-9.90661
industrie	-9.90663
с	-9.90666
▁religieux	-9.90666
▁milliard	-9.90666
▁derrière	-9.90666
▁bourse	-9.90668
▁réalisation	-9.90669
major	-9.9067
▁claude	-9.9067
▁récit	-9.90673
▁journée	-9.90722
▁los	-9.90767
▁fra	-9.90787
▁lu	-9.90825
13	-9.90834
▁basé	-9.90839
▁signé	-9.90861
99	-9.9101
09	-9.91108
▁michael	-9.91147
forme	-9.91166
opéra	-9.91178
▁débute	-9.91233
▁ste	-9.91257
▁bor	-9.91292
▁22	-9.91319
▁sport	-9.91404
los	-9.91579
affaires	-9.9159
▁estime	-9.91692
56	-9.91707
▁capitaine	-9.91777
▁auparavant	-9.91777
▁désigné	-9.91783
51	-9.91809
▁roger	-9.91825
▁renseignement	-9.91841
▁donner	-9.91849
▁spécialiste	-9.91872
▁banque	-9.91905
gy	-9.91917
▁suivants	-9.9196
assez	-9.91988
▁entreprises	-9.92021
ace	-9.92063
▁hors	-9.92075
▁top	-9.92116
▁tur	-9.92193
ages	-9.92232
▁utilisa	-9.92287
43	-9.92293
▁totale	-9.92323
exposition	-9.92343
utilisation	-9.92364
▁hor	-9.92406
▁officiel	-9.9246
ola	-9.92473
▁noir	-9.92484
▁nam	-9.92612
▁descend	-9.92703
▁gaz	-9.92739
▁sœurs	-9.92769
ographie	-9.92849
ram	-9.92868
▁rejoindre	-9.929
▁scampton	-9.929
▁étymologie	-9.929
▁nguy	-9.92901
▁1993	-9.92907
▁1967	-9.92909
▁bbc	-9.92919
▁domaines	-9.92937
▁actuellement	-9.9301
ologique	-9.93114
53	-9.93154
▁marc	-9.93165
▁bla	-9.93166
▁fondateur	-9.93168
élection	-9.93189
▁métro	-9.93218
arts	-9.93335
61	-9.9343
▁anciens	-9.93455
gli	-9.935
▁bat	-9.93542
▁pic	-9.93599
ept	-9.9374
▁tente	-9.9374
▁tribu	-9.93744
▁nouvel	-9.93752
▁pourrait	-9.93754
pol	-9.93769
▁intitulée	-9.9386
fr	-9.93934
▁brésil	-9.9397
▁hommage	-9.94037
▁inspiré	-9.94037
▁promotion	-9.94037
и	-9.94037
▁thèse	-9.94038
▁comprena	-9.94039
▁1977	-9.94044
▁0	-9.94086
▁clip	-9.94101
▁chevalier	-9.94118
▁camps	-9.94151
▁daniel	-9.94155
▁directement	-9.9416
▁courbe	-9.94251
▁union	-9.94252
▁trou	-9.94254
existence	-9.94273
▁document	-9.94286
▁édouard	-9.94437
▁enfance	-9.94577
ches	-9.94629
accès	-9.94662
▁suffrage	-9.94683
▁offre	-9.94778
▁fonde	-9.94798
▁bloc	-9.9485
▁aide	-9.95003
▁développe	-9.95042
▁ger	-9.95067
▁27	-9.95094
86	-9.95116
▁électrique	-9.95186
▁docteur	-9.95187
arabie	-9.95187
▁partenaire	-9.95189
▁café	-9.95191
rm	-9.95194
▁appartenant	-9.95232
▁pal	-9.95236
▁lyon	-9.9527
▁grave	-9.95326
sseur	-9.95355
nelle	-9.95435
81	-9.95465
ides	-9.95499
ries	-9.95522
▁nécessaire	-9.95575
time	-9.95645
75	-9.95906
ige	-9.96003
▁somme	-9.96041
29	-9.9606
▁clan	-9.96167
▁considérée	-9.96261
▁circuit	-9.96349
▁matériel	-9.9635
▁1974	-9.96356
▁1971	-9.96356
issent	-9.96379
▁city	-9.96469
ban	-9.96474
fort	-9.96574
▁apprend	-9.96598
nor	-9.96651
▁forte	-9.9666
lit	-9.96729
eaux	-9.96742
▁cœur	-9.96818
lée	-9.96819
ena	-9.96825
▁za	-9.96919
▁découvre	-9.96961
▁bio	-9.96964
analyse	-9.97026
▁élevé	-9.97026
rg	-9.97154
▁alice	-9.97164
bour	-9.97179
▁200	-9.97276
▁ren	-9.97277
▁régime	-9.97278
▁arabes	-9.97384
oise	-9.97408
▁producteur	-9.97526
▁directrice	-9.97531
▁caroline	-9.97564
▁mène	-9.97603
▁nicolas	-9.97777
▁pur	-9.9786
▁hebdomadaire	-9.97879
ç	-9.97919
▁maladie	-9.9793
▁technologie	-9.97931
▁dessin	-9.97964
▁bé	-9.97993
▁sim	-9.98022
▁accès	-9.98066
▁installé	-9.9809
36	-9.98151
avait	-9.98173
écosse	-9.98224
▁jane	-9.98406
▁télé	-9.98502
▁transféré	-9.98515
▁1976	-9.98716
▁construire	-9.98716
▁tchèque	-9.98716
▁écossais	-9.98716
▁décès	-9.98717
▁enterré	-9.98719
▁contact	-9.98722
▁1986	-9.98724
▁longtemps	-9.98727
▁occupé	-9.9873
quet	-9.98786
▁fé	-9.9879
▁zo	-9.98794
▁guillaume	-9.9889
cat	-9.98929
77	-9.9894
▁événements	-9.99101
▁actuel	-9.9912
▁communication	-9.99167
▁arc	-9.99168
comm	-9.99187
heim	-9.99272
gui	-9.99333
▁correspond	-9.9944
film	-9.9946
avant	-9.99465
rice	-9.99559
euses	-9.99606
▁rose	-9.99667
32	-9.99761
nc	-9.99792
▁culturel	-9.99823
algérie	-9.99834
33	-9.99871
tsanaga	-9.99921
č	-9.99921
▁juridiction	-9.99921
▁lendemain	-9.99921
▁néanmoins	-9.99921
▁signifie	-9.99921
▁municipalité	-9.99933
▁alan	-9.99983
▁soient	-9.99984
élite	-9.99992
chant	-10.0003
▁trouver	-10.0008
▁placé	-10.001
ati	-10.0012
▁washington	-10.0016
wal	-10.0021
▁/	-10.0028
lot	-10.003
▁aîné	-10.0031
000	-10.0031
▁diplômé	-10.0037
hiver	-10.0038
▁bras	-10.0042
ép	-10.0048
▁jam	-10.0061
▁mesures	-10.0066
▁fit	-10.0075
▁2019.	-10.0075
hl	-10.0078
▁enquête	-10.0078
▁publics	-10.0078
illa	-10.0079
▁enseigne	-10.0083
▁constitué	-10.0089
▁paysage	-10.009
sha	-10.0093
pla	-10.0096
▁emploi	-10.0098
▁contribue	-10.0103
▁monte	-10.0104
arrière	-10.0109
▁historic	-10.0114
sol	-10.0114
▁pologne	-10.0114
▁1985	-10.0115
▁1975	-10.0115
▁installations	-10.0119
▁porté	-10.0119
▁routes	-10.012
▁luxembourg	-10.0138
ney	-10.0153
▁quart	-10.0154
voir	-10.0155
ë	-10.0169
▁couleur	-10.0171
▁flotte	-10.0178
▁gen	-10.0181
ón	-10.0181
▁avocat	-10.0184
arc	-10.0189
▁armée	-10.0192
attaque	-10.0193
▁partage	-10.0193
▁origine	-10.0213
mal	-10.022
ouze	-10.022
▁belle	-10.0227
▁jan	-10.0234
avec	-10.0235
astronome	-10.0237
▁junior	-10.0237
▁trouvé	-10.0239
▁gouverneur	-10.024
▁déménage	-10.024
▁coopération	-10.0244
▁tunisie	-10.0245
univers	-10.0246
▁épisode	-10.025
wi	-10.0253
élé	-10.0256
▁manque	-10.0257
▁permettr	-10.0259
06	-10.0263
▁manche	-10.0264
▁ouest	-10.0266
▁spécial	-10.0271
hor	-10.0274
ova	-10.0278
pho	-10.0287
▁juifs	-10.029
96	-10.0294
ifié	-10.0296
▁culturelle	-10.0296
▁refuse	-10.0297
▁bre	-10.0299
▁étroite	-10.032
uff	-10.0325
▁masculin	-10.0329
▁quelque	-10.0333
▁fusion	-10.0334
écriture	-10.0336
attend	-10.0337
vol	-10.0343
▁musicale	-10.0344
▁sites	-10.0346
▁communal	-10.0347
▁auto	-10.0349
tsu	-10.0355
▁indépendant	-10.0355
▁marchand	-10.0362
▁caractère	-10.0362
ky	-10.0364
▁influence	-10.0376
▁turc	-10.0383
▁west	-10.0395
▁cherche	-10.0395
▁fontaine	-10.0396
▁cré	-10.0406
app	-10.0428
isa	-10.0434
▁travailler	-10.0439
▁lit	-10.0439
nard	-10.0451
ada	-10.046
ôt	-10.0462
▁romaine	-10.0468
▁entrée	-10.0469
39	-10.0475
▁peint	-10.0483
▁termes	-10.0486
kani	-10.0489
▁mémoire	-10.0489
▁saoudite	-10.0489
▁justice	-10.0489
▁1962	-10.049
▁1979	-10.049
▁spécifique	-10.0491
▁ali	-10.0492
hal	-10.0493
▁initialement	-10.0495
▁prêtre	-10.0498
▁scénariste	-10.0501
gène	-10.0503
ington	-10.0505
tage	-10.0506
▁régions	-10.0519
▁versant	-10.052
▁stade	-10.0524
▁textes	-10.0531
▁fe	-10.0533
▁dirigée	-10.0536
▁you	-10.0539
▁peuple	-10.0558
▁thème	-10.0559
▁not	-10.0561
tine	-10.0569
actrice	-10.0579
▁dernières	-10.0595
▁cri	-10.0602
itu	-10.0614
▁établissement	-10.0617
▁test	-10.0617
▁1983	-10.0617
▁laboratoire	-10.0617
▁nucléaire	-10.0617
▁tennis	-10.0617
▁locaux	-10.0617
▁xiii	-10.0618
▁1945	-10.0618
▁participer	-10.0619
▁sorte	-10.0619
▁piano	-10.0624
▁roches	-10.0625
ctor	-10.0626
▁accueille	-10.0629
71	-10.0636
▁comédie	-10.0636
dom	-10.0649
▁futur	-10.0652
▁passer	-10.0657
▁acquis	-10.0657
▁marié	-10.0658
form	-10.0674
07	-10.0675
oph	-10.068
bul	-10.0692
ailleurs	-10.0693
▁ouvrage	-10.0696
▁vend	-10.0699
▁cham	-10.0699
▁poly	-10.07
▁mathématicien	-10.0704
▁pointe	-10.0706
louis	-10.0711
▁open	-10.0725
rique	-10.0731
nda	-10.0731
▁afrique	-10.0731
▁boul	-10.0736
▁génération	-10.0737
▁support	-10.0746
▁militant	-10.0747
station	-10.0747
▁concerne	-10.0747
▁toulouse	-10.0747
▁galerie	-10.0747
autriche	-10.0748
▁manoir	-10.0749
stein	-10.075
études	-10.0751
▁?	-10.0762
▁kat	-10.0771
▁mc	-10.0772
▁internet	-10.0772
▁beaux	-10.0772
ui	-10.0776
▁retourne	-10.0778
▁héritier	-10.078
mée	-10.078
aff	-10.0781
▁classé	-10.0782
▁décor	-10.0782
deux	-10.0787
85	-10.0793
▁courses	-10.0798
93	-10.0798
oir	-10.0806
paul	-10.0821
èle	-10.0824
▁han	-10.0825
▁ingénieur	-10.0826
▁america	-10.083
▁may	-10.0835
antes	-10.0846
▁pol	-10.0849
blo	-10.0849
tie	-10.0853
▁salon	-10.0858
▁climat	-10.0863
▁26	-10.0866
▁liens	-10.0867
ément	-10.0869
▁croissance	-10.0879
▁responsabilité	-10.0879
instrument	-10.0879
▁femelle	-10.0879
▁consacre	-10.0879
esprit	-10.0879
impose	-10.0879
▁1984	-10.0879
▁bordeaux	-10.088
▁1940	-10.088
▁maritime	-10.088
▁menace	-10.088
41	-10.088
▁2022	-10.0881
▁chasse	-10.0881
01	-10.0883
▁essentielle	-10.0883
▁semaines	-10.0884
▁mieux	-10.0887
▁mil	-10.0894
cour	-10.0894
▁île	-10.091
▁four	-10.0914
89	-10.0915
▁servi	-10.0918
aile	-10.0924
▁marqué	-10.0926
▁ya	-10.093
affaire	-10.0935
sud	-10.0952
ies	-10.0957
▁problème	-10.0964
australie	-10.0978
pierre	-10.0981
rich	-10.0981
74	-10.0983
entretien	-10.0991
hol	-10.0991
luc	-10.0996
▁iv	-10.1
▁byzantin	-10.1012
▁garçon	-10.1012
▁progress	-10.1012
▁répartition	-10.1012
▁similaire	-10.1012
▁doivent	-10.1012
▁autorisé	-10.1012
élevait	-10.1012
▁luxembourgeois	-10.1012
▁qualification	-10.1012
▁disposition	-10.1012
▁1988	-10.1013
▁1914	-10.1013
▁1920	-10.1014
▁espace	-10.1014
▁danger	-10.1017
▁reprise	-10.1019
▁interne	-10.1025
gl	-10.1028
31	-10.1033
▁chute	-10.1034
▁constitution	-10.1047
▁baie	-10.1048
▁croix	-10.1052
▁explique	-10.1057
dd	-10.1066
▁amérique	-10.1087
ât	-10.109
▁cam	-10.1091
▁bay	-10.1092
isant	-10.1093
▁usine	-10.1104
▁imp	-10.1105
▁reli	-10.1111
▁cé	-10.1113
activité	-10.1116
▁écrivain	-10.1118
france	-10.1123
î	-10.1128
ray	-10.1133
▁distinctions	-10.1142
▁partielle	-10.1142
▁mille	-10.1144
▁révèle	-10.1147
▁internationaux	-10.1147
▁dépôt	-10.1147
▁mali	-10.1148
▁noble	-10.1148
▁philosophie	-10.1149
▁faisait	-10.1149
▁localisation	-10.1149
▁débat	-10.1151
38	-10.1151
appui	-10.1152
ary	-10.1152
▁consulat	-10.1153
▁traitement	-10.1158
▁décoration	-10.1159
▁représentations	-10.1161
▁south	-10.1161
▁canadienne	-10.1162
▁institut	-10.1167
▁aérien	-10.1168
▁automobile	-10.1179
▁animaux	-10.1181
▁tours	-10.1191
▁mentionné	-10.1204
▁étude	-10.1206
▁star	-10.1207
▁lady	-10.1209
«	-10.1211
neur	-10.1215
▁dénombrées	-10.1216
▁âge	-10.1221
▁grec	-10.1226
ado	-10.1227
▁expérience	-10.1231
phone	-10.1239
64	-10.124
▁consacré	-10.1241
▁paroisse	-10.1244
▁irlandais	-10.1244
▁lancé	-10.1247
▁jouer	-10.125
▁kr	-10.1253
pha	-10.1264
57	-10.1266
▁enregistré	-10.1269
nais	-10.1273
ă	-10.1279
▁couvert	-10.1282
ifuges	-10.1284
▁condamné	-10.1284
▁ecclésiastique	-10.1284
▁tournage	-10.1284
▁accompagné	-10.1285
▁lactée	-10.1285
▁vrai	-10.1285
hel	-10.1285
▁1930	-10.1286
▁résidence	-10.1286
▁universelle	-10.1288
▁vent	-10.1288
▁waza	-10.1289
▁accepte	-10.1292
▁attribué	-10.1305
▁ze	-10.1308
alo	-10.1311
itude	-10.1321
ava	-10.133
▁précédent	-10.133
87	-10.1331
mettant	-10.1333
▁chacun	-10.1338
28	-10.1355
portant	-10.1361
atique	-10.1367
assi	-10.1368
gie	-10.1372
nement	-10.1375
▁voiture	-10.1389
▁poursuit	-10.1389
▁bru	-10.1391
uri	-10.1392
▁programmes	-10.1398
▁cent	-10.14
▁meilleure	-10.1409
▁réussi	-10.1414
▁secondes	-10.1421
électricité	-10.1423
▁bruxelles	-10.1423
▁respectivement	-10.1423
identité	-10.1423
▁rachel	-10.1423
▁1955	-10.1424
▁1916	-10.1424
▁bernard	-10.1428
nov	-10.1432
▁socialiste	-10.1437
▁destiné	-10.1438
...)	-10.1442
ça	-10.1442
▁carte	-10.1445
mas	-10.1447
▁mau	-10.1449
▁lieutenant	-10.1451
hn	-10.1458
▁détruit	-10.146
▁is	-10.147
▁max	-10.1472
72	-10.1476
▁at	-10.1488
▁park	-10.1491
cré	-10.1496
▁amis	-10.1505
▁victimes	-10.1505
▁reg	-10.151
nel	-10.1512
▁séries	-10.1524
▁rock	-10.1525
▁ter	-10.153
▁record	-10.1531
▁prom	-10.1534
▁pied	-10.1544
aude	-10.1546
▁liée	-10.155
▁auteur	-10.156
mit	-10.156
infanterie	-10.1564
▁1978	-10.1564
▁archéologique	-10.1564
▁discours	-10.1564
▁astronautes	-10.1565
▁1965	-10.1565
▁armes	-10.1567
▁veut	-10.1568
▁missions	-10.157
stra	-10.1575
▁eau	-10.1578
▁ap	-10.1585
▁saguenay	-10.1594
▁largement	-10.1602
▁us	-10.1609
▁accueil	-10.1614
▁change	-10.1615
▁muet	-10.1634
ding	-10.1642
ê	-10.1646
▁anglaise	-10.1652
▁effectue	-10.1654
▁noire	-10.1656
▁moteur	-10.1657
79	-10.1661
▁perte	-10.1663
écrivain	-10.1682
▁usage	-10.1684
installation	-10.1704
▁cavalerie	-10.1707
▁considère	-10.1707
▁restauration	-10.1707
▁toponymie	-10.1707
▁shelley	-10.1707
▁couronne	-10.1707
▁micro	-10.1707
▁tentative	-10.1708
▁visible	-10.1708
▁formule	-10.1709
▁situe	-10.171
▁house	-10.1716
var	-10.1716
▁multi	-10.1721
écart	-10.1722
▁nasa	-10.1722
▁parlementaire	-10.1727
▁tué	-10.173
▁gt	-10.1733
▁soumise	-10.1735
▁johann	-10.174
lli	-10.174
cri	-10.1755
▁soutient	-10.176
▁kou	-10.1762
auto	-10.1775
▁voies	-10.1781
▁issue	-10.1783
▁cre	-10.1791
anna	-10.1811
▁laisse	-10.1814
▁parce	-10.1821
23	-10.1826
▁olympique	-10.1828
syn	-10.1831
▁découvert	-10.1838
▁rapide	-10.184
mme	-10.1841
▁changement	-10.1842
vier	-10.1843
▁clubs	-10.1846
homonymie	-10.1852
▁bohême	-10.1852
▁satellite	-10.1852
▁majoritaire	-10.1852
▁procès	-10.1852
▁marseille	-10.1852
▁street	-10.1852
océan	-10.1852
▁talent	-10.1852
▁1972	-10.1853
▁1987	-10.1853
▁walter	-10.1853
▁récompense	-10.1861
ologue	-10.1862
▁intègre	-10.1865
▁note	-10.1874
tta	-10.1874
rio	-10.1877
era	-10.1886
amitié	-10.1888
▁permette	-10.1901
04	-10.1914
wan	-10.1915
▁label	-10.1922
▁pin	-10.1923
nn	-10.1932
▁architecture	-10.1941
▁perdu	-10.1942
55	-10.1945
▁ait	-10.1946
▁bad	-10.1947
▁historien	-10.1948
▁formes	-10.1953
marie	-10.197
unique	-10.1971
▁conclu	-10.1975
extérieur	-10.1978
▁condition	-10.1979
ault	-10.1987
met	-10.199
new	-10.1993
application	-10.1997
▁consiste	-10.1998
agriculture	-10.1999
▁commonwealth	-10.1999
▁faculté	-10.1999
▁équipé	-10.1999
▁cambridge	-10.1999
initiative	-10.1999
▁galles	-10.1999
▁1964	-10.2
cier	-10.2
▁édité	-10.2001
▁voyageurs	-10.2003
occupation	-10.2004
▁antoine	-10.2005
▁sel	-10.2007
▁intérêt	-10.2008
▁photo	-10.201
▁carlo	-10.2011
84	-10.2011
▁hol	-10.2015
▁spatiale	-10.2019
▁ban	-10.2023
▁réaction	-10.2025
▁op	-10.2036
gro	-10.2036
alerte	-10.2045
▁resté	-10.2052
62	-10.2053
▁polonais	-10.2055
▁acceptées	-10.2055
▁sm	-10.2062
▁hotels	-10.2066
▁().	-10.207
▁vendu	-10.2073
ato	-10.2111
▁féministes	-10.2124
?	-10.2131
mus	-10.2132
▁méthode	-10.2132
▁représentation	-10.2133
▁reconnue	-10.2135
type	-10.214
▁thi	-10.2143
▁dan	-10.2145
▁1947	-10.2148
▁décalage	-10.2148
▁cercle	-10.2148
▁revenu	-10.2148
▁plateforme	-10.2148
▁1959	-10.2149
dont	-10.2149
▁gares	-10.2149
▁affecté	-10.2151
▁bosnie	-10.2151
▁faut	-10.2152
▁juive	-10.2153
▁lumière	-10.2153
▁informations	-10.2156
▁group	-10.2163
▁venu	-10.2164
-0	-10.2166
▁lancement	-10.2175
▁noms	-10.2181
rier	-10.2187
for	-10.2189
tiennent	-10.2194
▁acte	-10.2224
26	-10.2228
▁principales	-10.223
▁rassemble	-10.2239
08	-10.2266
ric	-10.2266
=	-10.2268
▁disc	-10.227
▁kh	-10.2272
▁promu	-10.2278
▁statistiques	-10.2284
système	-10.2286
▁risque	-10.2289
affronte	-10.2295
▁printemps	-10.23
▁trafic	-10.23
▁trône	-10.23
▁1963	-10.23
▁appartient	-10.23
▁bronze	-10.23
▁légende	-10.23
holotype	-10.23
▁chimique	-10.23
▁séjour	-10.23
▁championship	-10.23
▁remonte	-10.2303
▁amateur	-10.2305
▁originale	-10.2305
▁élèves	-10.2306
▁laissé	-10.2314
▁durée	-10.2315
rop	-10.2318
▁actes	-10.2319
02	-10.2322
▁parties	-10.2324
▁couverture	-10.2325
▁tenu	-10.2327
grand	-10.2346
▁(15	-10.235
▁russes	-10.2367
iennes	-10.2371
▁adaptation	-10.2371
▁majeur	-10.2378
accompagne	-10.2382
agne	-10.239
▁altitude	-10.2408
▁locales	-10.241
ân	-10.241
▁petites	-10.2416
▁vic	-10.2429
▁bâti	-10.2439
objectif	-10.244
influence	-10.244
centrale	-10.2442
mond	-10.2445
▁connaissance	-10.2447
aérodrome	-10.2453
▁discipline	-10.2453
▁napoléon	-10.2453
▁roumanie	-10.2453
▁surveillance	-10.2453
importance	-10.2453
▁sociaux	-10.2453
▁époux	-10.2453
animation	-10.2454
▁whit	-10.2454
assassinat	-10.2454
▁1961	-10.2454
▁1937	-10.2455
▁1968	-10.2455
▁1966	-10.2455
▁contenu	-10.2455
▁island	-10.2456
▁enseignant	-10.2458
illon	-10.2462
▁villes	-10.2464
▁régional	-10.2466
▁devint	-10.2466
▁objets	-10.2466
▁rentre	-10.2469
▁green	-10.2471
▁sixième	-10.2474
▁tiers	-10.2475
▁ski	-10.2484
hang	-10.2485
▁marcel	-10.249
▁modèles	-10.249
▁assistant	-10.2495
▁interprète	-10.2502
▁concentr	-10.2503
▁mir	-10.2504
▁championne	-10.2523
yne	-10.2531
▁sociales	-10.2534
▁fla	-10.2539
tha	-10.2545
lor	-10.2546
▁officier	-10.2547
▁artiste	-10.2551
▁musical	-10.2552
vor	-10.2559
▁boy	-10.2562
▁cellules	-10.2564
▁conférences	-10.2571
▁canons	-10.2573
cad	-10.2576
▁conserve	-10.2578
▁réaliser	-10.2579
▁élève	-10.2581
▁conservé	-10.2583
insta	-10.2583
dessous	-10.2589
▁canadien	-10.2592
ense	-10.2597
ouvrage	-10.2599
lus	-10.2603
issue	-10.2606
▁continent	-10.2607
▁fotokol	-10.261
▁possession	-10.261
▁produire	-10.261
▁républicain	-10.261
▁papier	-10.261
▁raconte	-10.261
▁venise	-10.261
▁décidé	-10.261
▁présidence	-10.261
▁huitième	-10.2611
▁japonaise	-10.2612
▁master	-10.2622
▁présentée	-10.2629
▁cadet	-10.2634
▁éclat	-10.2638
▁évolua	-10.2639
▁uniquement	-10.2643
▁finit	-10.2643
▁bénéficie	-10.2643
oz	-10.2646
▁occidentale	-10.2661
▁by	-10.2666
▁mini	-10.2673
tric	-10.2681
archi	-10.2687
▁diocèses	-10.2688
▁thé	-10.2695
asse	-10.2703
▁prisonniers	-10.271
évaluation	-10.2712
▁enceinte	-10.2722
▁naturel	-10.2725
▁mené	-10.2732
unité	-10.2736
▁espagne	-10.2736
▁carol	-10.2742
▁armées	-10.2743
▁»).	-10.275
▁chinoise	-10.2756
▁bill	-10.2761
▁1946	-10.2768
▁chiffre	-10.2768
▁maîtrise	-10.2768
▁1958	-10.2768
▁juridique	-10.2768
▁ottoman	-10.2768
▁patinage	-10.2768
▁basket	-10.2768
▁croiseur	-10.2768
▁circulation	-10.2768
▁répartis	-10.2769
▁puisque	-10.2772
▁devrait	-10.2773
▁employé	-10.2774
▁lesquels	-10.2774
asie	-10.2777
angle	-10.2782
rupaul	-10.2782
35	-10.2782
▁dragon	-10.2797
▁romain	-10.2802
▁administration	-10.2807
▁masse	-10.2809
▁sujets	-10.2817
▁pleine	-10.2818
▁décrite	-10.282
étique	-10.2821
▁meilleurs	-10.2839
▁coureur	-10.2844
▁mus	-10.2852
▁péri	-10.2854
▁irlande	-10.2861
▁rencontres	-10.2871
▁quotidien	-10.2872
▁besoins	-10.2872
ock	-10.2876
▁dirigeant	-10.2879
▁august	-10.2888
48	-10.2888
▁pense	-10.2911
▁ouvre	-10.2918
press	-10.2918
intérêt	-10.292
environnement	-10.2924
lumière	-10.2925
exception	-10.2927
▁spécialisée	-10.2928
▁adapté	-10.293
▁adopté	-10.293
▁collectif	-10.293
▁registre	-10.293
ž	-10.293
▁journaux	-10.293
▁géorgie	-10.293
▁nomination	-10.293
▁séparé	-10.293
▁smith	-10.293
▁libéral	-10.293
▁généraux	-10.2931
prennent	-10.2932
américain	-10.2934
▁publications	-10.2936
▁solution	-10.2939
▁humaine	-10.2953
▁importants	-10.2958
▁écoles	-10.296
▁corée	-10.2969
haus	-10.2972
▁bout	-10.2979
▁représenté	-10.2984
own	-10.2987
▁endroit	-10.2989
▁qualifie	-10.299
▁défi	-10.2993
ères	-10.2996
▁entraîneur	-10.2997
▁solaire	-10.3
ā	-10.3
▁engagé	-10.3001
assa	-10.3002
▁concert	-10.3006
▁impériale	-10.3008
▁majeure	-10.301
▁lion	-10.3013
▁pyrénées	-10.3015
▁compt	-10.3015
▁anciennes	-10.3024
▁plans	-10.3024
▁continu	-10.3034
▁80	-10.3034
▁regroupe	-10.3035
▁sto	-10.3037
▁2016.	-10.3043
▁documents	-10.3048
magn	-10.3053
▁certaine	-10.3055
▁fan	-10.3056
▁défini	-10.3059
▁organisations	-10.307
▁ry	-10.3073
▁roche	-10.3077
▁religieuses	-10.3079
8,	-10.3081
▁utilisés	-10.3083
▁répond	-10.3084
▁connaît	-10.3084
pré	-10.3086
▁âgé	-10.3091
▁profession	-10.3093
métrique	-10.3093
▁coalition	-10.3094
▁fréquence	-10.3094
▁réponse	-10.3094
▁véritable	-10.3094
intention	-10.3094
▁fête	-10.3094
▁engagement	-10.3094
▁1939	-10.3095
▁1942	-10.3095
▁enveloppes	-10.3095
humanité	-10.3095
▁frank	-10.3096
▁complet	-10.3096
just	-10.3096
▁fixe	-10.3096
▁toile	-10.3097
▁stations	-10.3099
guerre	-10.31
▁logement	-10.31
▁environnement	-10.3104
▁étage	-10.3115
égalité	-10.3117
▁pop	-10.312
▁christ	-10.3123
▁brun	-10.313
▁apparition	-10.314
bal	-10.3157
▁ic	-10.3186
rac	-10.3192
axe	-10.3196
▁ang	-10.3202
▁candidat	-10.3206
bes	-10.321
von	-10.3216
▁industriel	-10.3216
▁nos	-10.3224
▁gre	-10.3236
cation	-10.3242
▁complète	-10.3245
▁dar	-10.3246
zy	-10.3246
extrémité	-10.3255
▁franco	-10.3256
▁conte	-10.3258
▁q	-10.326
american	-10.326
▁cycliste	-10.326
▁edward	-10.326
▁orthodoxe	-10.326
▁squadron	-10.326
▁succède	-10.326
▁géométrie	-10.326
▁veuve	-10.326
▁nourri	-10.3261
▁angeles	-10.3261
▁quasi	-10.3261
▁message	-10.3261
▁dublin	-10.3261
automne	-10.3261
▁1949	-10.3262
établissement	-10.3262
▁munich	-10.3262
▁allié	-10.3265
ovice	-10.3265
▁applications	-10.3266
▁réalité	-10.3269
rain	-10.327
▁clément	-10.3276
▁chrétienne	-10.3276
▁expose	-10.3277
▁70	-10.3278
▁présentation	-10.3285
▁solide	-10.3298
▁yu	-10.3299
▁roumain	-10.3312
▁destin	-10.3315
▁provinces	-10.3315
▁simon	-10.3316
▁demeure	-10.3325
ignant	-10.3327
▁savoir	-10.3349
jou	-10.3353
▁traverse	-10.3361
▁évêques	-10.337
▁actuelle	-10.3375
▁espagnole	-10.338
▁classée	-10.3385
▁actions	-10.3396
fection	-10.3399
polo	-10.3406
▁combats	-10.3409
▁laurent	-10.3409
2,	-10.3412
▁dite	-10.3415
▁mad	-10.3419
▁vision	-10.3422
pas	-10.3422
▁lien	-10.3424
▁publiques	-10.3425
р	-10.3429
cli	-10.3429
▁cérémonie	-10.343
▁démocratique	-10.343
▁introduit	-10.343
▁rencontré	-10.343
▁mexique	-10.343
▁transition	-10.343
▁gabriel	-10.343
▁glace	-10.343
▁bauer	-10.343
ancêtre	-10.343
▁trente	-10.343
▁déclaration	-10.343
▁abrite	-10.3431
▁1918	-10.3431
▁pression	-10.3432
▁rosny	-10.3432
▁parle	-10.3434
▁urbaine	-10.3435
▁machine	-10.3436
▁serge	-10.3436
où	-10.3437
▁couvre	-10.3442
avion	-10.3443
▁rat	-10.3445
▁elizabeth	-10.3446
tom	-10.3447
▁31	-10.3449
nal	-10.3449
▁paru	-10.3453
▁mett	-10.3453
▁réseaux	-10.3455
▁disque	-10.3456
▁féministe	-10.3457
▁mans	-10.3458
▁tourne	-10.3462
▁mes	-10.3464
▁(16	-10.3465
▁simplement	-10.3467
mel	-10.347
▁shi	-10.3473
▁masculine	-10.3476
▁ponts	-10.348
▁liquide	-10.3485
▁institute	-10.3487
▁1,	-10.3496
▁intérieur	-10.35
▁analyse	-10.3503
▁jud	-10.3509
▁portrait	-10.3515
▁former	-10.352
gg	-10.3523
ken	-10.3524
▁mains	-10.3528
▁investi	-10.353
▁eut	-10.3539
▁page	-10.3539
▁professionnels	-10.354
▁seine	-10.3548
▁économiques	-10.3549
onde	-10.3552
▁orientale	-10.3556
class	-10.3561
▁prévu	-10.3565
oma	-10.3572
-17	-10.3575
▁auteurs	-10.3587
▁parallèle	-10.3587
▁régionale	-10.3591
▁collabore	-10.3592
▁postes	-10.3593
▁king	-10.3594
œ	-10.3601
apprentissage	-10.3602
atlantique	-10.3602
▁mixte	-10.3602
▁global	-10.3603
▁téléphone	-10.3603
▁immédiatement	-10.3603
▁women	-10.3604
▁vécu	-10.3604
▁gardien	-10.3605
▁pouvant	-10.3606
▁regard	-10.3606
▁contemporain	-10.3607
▁sand	-10.3609
▁connaître	-10.3612
▁monca	-10.3613
ito	-10.3618
▁chantier	-10.362
▁onze	-10.362
pan	-10.362
;/	-10.363
▁comportement	-10.3631
▁williams	-10.3632
▁résultat	-10.3636
▁sacré	-10.3637
▁méta	-10.3644
▁arthur	-10.3648
hall	-10.365
▁inn	-10.3651
activ	-10.3657
▁dispos	-10.3658
▁land	-10.366
▁clé	-10.3665
▁santa	-10.3672
▁valeurs	-10.3682
▁menée	-10.3683
imp	-10.3687
ces	-10.3692
▁installée	-10.3694
▁expositions	-10.3699
▁touché	-10.37
para	-10.3707
kha	-10.3713
rog	-10.3714
▁américains	-10.3718
69	-10.372
▁ceci	-10.372
▁mariée	-10.3723
▁poèmes	-10.3738
▁joueurs	-10.374
gio	-10.3746
▁foi	-10.3749
▁particulière	-10.3754
▁confirmé	-10.3756
▁impression	-10.3759
▁handball	-10.3778
▁liège	-10.3778
▁ressources	-10.3778
expression	-10.3778
▁1952	-10.3778
▁logiciel	-10.3778
▁tibétain	-10.3778
▁avancé	-10.3778
▁primaire	-10.3778
▁choix	-10.3778
▁scolaire	-10.3778
attention	-10.3778
▁cardinal	-10.3778
▁jacob	-10.3778
escalier	-10.3778
▁colonne	-10.3778
▁conservation	-10.3778
écran	-10.3778
▁proposition	-10.3779
échelle	-10.3779
▁1953	-10.3779
▁1954	-10.3779
▁1900	-10.378
▁black	-10.3782
▁latine	-10.3783
▁intégré	-10.3784
▁tâche	-10.3785
▁1913	-10.3788
épouse	-10.3788
▁water	-10.3789
▁évoque	-10.3794
▁directe	-10.3794
▁australie	-10.3799
▁pénal	-10.3802
dans	-10.3802
iel	-10.3802
▁vieux	-10.3808
arme	-10.381
▁adjoint	-10.3815
▁180	-10.3816
▁records	-10.3819
▁poème	-10.3821
zh	-10.3826
war	-10.384
▁émissions	-10.3847
▁canon	-10.3848
▁nga	-10.3855
▁secondaires	-10.3855
town	-10.3856
▁produite	-10.3857
▁win	-10.3875
▁2014.	-10.3887
armes	-10.3888
▁francis	-10.3896
▁(2	-10.3898
▁précédente	-10.3902
▁barb	-10.3903
▁hans	-10.3909
▁bourg	-10.3909
▁catholiques	-10.3919
▁tch	-10.3928
abilité	-10.3935
▁adam	-10.3935
▁aller	-10.3939
tenait	-10.3939
▁nov	-10.3939
▁active	-10.3945
dley	-10.395
▁colombie	-10.3956
▁protéger	-10.3956
▁provincial	-10.3956
▁pauvre	-10.3956
▁poésie	-10.3956
▁souverain	-10.3956
▁transfert	-10.3956
▁volontaire	-10.3956
▁lanterne	-10.3956
▁présidentielle	-10.3956
▁vaisseau	-10.3957
▁1926	-10.3957
▁1929	-10.3957
▁libéré	-10.3959
▁battu	-10.3959
▁anglo	-10.396
▁spécialisé	-10.396
aventure	-10.3961
▁berg	-10.3962
▁noyau	-10.3962
▁portent	-10.3963
▁play	-10.3967
▁légèrement	-10.3968
▁chargée	-10.397
▁sexuelle	-10.3983
▁inde	-10.4002
▁atteindre	-10.4004
▁ran	-10.4005
▁contien	-10.4008
▁rap	-10.4009
▁empereur	-10.4012
▁mark	-10.4012
▁chercheur	-10.4013
▁retrouvé	-10.4018
étant	-10.4025
▁fournit	-10.4031
aba	-10.4037
▁animal	-10.4043
ista	-10.4044
▁compétences	-10.4048
▁quartiers	-10.4053
pin	-10.4056
▁distingue	-10.4079
cker	-10.408
▁décoré	-10.4087
▁origines	-10.4095
6,	-10.4099
▁ball	-10.4109
▁autrichien	-10.4118
ú	-10.4137
▁pêche	-10.4138
▁rattaché	-10.4138
▁réception	-10.4138
▁accessible	-10.4138
▁dimanche	-10.4138
▁superficie	-10.4138
▁texas	-10.4138
▁retiré	-10.4138
▁conservatoire	-10.4138
investissement	-10.4138
▁dépasse	-10.4138
▁colonie	-10.4138
▁marquis	-10.4138
▁rayon	-10.4139
mos	-10.4139
▁1957	-10.4139
absence	-10.414
▁prénom	-10.4141
▁power	-10.4141
▁high	-10.4143
dra	-10.4143
mment	-10.4145
▁modul	-10.4145
▁cabinet	-10.4145
▁combiné	-10.4147
▁financement	-10.4148
▁grecque	-10.4149
▁rester	-10.4151
arch	-10.4152
françois	-10.4154
▁carré	-10.4155
▁milan	-10.4155
âtre	-10.4157
▁fri	-10.4162
appareil	-10.4165
▁fortement	-10.417
▁fournir	-10.4178
▁const	-10.4181
▁différent	-10.4184
dal	-10.4185
▁meurtre	-10.4186
▁cellule	-10.4191
▁emmanuel	-10.4206
▁occasion	-10.4214
▁équation	-10.4218
aison	-10.422
▁entier	-10.4222
▁nicol	-10.4227
▁rien	-10.4227
▁pose	-10.4228
▁commandé	-10.4237
▁couleurs	-10.4242
▁sin	-10.4243
▁commerciale	-10.4247
▁dieu	-10.4249
▁considér	-10.4255
intéresse	-10.4257
▁questions	-10.426
iana	-10.4263
▁60	-10.4268
brand	-10.428
▁will	-10.4282
2.	-10.4284
▁appelle	-10.4294
▁candidats	-10.4302
oire	-10.4312
emplacement	-10.4319
▁collabor	-10.4322
▁affluent	-10.4323
▁conjecture	-10.4323
▁délégué	-10.4323
▁endommagé	-10.4323
▁financière	-10.4323
▁identifié	-10.4323
▁mathematica	-10.4323
▁mécanique	-10.4323
▁progressivement	-10.4323
▁remarquable	-10.4323
▁standard	-10.4323
▁stratégie	-10.4323
▁việt	-10.4323
▁autonome	-10.4323
▁instance	-10.4323
▁naples	-10.4323
▁andrew	-10.4323
▁relais	-10.4323
▁recevoir	-10.4323
▁différence	-10.4324
▁nxt	-10.4324
▁procédure	-10.4324
▁liaison	-10.4325
▁fédérale	-10.4326
▁apparu	-10.4326
▁sportive	-10.4326
▁unis	-10.4329
uz	-10.4329
rum	-10.4331
▁idées	-10.4334
▁form	-10.4336
épreuve	-10.4341
impression	-10.4343
terre	-10.4346
▁chaire	-10.4349
▁assure	-10.436
▁basque	-10.436
vu	-10.4361
▁action	-10.4364
▁mul	-10.4364
▁pente	-10.4366
▁ann	-10.4375
uite	-10.4383
▁émet	-10.4385
indre	-10.4387
aime	-10.4388
▁gagne	-10.4389
▁marguerite	-10.4389
▁objectifs	-10.439
▁90	-10.4392
oiseau	-10.4393
▁soir	-10.4397
ota	-10.4397
aill	-10.4403
▁députés	-10.441
olo	-10.4411
of	-10.4412
▁golfe	-10.4423
▁chacune	-10.4439
▁2010.	-10.4443
▁mill	-10.4448
▁nul	-10.4461
là	-10.4461
▁karl	-10.4465
▁générales	-10.4466
▁nick	-10.4475
intégr	-10.4477
▁dédiée	-10.4478
▁familles	-10.4481
lab	-10.4493
▁chrétien	-10.4494
▁propres	-10.4505
▁distinct	-10.4509
lf	-10.4511
▁lincoln	-10.4511
▁mcnicoll	-10.4512
▁mohammed	-10.4512
▁contraint	-10.4512
▁rédacteur	-10.4512
▁floride	-10.4512
orléans	-10.4512
invasion	-10.4512
▁capturé	-10.4512
▁statue	-10.4512
▁bateau	-10.4513
▁sépare	-10.4513
▁trouvait	-10.4513
▁favori	-10.4513
▁jackson	-10.4513
▁1924	-10.4513
▁1915	-10.4514
▁manuel	-10.4514
▁syrie	-10.4515
▁disposait	-10.4517
▁square	-10.4517
▁peuls	-10.4517
parti	-10.452
▁tôt	-10.452
▁comtesse	-10.4521
▁australienne	-10.4522
▁vaste	-10.4524
▁bran	-10.4525
▁fréquente	-10.4525
▁cousin	-10.4529
▁souhaite	-10.4532
▁aura	-10.4533
▁crime	-10.4533
▁guide	-10.4534
opposition	-10.4535
▁juan	-10.4537
▁bob	-10.4537
▁fleurs	-10.4543
▁trace	-10.4544
tenir	-10.4547
▁exerce	-10.4563
vision	-10.4565
dale	-10.4568
iro	-10.4577
▁volume	-10.4579
▁besoin	-10.4579
▁personnalités	-10.458
▁puisse	-10.4591
nus	-10.4592
▁milles	-10.4593
▁mentionne	-10.4598
▁européens	-10.4601
▁mit	-10.4603
▁vidéos	-10.4606
▁humain	-10.4611
▁performances	-10.4611
▁500	-10.4617
▁élevée	-10.462
▁dépend	-10.4622
▁envoie	-10.4628
▁numériques	-10.4637
▁accueilli	-10.4638
▁unies	-10.4643
▁précise	-10.4644
▁fenêtres	-10.4647
▁maz	-10.4649
▁).	-10.4668
▁plate	-10.4668
oo	-10.4676
▁medi	-10.4688
organis	-10.4694
top	-10.4696
empêch	-10.47
autorité	-10.47
▁1.	-10.4701
pseudo	-10.4704
▁1966-1967	-10.4704
▁discussion	-10.4704
▁exécuté	-10.4704
▁portugal	-10.4704
▁sanctuaire	-10.4704
▁waddington	-10.4704
▁écosystèmes	-10.4704
amélioration	-10.4704
▁botanique	-10.4704
▁décret	-10.4704
▁spirale	-10.4704
▁pagode	-10.4704
▁adulte	-10.4704
▁ceinture	-10.4704
▁navy	-10.4704
alcool	-10.4704
▁ruisseau	-10.4705
▁nautique	-10.4705
▁révolutionnaire	-10.4705
▁couvent	-10.4705
▁1943	-10.4705
▁1956	-10.4705
▁1919	-10.4706
▁métier	-10.4707
▁wolf	-10.4707
▁rob	-10.4709
▁potable	-10.4709
court	-10.4709
▁définitivement	-10.471
▁leader	-10.4716
achat	-10.4723
▁stock	-10.4723
▁résident	-10.4728
emploi	-10.473
ello	-10.473
bretagne	-10.4731
élève	-10.4731
▁mots	-10.4732
▁niveaux	-10.4732
▁cible	-10.4735
▁times	-10.4736
henri	-10.4741
▁nomme	-10.4742
▁amsterdam	-10.4742
▁plai	-10.4746
▁tam	-10.4751
▁quinz	-10.4759
quant	-10.4759
igné	-10.476
▁400	-10.476
etti	-10.4764
inte	-10.4765
▁constituent	-10.4769
▁saut	-10.4771
ity	-10.4771
▁prévue	-10.4772
▁utiliser	-10.4776
▁venir	-10.4779
▁mathématique	-10.478
▁ennemi	-10.4781
installer	-10.4792
▁rené	-10.4802
▁parisien	-10.4806
ugh	-10.4807
▁familiale	-10.4808
▁alliance	-10.481
▁confirme	-10.4811
▁engagée	-10.4814
▁million	-10.4819
▁écrire	-10.4819
▁fermée	-10.4819
fran	-10.4825
▁impact	-10.483
▁volumes	-10.4831
▁néo	-10.4832
zer	-10.4836
▁fourni	-10.4845
▁fonctionne	-10.4845
▁puisqu	-10.4848
odi	-10.4854
cap	-10.4859
▁élue	-10.4859
▁importantes	-10.4863
pit	-10.4863
▁avance	-10.4863
▁géré	-10.4865
▁barre	-10.4874
▁construits	-10.4878
chin	-10.4878
▁romains	-10.4894
▁sénégal	-10.4899
▁établie	-10.4899
▁command	-10.49
▁baccalauréat	-10.49
▁baptisé	-10.49
▁calendrier	-10.49
▁chapitre	-10.49
▁légion	-10.49
▁successeur	-10.49
▁appliquée	-10.49
▁destruction	-10.49
▁mauvais	-10.49
▁suivent	-10.49
▁dizaine	-10.49
▁accusé	-10.49
▁gustav	-10.49
▁mobile	-10.49
▁award	-10.4901
▁petr	-10.4903
▁fonctionnaire	-10.4903
▁flf	-10.4904
▁créa	-10.4906
▁jugé	-10.4907
▁wwe	-10.4908
organe	-10.4909
▁sait	-10.4912
▁internationales	-10.4917
iller	-10.4923
laurent	-10.4931
▁proches	-10.4934
▁bade	-10.4939
wood	-10.4939
▁indépendante	-10.4948
▁ty	-10.4948
▁puissant	-10.495
cité	-10.4951
ting	-10.4957
titre	-10.4958
▁alexandr	-10.4965
▁liés	-10.4978
cut	-10.4982
▁victime	-10.4984
▁étudiant	-10.4994
▁défend	-10.5008
enfant	-10.5022
▁maroc	-10.5025
▁pouvai	-10.5027
3)	-10.5034
▁essay	-10.5045
▁nationaliste	-10.5051
entraînement	-10.5057
ben	-10.5083
▁normale	-10.509
ambassade	-10.5091
chaussée	-10.5095
▁rappel	-10.5096
▁guy	-10.5099
н	-10.5099
archevêque	-10.51
▁décède	-10.51
▁fidèle	-10.51
▁sculpture	-10.51
▁température	-10.51
▁classification	-10.51
▁friedrich	-10.51
▁rénovation	-10.51
▁séminaire	-10.51
▁hatfield	-10.51
▁madrid	-10.51
▁suicide	-10.51
▁transformé	-10.51
▁đạ	-10.51
▁culte	-10.51
▁licence	-10.51
▁rempli	-10.5101
horizon	-10.5101
▁criminel	-10.5101
▁institutions	-10.5101
▁boston	-10.5101
▁1935	-10.5101
▁1948	-10.5101
▁quitté	-10.5101
▁1951	-10.5102
aménagement	-10.5102
▁infrastructures	-10.5102
▁ajouté	-10.5105
▁confie	-10.5105
▁scènes	-10.5106
▁outil	-10.5107
▁débuté	-10.5109
éteint	-10.5111
ivité	-10.5114
▁alex	-10.5116
▁passant	-10.5117
▁fédéral	-10.5119
lly	-10.5121
▁présidente	-10.5124
▁madeleine	-10.513
▁centaines	-10.5133
▁solo	-10.5133
▁johannes	-10.5135
▁lesquelles	-10.5141
▁assurer	-10.5143
▁préfet	-10.5144
chet	-10.5151
▁conséquences	-10.5153
▁traditionnel	-10.5157
▁froide	-10.5165
▁brit	-10.5175
▁ventes	-10.5182
▁entraîne	-10.5182
▁nba	-10.5191
illy	-10.5197
nik	-10.5198
▁hill	-10.5199
▁state	-10.5204
▁ét	-10.5206
▁marion	-10.5219
▁ajoute	-10.5224
ites	-10.523
▁ana	-10.5232
▁professeure	-10.5237
▁romans	-10.5238
▁inférieure	-10.5245
▁chu	-10.5246
low	-10.5273
istique	-10.5275
▁détail	-10.5276
▁ici	-10.5287
▁she	-10.5293
mère	-10.5299
▁étudier	-10.5301
▁kam	-10.5302
▁développer	-10.5303
▁gate	-10.5304
ř	-10.5304
observation	-10.5304
▁ballyconnell	-10.5304
▁cultiv	-10.5304
▁décennie	-10.5304
▁déployé	-10.5304
▁exécutif	-10.5304
▁ferdinand	-10.5304
▁hockey	-10.5304
▁possibilité	-10.5304
▁research	-10.5304
▁sculpté	-10.5304
▁tông	-10.5304
▁florence	-10.5304
▁préparation	-10.5304
▁magasin	-10.5304
urgence	-10.5304
▁wilhelm	-10.5304
▁treiz	-10.5305
▁poids	-10.5305
▁tribunal	-10.5305
▁congrégation	-10.5305
▁london	-10.5305
▁1938	-10.5305
▁demandé	-10.5306
▁lecture	-10.5306
▁final	-10.5306
▁causé	-10.5306
▁1922	-10.5306
▁critères	-10.5306
▁septième	-10.5306
▁prenant	-10.5307
▁christian	-10.5309
autoroute	-10.5309
▁neveu	-10.531
▁2,	-10.5314
▁léon	-10.5316
ii	-10.5316
▁illustré	-10.5317
varman	-10.5317
▁turque	-10.5322
▁réussit	-10.5328
▁dehors	-10.5328
▁2015.	-10.5336
▁ivan	-10.5344
▁poule	-10.5347
asso	-10.5351
▁affect	-10.5352
▁louise	-10.5358
appar	-10.5369
▁mineur	-10.5374
▁raid	-10.5376
jan	-10.5387
lio	-10.5388
▁jet	-10.539
▁protégé	-10.539
▁opéra	-10.5401
▁dimension	-10.5403
▁performance	-10.5404
▁repris	-10.5406
▁cru	-10.5407
ards	-10.5412
▁capital	-10.5415
▁it	-10.5425
pour	-10.5427
▁fini	-10.5431
▁traite	-10.5431
tech	-10.5446
▁45	-10.545
▁extrême	-10.5453
-2	-10.5469
▁siècles	-10.5471
tives	-10.5473
num	-10.5474
▁pratiques	-10.5475
▁retrouver	-10.5477
▁provena	-10.5482
▁prêt	-10.5482
▁participent	-10.5488
taux	-10.5488
▁souhait	-10.549
▁solutions	-10.5501
▁exposition	-10.5502
mètre	-10.5507
▁1973	-10.5513
▁benjamin	-10.5513
▁chicago	-10.5513
▁impliqué	-10.5513
▁norvège	-10.5513
▁portugais	-10.5513
▁réalisatrice	-10.5513
▁danemark	-10.5513
▁modifié	-10.5513
▁suivre	-10.5513
▁toronto	-10.5513
▁disparu	-10.5513
▁pixel	-10.5513
▁secret	-10.5513
▁sqn	-10.5513
▁vierge	-10.5513
ouragan	-10.5514
▁matériaux	-10.5514
toire	-10.5515
▁âgée	-10.5516
▁imprimé	-10.5517
▁score	-10.5519
▁volley	-10.5519
▁1789	-10.552
▁officiers	-10.5522
human	-10.5523
lov	-10.5525
▁rond	-10.5528
▁australien	-10.553
▁kir	-10.5534
▁méthodes	-10.5535
▁largeur	-10.5539
▁heure	-10.554
èche	-10.5544
▁dessinée	-10.5545
niste	-10.5545
▁extérieur	-10.5546
▁urbain	-10.5548
▁anniversaire	-10.5554
édifice	-10.5556
▁ciel	-10.5556
aujourd	-10.5557
hard	-10.5557
▁constituée	-10.5558
zen	-10.5559
avance	-10.5563
▁rares	-10.5563
▁antonio	-10.5563
▁kim	-10.5572
▁georg	-10.5578
inger	-10.5583
▁cartes	-10.5585
▁arrière	-10.5588
▁rôles	-10.5594
genre	-10.56
▁raisons	-10.5609
ovi	-10.5612
ipp	-10.5615
▁métrage	-10.5616
▁inscription	-10.5616
▁véhicules	-10.5641
▁porter	-10.5644
▁polonaise	-10.5645
▁étrangères	-10.5648
▁sang	-10.5651
▁victoires	-10.5652
▁mines	-10.5653
agir	-10.5665
▁détruite	-10.5669
atant	-10.5672
▁communications	-10.569
▁brut	-10.5692
▁pages	-10.5702
▁indien	-10.5706
nic	-10.5708
▁tenue	-10.5713
lem	-10.5714
get	-10.5716
▁élection	-10.572
rue	-10.5721
formant	-10.5721
▁fac	-10.5721
▁retourner	-10.5723
démocrate	-10.5725
▁catalogue	-10.5725
▁domicile	-10.5725
▁palmarès	-10.5725
▁partenariat	-10.5725
▁signature	-10.5725
▁souterrain	-10.5725
▁succession	-10.5725
▁théorème	-10.5725
▁barrington	-10.5725
▁stephen	-10.5725
achève	-10.5725
▁management	-10.5725
▁composant	-10.5725
▁shogi	-10.5725
▁existant	-10.5725
▁signaux	-10.5725
▁commissaire	-10.5726
▁fresque	-10.5726
▁photographe	-10.5726
▁1936	-10.5727
▁1934	-10.5727
▁léger	-10.5727
▁approuvé	-10.5728
▁forcé	-10.5728
▁francisco	-10.5729
▁vivre	-10.573
écoule	-10.5731
▁entouré	-10.5734
▁potentiel	-10.574
▁distances	-10.5742
▁batt	-10.5745
▁restant	-10.5746
ilité	-10.5746
établir	-10.5751
▁hospital	-10.5753
▁original	-10.5756
▁victoria	-10.5759
▁éducation	-10.576
▁aires	-10.577
journal	-10.5775
nz	-10.5782
▁fau	-10.5782
▁convention	-10.579
▁salaire	-10.5792
▁africaine	-10.5802
▁informatique	-10.5809
long	-10.5811
▁allemandes	-10.582
▁murs	-10.5825
▁mora	-10.5826
fait	-10.5829
▁irlandaise	-10.5831
▁européennes	-10.5837
▁card	-10.5842
▁chose	-10.5845
ouvre	-10.5846
▁argentine	-10.5847
▁hotel	-10.5851
▁calcul	-10.5853
▁meilleures	-10.5857
▁grandi	-10.5866
▁qualifié	-10.5875
enregistrement	-10.5878
usage	-10.5879
omo	-10.588
▁hm	-10.5885
▁salles	-10.5885
▁stor	-10.5889
▁parole	-10.5897
▁cher	-10.59
erson	-10.5908
alisé	-10.5909
▁placée	-10.591
▁sports	-10.5911
▁municipal	-10.5916
▁citoyens	-10.5921
▁unité	-10.5923
▁territoires	-10.5927
▁bul	-10.5928
▁bassins	-10.5936
▁rassembl	-10.5936
▁chœur	-10.5943
▁conscience	-10.5943
▁disputé	-10.5943
▁syndicat	-10.5943
utrecht	-10.5943
▁vladimir	-10.5943
▁archives	-10.5943
▁sentiment	-10.5943
▁jazz	-10.5943
▁traduit	-10.5943
▁converti	-10.5943
▁adopte	-10.5943
▁répand	-10.5944
▁contribution	-10.5944
▁sauf	-10.5944
▁acheté	-10.5944
▁secours	-10.5945
▁1911	-10.5945
▁tombé	-10.5945
▁soutenir	-10.5946
▁morceau	-10.5948
▁planches	-10.5948
habitation	-10.5954
▁apporte	-10.5958
▁đ	-10.5964
▁arrivé	-10.5967
bury	-10.5968
ose	-10.5969
▁climatique	-10.5969
▁appr	-10.5971
▁bleu	-10.5979
▁témoigne	-10.599
▁sociétés	-10.599
▁opérationnelle	-10.5992
▁matin	-10.5993
▁colonel	-10.5998
çant	-10.5998
!"	-10.5999
gang	-10.5999
▁voitures	-10.6004
▁doute	-10.6014
▁(3	-10.6016
▁exclu	-10.6016
▁2006.	-10.6016
▁mcc	-10.6017
▁désir	-10.6019
▁gain	-10.6027
▁catégories	-10.6037
▁africain	-10.6044
sign	-10.6044
▁mono	-10.6048
▁utilisation	-10.6055
▁table	-10.6061
▁terminé	-10.6073
▁secondaire	-10.6081
▁juif	-10.6084
▁ken	-10.6087
▁biens	-10.6088
▁parent	-10.609
▁portes	-10.6096
chen	-10.6108
▁hautes	-10.6113
▁bénéfici	-10.6118
slav	-10.6121
▁conform	-10.6124
▁servir	-10.6135
▁sun	-10.6148
▁détenus	-10.615
iu	-10.615
export	-10.6151
▁tan	-10.6156
▁géo	-10.6159
araignées	-10.6165
égypte	-10.6165
▁barcelone	-10.6165
▁lautenbacher	-10.6165
▁montpellier	-10.6165
▁phénomène	-10.6165
▁procureur	-10.6165
▁renaissance	-10.6165
▁financier	-10.6165
▁vicomte	-10.6165
▁révélé	-10.6165
▁maxime	-10.6165
▁nationaux	-10.6165
▁toponyme	-10.6165
▁constantin	-10.6165
▁trait	-10.6165
innovation	-10.6166
▁patrick	-10.6166
▁norme	-10.6167
avenue	-10.6167
▁lie	-10.6167
▁week	-10.6167
▁show	-10.6167
▁escadrons	-10.6169
▁fourniss	-10.617
ł	-10.6171
▁prieuré	-10.6175
▁roland	-10.6178
▁bombe	-10.6179
roch	-10.618
▁bell	-10.6181
bat	-10.6181
▁rappelle	-10.6183
wick	-10.6184
▁soirée	-10.6185
▁millier	-10.6186
▁tab	-10.6189
▁rod	-10.619
▁naval	-10.6198
▁changements	-10.6204
▁varie	-10.6207
▁porto	-10.6212
▁poursuivr	-10.6217
▁davantage	-10.6221
africain	-10.6222
oxford	-10.6222
allemand	-10.6223
jacques	-10.6224
▁natale	-10.6228
▁déclin	-10.6237
▁blessés	-10.6238
nny	-10.6243
▁kon	-10.6252
▁candidate	-10.626
▁subs	-10.626
cell	-10.6266
aucun	-10.6267
▁moyens	-10.6271
▁your	-10.6271
▁%)	-10.6274
▁gor	-10.6276
▁ouvrières	-10.628
▁roua	-10.628
▁mouvements	-10.6285
anime	-10.6286
▁multip	-10.63
▁étape	-10.6302
▁rapporte	-10.6306
!	-10.6307
▁collections	-10.6307
▁technologies	-10.6314
color	-10.6315
▁présenter	-10.6319
»)	-10.632
▁travailla	-10.6323
▁queen	-10.6325
▁démon	-10.633
▁quitter	-10.633
▁rad	-10.6333
▁var	-10.6338
issement	-10.634
édit	-10.6341
comme	-10.6343
▁restent	-10.6352
▁plante	-10.6357
▁bretagne	-10.6361
▁bus	-10.6366
mac	-10.6369
▁publiés	-10.637
▁concerts	-10.6376
▁légère	-10.6377
▁duché	-10.6379
vaux	-10.6379
▁dirigeants	-10.6384
essentiel	-10.6385
▁remplace	-10.6385
alph	-10.6386
▁employés	-10.6387
▁gold	-10.639
inf	-10.6392
ș	-10.6392
▁athlète	-10.6392
▁fellow	-10.6392
▁récemment	-10.6392
▁successive	-10.6392
▁témoin	-10.6392
▁virginie	-10.6392
épaisseur	-10.6392
▁commémor	-10.6392
▁diffuse	-10.6392
▁remportant	-10.6392
▁efforts	-10.6392
▁rédaction	-10.6392
▁calabre	-10.6392
▁offert	-10.6392
eurovision	-10.6393
▁abandonné	-10.6393
▁1928	-10.6394
▁1931	-10.6394
▁doyen	-10.6394
▁1932	-10.6394
▁missionnaire	-10.6395
▁fermeture	-10.6395
amiral	-10.6395
▁conservateur	-10.6395
▁témoignage	-10.6396
▁capture	-10.6397
▁colline	-10.6397
▁bag	-10.6398
▁souvenir	-10.64
▁exige	-10.6401
▁press	-10.6401
▁revues	-10.6403
▁vague	-10.6405
▁expériment	-10.6407
witz	-10.6409
▁algérien	-10.6409
▁musiciens	-10.6412
▁glo	-10.6414
assistance	-10.6414
▁extrait	-10.642
▁alexander	-10.6422
▁catherine	-10.6426
saxon	-10.6429
▁finances	-10.643
▁estimé	-10.6434
alger	-10.6438
▁déroulement	-10.6438
▁morale	-10.6442
évolution	-10.6451
événement	-10.6454
▁wall	-10.6455
siège	-10.6457
temps	-10.6457
▁avions	-10.6468
finale	-10.6468
-16	-10.6472
ua	-10.6476
vocation	-10.6478
▁élisabeth	-10.6479
▁réside	-10.6481
▁notes	-10.6482
▁nin	-10.6485
dge	-10.649
▁center	-10.6492
▁vincent	-10.6493
▁universitaires	-10.6493
▁parler	-10.6498
▁utilisées	-10.6499
more	-10.6499
▁habit	-10.6508
▁paroles	-10.6508
▁publier	-10.6509
▁cesse	-10.6515
▁exposé	-10.6528
▁dérivé	-10.653
▁pourtant	-10.6533
▁soi	-10.6535
▁termin	-10.6538
▁personnalité	-10.6541
▁collègues	-10.6548
▁touche	-10.6549
rand	-10.6561
▁autant	-10.6565
▁sk	-10.6565
▁pasteur	-10.6574
▁jon	-10.6576
▁remplacée	-10.6588
gramm	-10.6589
▁divisée	-10.6599
▁participants	-10.6602
▁iso	-10.6604
▁déplace	-10.661
▁récente	-10.6611
▁extérieure	-10.6621
aboli	-10.6624
amirauté	-10.6625
▁diplomate	-10.6625
▁péninsule	-10.6625
▁suédois	-10.6625
▁youtube	-10.6625
ukraine	-10.6625
▁implanté	-10.6625
▁résumé	-10.6625
morphes	-10.6625
pseudocleobis	-10.6625
▁forestière	-10.6625
▁chimie	-10.6625
▁feuilles	-10.6625
incident	-10.6625
islam	-10.6625
▁1923	-10.6626
▁tendance	-10.6626
▁1944	-10.6627
▁découvrir	-10.6627
▁fixé	-10.6628
▁eff	-10.6628
▁violence	-10.6628
▁donnant	-10.6628
ménage	-10.6628
▁interdit	-10.6628
▁continentale	-10.6629
▁terrestre	-10.6631
bur	-10.6632
▁patron	-10.6632
emporte	-10.6634
▁affirm	-10.6635
▁1870	-10.6636
▁mairie	-10.6638
▁destination	-10.6639
atlas	-10.6644
▁complètement	-10.6646
nick	-10.665
▁visage	-10.665
▁classiques	-10.6651
épi	-10.6655
▁hart	-10.6655
▁diplomatiques	-10.6655
▁name	-10.6656
▁viii	-10.666
▁modernis	-10.6662
▁capable	-10.6668
tisme	-10.667
▁employa	-10.6671
anda	-10.6672
▁associations	-10.6676
▁maurice	-10.6676
▁assemblée	-10.6678
▁références	-10.6678
▁industrielle	-10.6687
▁donnée	-10.6687
▁tués	-10.669
bah	-10.6691
altitude	-10.6694
enquête	-10.6694
anglais	-10.6695
▁ordres	-10.6699
tical	-10.6706
▁paraît	-10.6707
▁quotidienne	-10.6709
king	-10.6727
▁soul	-10.6727
pie	-10.6728
appelle	-10.6728
▁émission	-10.6736
▁rub	-10.674
oppose	-10.6742
▁erreur	-10.6742
fils	-10.6744
▁lancer	-10.6748
isson	-10.6748
▁gala	-10.675
▁aéroport	-10.6754
▁associée	-10.6755
vet	-10.676
▁maladies	-10.6781
▁blessé	-10.6785
open	-10.6786
▁gens	-10.6795
▁objectif	-10.6799
▁150	-10.6808
▁rencontrent	-10.6808
▁opérationnel	-10.6811
voie	-10.6818
▁portraits	-10.6826
▁stra	-10.683
▁vin	-10.6833
▁acceptée	-10.6837
▁supplémentaires	-10.6839
▁dj	-10.6849
main	-10.6852
▁volant	-10.6854
▁mol	-10.6859
▁protest	-10.6861
immobilier	-10.6863
▁constructeur	-10.6863
▁conséquent	-10.6863
▁météorologique	-10.6863
▁périodique	-10.6863
▁scénario	-10.6863
▁toupouri	-10.6863
▁waiouru	-10.6863
artillerie	-10.6863
▁progrès	-10.6863
▁tokyo	-10.6863
▁pionnier	-10.6863
▁bunker	-10.6863
▁restauré	-10.6863
guer	-10.6863
▁firme	-10.6863
▁menacé	-10.6863
▁nikolaï	-10.6864
▁militante	-10.6864
▁reconstruction	-10.6865
▁1927	-10.6865
▁routier	-10.6865
▁serbe	-10.6865
▁correspondance	-10.6866
▁générique	-10.6869
▁josé	-10.6869
▁individuel	-10.6871
▁raven	-10.6871
▁artificielle	-10.6872
intelligence	-10.6872
▁contribué	-10.6878
▁motifs	-10.6879
▁remise	-10.688
▁forum	-10.6882
abri	-10.6888
▁"".	-10.6894
ario	-10.6895
▁vieille	-10.6901
▁brigade	-10.6902
▁250	-10.6904
▁box	-10.6913
▁terr	-10.6922
▁compétitions	-10.6925
▁honneur	-10.6927
▁choisit	-10.6928
▁session	-10.6931
▁images	-10.6935
▁design	-10.6937
▁éviter	-10.6938
échange	-10.6939
occidentale	-10.694
uki	-10.6941
▁distingu	-10.6941
▁dire	-10.6942
chon	-10.6948
▁réelle	-10.6949
euro	-10.6954
▁mathématiciens	-10.6959
▁rencontrer	-10.6962
▁événement	-10.6962
▁mart	-10.6971
▁inconnue	-10.6977
▁buts	-10.698
applique	-10.6985
▁vietnamien	-10.699
▁bruno	-10.6999
iran	-10.6999
▁32	-10.7012
▁réservé	-10.7012
▁types	-10.7015
offre	-10.702
▁avion	-10.7031
▁acqui	-10.7037
▁36	-10.7039
▁chaud	-10.7044
▁cache	-10.7049
pot	-10.7053
rico	-10.7053
▁fondateurs	-10.7055
ixième	-10.7055
▁édifice	-10.7057
existe	-10.7058
olog	-10.7059
▁hunt	-10.7067
chou	-10.7069
▁attribuée	-10.707
▁charte	-10.7083
▁théologie	-10.7088
▁évalu	-10.709
▁régulière	-10.7093
ost	-10.7095
▁remis	-10.7096
tropical	-10.7103
▁retire	-10.7103
cultur	-10.7105
pprovisionnement	-10.7107
▁1903	-10.7107
▁architectural	-10.7107
▁delbrouck	-10.7107
▁frédéric	-10.7107
▁grève	-10.7107
▁jérusalem	-10.7107
▁ouvrier	-10.7107
▁relève	-10.7107
▁résistant	-10.7107
▁stratégique	-10.7107
▁alfred	-10.7107
▁chronique	-10.7107
▁plastique	-10.7107
▁déroulé	-10.7107
▁révolte	-10.7107
▁deviendra	-10.7107
▁géologique	-10.7107
▁trophée	-10.7107
▁petrescu	-10.7107
▁orbite	-10.7107
▁gymnastique	-10.7107
▁nicolae	-10.7107
▁desservi	-10.7108
▁parvient	-10.7108
▁1901	-10.7108
▁héros	-10.7109
▁brown	-10.7109
▁1917	-10.7109
▁noblesse	-10.7111
hof	-10.7111
▁planète	-10.7112
▁franchise	-10.7112
▁focal	-10.7113
▁atteign	-10.7115
▁cavan	-10.7115
▁alain	-10.7117
▁désert	-10.7118
▁concentration	-10.7119
autorisation	-10.7123
▁aider	-10.7127
delà	-10.7128
▁dames	-10.7131
▁entraîné	-10.7141
▁productions	-10.7141
▁conservée	-10.7148
aria	-10.7154
▁franchi	-10.7162
▁médailles	-10.7165
day	-10.7169
▁roll	-10.7175
▁inférieur	-10.7178
▁abouti	-10.718
laire	-10.7181
accueil	-10.7188
international	-10.7189
éditeur	-10.7191
istan	-10.7196
▁american	-10.7199
▁moto	-10.7202
▁correspondant	-10.7202
▁east	-10.7204
rach	-10.7206
point	-10.7206
alter	-10.7211
▁thèmes	-10.7222
▁poursuivi	-10.7223
▁tourné	-10.7226
▁annuelle	-10.723
▁propriétaires	-10.7231
▁joan	-10.7232
▁brique	-10.7232
▁réfugiés	-10.7241
▁échec	-10.7245
▁aragon	-10.7245
cast	-10.7247
mort	-10.7249
▁mm	-10.7252
6)	-10.7254
▁lié	-10.7254
▁vous	-10.7258
▁voisin	-10.7262
bilis	-10.7264
illard	-10.7266
▁éditeur	-10.7276
▁honor	-10.7288
▁conséquence	-10.7292
▁oxford	-10.7293
▁arrivée	-10.73
▁spa	-10.73
_2	-10.73
▁dessins	-10.7302
▁rio	-10.7303
▁hauts	-10.7314
▁difficultés	-10.7315
▁monté	-10.7328
▁fen	-10.7332
roi	-10.7346
ên	-10.7352
haïti	-10.7355
algorithme	-10.7357
ascension	-10.7357
azerbaïdjan	-10.7357
effondrement	-10.7357
encyclopédie	-10.7357
pétersbourg	-10.7357
▁conférencier	-10.7357
▁constantinople	-10.7357
▁dostoïevski	-10.7357
▁genève	-10.7357
▁philharmoni	-10.7357
▁sculpteur	-10.7357
▁tacuara	-10.7357
▁textile	-10.7357
▁blessure	-10.7357
▁bucarest	-10.7357
▁taylor	-10.7357
▁collecte	-10.7357
▁décerné	-10.7357
▁museum	-10.7357
▁fouilles	-10.7357
▁retenu	-10.7357
▁anonyme	-10.7358
▁confié	-10.7358
australia	-10.7358
▁tension	-10.7358
▁contenant	-10.7358
▁renonc	-10.7359
examen	-10.7359
▁charbon	-10.7359
▁cancer	-10.736
duction	-10.736
▁protestante	-10.7361
▁blue	-10.7363
▁enregistrements	-10.7363
▁béton	-10.7364
▁sortir	-10.7367
▁norvégienne	-10.7368
▁profondeur	-10.7369
▁biais	-10.7369
▁audio	-10.7372
▁tend	-10.7375
échapper	-10.7378
▁vivent	-10.7379
▁ruth	-10.7381
circul	-10.7382
▁représenter	-10.7383
terminant	-10.7384
▁pascal	-10.7387
▁habitat	-10.7389
▁veille	-10.7394
▁centr	-10.7394
huit	-10.7398
▁revenir	-10.7402
▁sexe	-10.7404
▁congo	-10.7407
▁pod	-10.741
▁quoi	-10.7413
▁niagara	-10.7416
émetteur	-10.7419
▁tang	-10.7421
▁poursuite	-10.7421
bilité	-10.7425
▁intérieure	-10.7427
▁wid	-10.7431
▁thu	-10.7431
également	-10.7433
▁paroisses	-10.7434
épisode	-10.7444
historien	-10.7444
aix	-10.7446
▁comport	-10.7449
▁tim	-10.745
▁image	-10.7456
▁écosse	-10.7462
▁35	-10.7463
▁quai	-10.747
▁héritage	-10.7473
optique	-10.7481
série	-10.7485
▁missiles	-10.7487
kaya	-10.7489
▁dimensions	-10.749
escu	-10.7505
▁fall	-10.7513
▁prête	-10.7515
▁demander	-10.7516
▁épreuve	-10.7522
▁dos	-10.7526
▁représentée	-10.7527
two	-10.7535
▁kn	-10.7537
▁oppose	-10.7543
bridge	-10.7548
▁méditerranée	-10.7549
▁mel	-10.7554
aqua	-10.7555
▁rab	-10.7564
▁défenseur	-10.7564
olf	-10.7567
▁extra	-10.7567
▁bouche	-10.7583
▁admis	-10.7588
▁photos	-10.7593
▁mener	-10.7596
▁river	-10.7596
script	-10.7603
ître	-10.7612
▁posséda	-10.7613
effectif	-10.7613
hypothèse	-10.7613
▁académique	-10.7613
▁caricature	-10.7613
▁disparition	-10.7613
▁gonzalez	-10.7613
▁google	-10.7613
▁indigène	-10.7613
▁librairie	-10.7613
▁maximum	-10.7613
▁scrutin	-10.7613
▁territorial	-10.7613
▁téléphonique	-10.7613
▁émirats	-10.7613
dictionnaire	-10.7613
▁bavière	-10.7613
moskota	-10.7613
▁turquie	-10.7613
▁pianiste	-10.7613
▁bourgeois	-10.7613
▁concerné	-10.7613
▁géographique	-10.7613
otrante	-10.7613
▁filiale	-10.7613
▁salmane	-10.7613
incline	-10.7613
▁transmis	-10.7614
▁church	-10.7614
▁rare	-10.7614
interprétation	-10.7614
istanbul	-10.7614
▁dispers	-10.7614
▁barbara	-10.7614
▁batterie	-10.7614
▁prélat	-10.7615
▁1933	-10.7615
▁commença	-10.7616
ink	-10.7617
pk	-10.7617
▁mélange	-10.7617
bach	-10.7617
▁discut	-10.7624
▁subi	-10.7624
▁vendue	-10.7626
▁chalet	-10.7631
▁humaines	-10.7632
▁présentent	-10.7632
▁publicité	-10.7632
▁commando	-10.7634
loire	-10.7639
▁tenant	-10.7639
▁manson	-10.7645
intégrer	-10.7649
mag	-10.7661
▁vertu	-10.7665
▁laisser	-10.7671
▁pieds	-10.7675
omsk	-10.7679
▁oncle	-10.768
▁rich	-10.7681
▁voisins	-10.7682
ogne	-10.7684
ovitch	-10.7685
▁semi	-10.7687
émir	-10.7692
▁300	-10.7692
▁électorale	-10.7697
▁représentent	-10.7701
▁axe	-10.7704
▁champions	-10.7706
impact	-10.7707
▁forment	-10.7709
étaient	-10.7709
▁wei	-10.7711
▁épiscopale	-10.772
▁costa	-10.7723
tron	-10.7725
▁peuples	-10.7735
▁tube	-10.7737
▁proposé	-10.7737
bord	-10.7738
▁destinée	-10.7744
▁renouvel	-10.7746
▁jama	-10.7759
▁peintures	-10.7762
▁retrait	-10.7763
udi	-10.7764
▁assiste	-10.777
acre	-10.7771
▁indiqu	-10.7778
▁nécessaires	-10.7787
▁roumaine	-10.7796
▁rangs	-10.78
▁fera	-10.7816
▁légal	-10.7826
▁bleue	-10.784
▁nan	-10.7844
▁mah	-10.7849
raw	-10.7849
▁manga	-10.785
head	-10.7852
▁réel	-10.7853
illage	-10.7858
hôte	-10.7862
▁technologiques	-10.7868
acte	-10.7876
▁accède	-10.7876
northumberland	-10.7876
▁academy	-10.7876
▁administratif	-10.7876
▁campbell	-10.7876
▁dispositif	-10.7876
▁dévoilé	-10.7876
▁exclusivement	-10.7876
▁margaret	-10.7876
▁mouromski	-10.7876
▁négociation	-10.7876
▁provisoire	-10.7876
▁slalom	-10.7876
▁symphonique	-10.7876
▁tyrwhitt	-10.7876
▁électronique	-10.7876
▁harvard	-10.7876
▁intervient	-10.7876
▁ordonne	-10.7876
▁oiseaux	-10.7877
▁assassiné	-10.7878
▁comprennent	-10.7878
▁dotation	-10.7878
▁1941	-10.7878
▁1907	-10.7878
▁transmission	-10.7878
▁1921	-10.7878
▁pensée	-10.7879
▁définition	-10.7882
▁visiteurs	-10.7883
▁appareils	-10.7884
▁jeff	-10.7885
▁space	-10.7885
▁connaissances	-10.7888
▁fur	-10.7892
▁olive	-10.7892
▁nazis	-10.7893
▁risques	-10.7897
▁hugo	-10.7898
▁entré	-10.7898
▁ailes	-10.7899
ship	-10.7902
▁agents	-10.7903
▁future	-10.7905
▁institutionnel	-10.7906
▁enregistrée	-10.7907
germain	-10.7908
▁ford	-10.7909
yama	-10.7912
nch	-10.7912
▁danois	-10.7912
▁footballeur	-10.7913
▁propriétés	-10.7915
alan	-10.7919
stad	-10.7923
▁plu	-10.7929
▁repose	-10.7931
▁tv	-10.7936
▁cfl	-10.7936
lumin	-10.7937
▁comprendre	-10.7938
▁raie	-10.7941
ndra	-10.7942
orange	-10.7945
▁extension	-10.7948
▁secteurs	-10.795
▁réduit	-10.7955
▁fortune	-10.7956
▁améliore	-10.7957
▁wu	-10.796
▁eric	-10.7961
▁consacrée	-10.7961
ensis	-10.7966
▁ambassadeur	-10.7966
▁jaune	-10.7981
britannique	-10.7981
▁amie	-10.7981
▁calculée	-10.7988
ute	-10.799
internement	-10.801
▁cop	-10.8011
▁joe	-10.8014
rose	-10.8028
▁48	-10.8042
feld	-10.8044
▁prêté	-10.805
▁humains	-10.8053
cola	-10.8057
▁coule	-10.8066
▁blocs	-10.8078
▁poli	-10.808
▁chercheurs	-10.8081
over	-10.8091
sous	-10.8094
▁fleur	-10.8103
▁centaine	-10.8104
cio	-10.8104
▁commencent	-10.8105
▁maha	-10.8109
▁chen	-10.811
▁loire	-10.8122
▁navale	-10.8122
▁étages	-10.8124
▁finance	-10.8128
enfants	-10.8131
amas	-10.8135
ład	-10.8139
initi	-10.814
écrit	-10.8142
ower	-10.8143
stitué	-10.8143
rhabdosynochus	-10.8147
▁algébrique	-10.8147
▁banlieue	-10.8147
▁déterminé	-10.8147
▁efficace	-10.8147
▁hastings	-10.8147
▁interview	-10.8147
▁judiciaire	-10.8147
▁médaillé	-10.8147
▁occitanie	-10.8147
▁réputé	-10.8147
▁séparation	-10.8147
▁transformation	-10.8147
▁varsovie	-10.8147
introduction	-10.8147
▁démographie	-10.8147
▁opposé	-10.8147
▁promenade	-10.8147
▁métropole	-10.8147
▁strasbourg	-10.8147
▁worden	-10.8147
▁samuel	-10.8147
▁volonté	-10.8147
▁sauvage	-10.8147
▁chanoine	-10.8147
worth	-10.8147
opinion	-10.8147
▁produisa	-10.8147
▁catholicisme	-10.8147
▁césar	-10.8147
▁traduction	-10.8147
▁clark	-10.8148
▁souligne	-10.8148
▁1908	-10.8148
▁montée	-10.8148
▁panneaux	-10.8149
▁1925	-10.8149
▁marquant	-10.815
▁tropicale	-10.8151
▁gunn	-10.8151
tín	-10.8153
▁breton	-10.8155
▁joint	-10.8155
mener	-10.8157
▁percy	-10.8157
▁ballet	-10.8162
▁hugh	-10.8162
▁montré	-10.8163
▁marais	-10.8164
▁médicale	-10.8167
▁démission	-10.817
▁écout	-10.8172
▁variétés	-10.8173
▁tableaux	-10.8176
▁prévoi	-10.8181
garonne	-10.8184
▁définit	-10.8184
▁déterminer	-10.8187
▁eve	-10.8189
hawk	-10.8191
urban	-10.8197
▁falls	-10.8202
▁souche	-10.8205
▁life	-10.8207
▁ier	-10.8211
acide	-10.8218
▁occupa	-10.8219
▁orchestre	-10.822
▁continué	-10.823
shin	-10.8233
▁inaugurée	-10.824
▁pair	-10.8248
▁écrivains	-10.8249
fried	-10.8251
expérience	-10.8253
▁étapes	-10.8255
effet	-10.8257
martin	-10.8259
▁faune	-10.8261
▁signalé	-10.8261
▁vii	-10.8267
▁exil	-10.827
▁entame	-10.827
▁limité	-10.8278
vic	-10.829
▁carl	-10.8294
▁ein	-10.8299
▁paire	-10.8304
seine	-10.8307
▁brûlé	-10.8315
▁permanente	-10.8316
▁relié	-10.8316
far	-10.8319
wig	-10.8319
▁diplômée	-10.832
ark	-10.8329
alice	-10.8342
▁ky	-10.8343
light	-10.8344
hov	-10.8352
▁opération	-10.8353
nouvelle	-10.8373
▁commandée	-10.8376
▁élément	-10.8379
▁wood	-10.8386
▁diplomatique	-10.8388
▁actuelles	-10.8401
▁peinte	-10.8414
▁remplacer	-10.8414
escadron	-10.8419
exercice	-10.8424
instruction	-10.8424
▁corporation	-10.8424
▁identifiant	-10.8424
▁pavillon	-10.8424
▁perspective	-10.8424
▁recrute	-10.8424
▁sédimentaire	-10.8424
▁éliminatoires	-10.8424
▁éliminé	-10.8424
▁manifeste	-10.8424
▁ordonné	-10.8424
▁bientôt	-10.8424
▁complément	-10.8424
▁wellington	-10.8424
assurance	-10.8424
▁prussien	-10.8424
▁gravure	-10.8425
▁dénonce	-10.8425
▁bueno	-10.8425
▁project	-10.8425
▁véron	-10.8425
oblige	-10.8426
▁commis	-10.8426
▁andrea	-10.8426
▁vélo	-10.8426
▁symbole	-10.8426
empare	-10.8427
▁supporters	-10.8427
▁certificat	-10.8427
▁rapproche	-10.8428
▁1910	-10.8428
▁déverse	-10.8429
▁métropolitain	-10.8431
ouvoir	-10.8435
albanie	-10.8437
▁défendre	-10.8438
exerça	-10.8438
▁pié	-10.8438
▁adel	-10.8443
▁team	-10.8448
▁parallèlement	-10.8449
▁sombre	-10.8449
▁exact	-10.845
deutsche	-10.845
▁strat	-10.8454
amende	-10.8455
▁barbe	-10.8455
▁voisine	-10.8456
▁augmente	-10.8469
▁dédié	-10.8475
▁marathon	-10.8475
éric	-10.8483
andre	-10.8484
▁drapeau	-10.8491
▁incendie	-10.8505
▁qualifi	-10.8509
▁caractérisé	-10.8513
▁free	-10.8517
▁cup	-10.8517
ingénieur	-10.8538
inscrit	-10.854
écrire	-10.8541
annonce	-10.8542
investi	-10.8543
▁expédition	-10.8544
office	-10.8544
▁tâ	-10.8545
▁subit	-10.8546
▁alimentée	-10.8548
zan	-10.8548
occuper	-10.8549
▁"(	-10.8554
▁choses	-10.8555
▁vietnam	-10.856
▁approche	-10.8563
▁mak	-10.8575
rve	-10.8578
▁externes	-10.8588
▁métal	-10.8594
▁partisans	-10.8597
▁poissons	-10.8597
montre	-10.8604
▁38	-10.8605
hop	-10.861
▁indiqué	-10.8611
ido	-10.8614
▁hou	-10.8616
▁kan	-10.8628
anti	-10.8635
nova	-10.8635
▁corne	-10.8637
▁dresse	-10.866
▁revi	-10.8671
▁spatial	-10.8671
exprim	-10.8676
mark	-10.868
▁soldat	-10.8685
accept	-10.8693
▁agent	-10.8695
▁band	-10.8699
espoir	-10.8705
▁ressort	-10.871
▁consécutive	-10.871
▁délégation	-10.871
▁détention	-10.871
▁heinrich	-10.871
▁jersey	-10.871
▁reconstruit	-10.871
▁relégué	-10.871
▁répertoire	-10.871
▁tempête	-10.871
▁costume	-10.871
▁cuisine	-10.871
▁favorable	-10.871
▁précoce	-10.871
électeur	-10.871
▁berbère	-10.871
▁gagnant	-10.871
▁cricket	-10.871
▁gagné	-10.871
▁linéaire	-10.871
aranéo	-10.871
▁délivr	-10.871
▁cumul	-10.871
▁muraille	-10.871
▁fernand	-10.871
▁renommée	-10.8711
▁arbres	-10.8711
▁protestants	-10.8711
▁grotte	-10.8711
▁brevet	-10.8711
▁sarah	-10.8712
▁grossesse	-10.8712
▁revend	-10.8712
▁douce	-10.8714
▁saisi	-10.8714
▁transforme	-10.8714
▁honoraire	-10.8715
▁réduction	-10.8715
▁biologique	-10.8715
▁tsar	-10.8717
▁provien	-10.8719
▁visuel	-10.872
intégration	-10.872
▁gamme	-10.872
▁1886	-10.872
▁pluie	-10.8721
▁sénat	-10.8722
▁maîtresse	-10.8722
shift	-10.8723
▁clairement	-10.8727
▁étrangers	-10.8727
▁rival	-10.8729
importe	-10.8729
▁exploite	-10.8731
▁domination	-10.8732
▁coupable	-10.8735
servent	-10.8736
ût	-10.8737
▁uci	-10.8739
étienne	-10.8755
▁affaire	-10.8758
▁conserver	-10.8764
▁mario	-10.8765
▁neuvième	-10.8768
▁ballon	-10.8772
▁prime	-10.8773
▁gallois	-10.8775
▁fig	-10.8778
▁yeux	-10.8782
▁transférée	-10.8789
alys	-10.8791
▁faute	-10.8792
▁armé	-10.8806
▁saoudienne	-10.8814
andré	-10.8815
▁achevé	-10.8831
ucci	-10.8833
▁coupé	-10.8834
officier	-10.8835
avocat	-10.8835
▁inscrite	-10.8836
michel	-10.8837
▁habituelle	-10.8837
▁fiction	-10.8843
▁universités	-10.8844
marker	-10.8845
▁départemental	-10.8847
▁recueilli	-10.8853
▁musicien	-10.8854
infirmière	-10.8856
alexandre	-10.8858
▁intervention	-10.8858
▁asie	-10.8873
▁rai	-10.8881
oba	-10.8884
▁marquée	-10.8908
▁gagner	-10.8909
▁emprunt	-10.891
▁clients	-10.8937
▁corn	-10.8948
ulent	-10.895
▁rico	-10.8954
▁resta	-10.8956
équipement	-10.896
▁casa	-10.8963
▁suivie	-10.8966
▁manifestations	-10.8966
inde	-10.8972
allant	-10.8975
bois	-10.8992
▁motif	-10.8995
▁démoli	-10.9003
▁reprodui	-10.9004
▁2017-2018	-10.9004
▁budget	-10.9004
▁compagnon	-10.9004
▁divorce	-10.9004
▁emprisonné	-10.9004
▁lancastre	-10.9004
▁mauritanie	-10.9004
▁mikhaïl	-10.9004
▁musulmans	-10.9004
▁solidarité	-10.9004
▁sphinx	-10.9004
▁syndical	-10.9004
▁vêtement	-10.9004
▁financé	-10.9004
▁germano	-10.9004
▁spirituel	-10.9004
▁raymond	-10.9004
▁maintenu	-10.9004
▁naturalis	-10.9004
▁connect	-10.9004
▁occidentaux	-10.9004
▁illustrations	-10.9004
▁bénin	-10.9004
▁diamètre	-10.9004
▁réclam	-10.9004
▁variation	-10.9004
▁incarne	-10.9005
alimentation	-10.9005
▁draft	-10.9005
▁assuré	-10.9005
▁united	-10.9005
▁changé	-10.9005
vènement	-10.9005
▁préfère	-10.9005
▁partagé	-10.9005
▁phú	-10.9005
▁1904	-10.9006
▁goût	-10.9006
▁sanction	-10.9008
▁subsiste	-10.9008
▁poétique	-10.9009
▁touristique	-10.9009
▁young	-10.901
▁moulin	-10.901
▁durable	-10.901
▁rachet	-10.901
accent	-10.901
ouloir	-10.9012
▁hersch	-10.9013
▁envahi	-10.9013
▁niger	-10.9014
▁voulai	-10.9015
▁jury	-10.902
▁1850	-10.9024
▁vel	-10.9024
▁amené	-10.9025
▁violent	-10.9029
▁remplacement	-10.9031
▁précéd	-10.9031
arlh	-10.9034
▁autrichienne	-10.9037
▁renom	-10.9038
▁divisé	-10.9038
▁jones	-10.9044
roux	-10.9047
▁ségovie	-10.9048
▁lampe	-10.9055
antenne	-10.906
▁hind	-10.906
▁ordinateur	-10.9063
▁exemplaires	-10.9063
▁émile	-10.9074
valin	-10.9086
huile	-10.9112
▁antique	-10.9113
ygène	-10.9114
▁opérateur	-10.9123
organiser	-10.913
échec	-10.9138
joseph	-10.9139
rivière	-10.9139
aragon	-10.914
arabe	-10.914
abbé	-10.9145
▁fermé	-10.9147
frère	-10.9149
▁stage	-10.9151
utiliser	-10.9155
actuelle	-10.916
▁intermédiaire	-10.9162
ajoute	-10.9168
▁montant	-10.9173
▁francophones	-10.9178
▁changer	-10.9179
attract	-10.919
aller	-10.9196
▁restée	-10.9203
▁nef	-10.9203
▁inauguré	-10.9203
odes	-10.9207
▁règles	-10.9208
explorer	-10.9218
▁esc	-10.9222
▁évolution	-10.9225
▁drain	-10.9228
▁habite	-10.9233
occupe	-10.9234
▁diriger	-10.9247
voyer	-10.9258
iano	-10.9259
issi	-10.9262
▁ten	-10.9271
▁opposition	-10.9272
▁remet	-10.9274
nale	-10.9276
loi	-10.9277
▁(4	-10.928
lever	-10.9285
occident	-10.9304
éclair	-10.9304
▁contrôlé	-10.9307
▁coopérative	-10.9307
▁fabrication	-10.9307
▁hamilton	-10.9307
▁joachim	-10.9307
▁législature	-10.9307
▁maximale	-10.9307
▁recouvert	-10.9307
▁stéphane	-10.9307
▁sépulture	-10.9307
▁ultérieur	-10.9307
autonomie	-10.9307
▁1897	-10.9307
▁revanche	-10.9307
▁revendication	-10.9307
▁serbie	-10.9307
▁gilbert	-10.9307
▁inhumé	-10.9307
▁tunnel	-10.9307
antiquité	-10.9307
▁réparation	-10.9307
acquisition	-10.9307
▁perturb	-10.9307
▁confondu	-10.9307
isabelle	-10.9307
▁islamique	-10.9308
▁macarthur	-10.9308
implique	-10.9308
▁retard	-10.9308
▁franz	-10.9308
adresse	-10.9308
▁racine	-10.9309
▁maintenir	-10.9309
▁servant	-10.9309
sophie	-10.931
neuve	-10.9311
▁œufs	-10.9311
▁individus	-10.9312
▁1905	-10.9312
▁multiples	-10.9313
▁utilisateurs	-10.9313
▁globe	-10.9314
▁tissu	-10.9314
antarctique	-10.9317
▁1890	-10.9319
▁sénateur	-10.932
▁écrivaine	-10.9323
▁pouvaient	-10.9325
▁claire	-10.9327
▁détient	-10.933
attache	-10.935
▁alternative	-10.9352
▁saxe	-10.9369
▁conjointe	-10.9369
oïde	-10.937
▁ça	-10.9373
▁élargi	-10.9374
tti	-10.9376
▁couche	-10.9378
▁lancée	-10.9394
▁xvi	-10.9396
▁copie	-10.94
▁montrent	-10.9425
▁encourage	-10.9427
▁tarzan	-10.9428
york	-10.9458
▁proposée	-10.9469
▁abbé	-10.9485
▁office	-10.9491
▁sauver	-10.9493
hubert	-10.9494
plan	-10.9497
hochs	-10.9509
▁quelle	-10.9531
▁vincen	-10.954
▁christophe	-10.954
bure	-10.9544
fille	-10.9553
▁refus	-10.9559
▁yann	-10.9565
lyn	-10.9574
▁expert	-10.958
▁rejet	-10.9582
▁puy	-10.9594
▁préside	-10.9595
▁égale	-10.9595
▁participa	-10.9596
yang	-10.9598
▁norvégien	-10.9606
ouvrir	-10.9607
libér	-10.9611
immeuble	-10.9614
▁trésor	-10.9616
▁nordique	-10.9619
littéralement	-10.962
▁apostolique	-10.962
▁boulevard	-10.962
▁brême	-10.962
▁célébration	-10.962
▁dépression	-10.962
▁hresult	-10.962
▁manuscrit	-10.962
▁minorité	-10.962
▁paraguay	-10.962
▁provoque	-10.962
▁pseudonyme	-10.962
▁récompensé	-10.962
▁réflexion	-10.962
▁salisbury	-10.962
▁tarelkine	-10.962
▁taïwan	-10.962
▁épousé	-10.962
▁appartiennent	-10.962
▁autrefois	-10.962
▁cinquante	-10.962
▁dramatique	-10.962
▁foresterie	-10.962
▁guitare	-10.962
▁lombard	-10.962
▁modifie	-10.962
notypique	-10.962
▁attaqué	-10.962
▁chandos	-10.962
▁graphique	-10.962
▁suggère	-10.962
▁descente	-10.962
▁variable	-10.962
▁fruit	-10.962
▁entendu	-10.962
▁remontée	-10.962
inspire	-10.962
▁saillant	-10.962
▁diesel	-10.962
hybride	-10.962
▁somers	-10.962
▁fiscal	-10.962
▁mêl	-10.962
▁réduir	-10.962
abraham	-10.9621
▁interrompu	-10.9621
▁huệ	-10.9621
▁tiré	-10.9622
▁hambourg	-10.9622
▁pacifique	-10.9623
▁1912	-10.9624
▁segments	-10.9624
▁combattant	-10.9625
▁guild	-10.9626
actionnaire	-10.9626
▁apporté	-10.9627
▁quantité	-10.9628
▁macron	-10.9628
▁biologie	-10.9628
▁baisse	-10.9629
▁surmonté	-10.9631
▁plume	-10.9633
▁philipp	-10.9634
mrc	-10.964
oga	-10.9642
▁toiture	-10.9656
▁hip	-10.9659
="	-10.968
▁bouc	-10.969
▁wend	-10.9696
▁institution	-10.9702
coréenne	-10.971
utilis	-10.9718
cross	-10.9719
combe	-10.9729
▁reconnaît	-10.9736
▁grade	-10.9741
américaine	-10.9759
mite	-10.9766
▁kla	-10.9768
▁bet	-10.977
exécution	-10.9772
intermédiaire	-10.9772
pyrénées	-10.9773
parole	-10.9779
▁barreau	-10.9785
▁annoncée	-10.9794
▁bonn	-10.9805
accueillir	-10.9805
▁marins	-10.9808
ird	-10.981
▁exploitée	-10.9839
▁passent	-10.9842
▁align	-10.9844
▁étendue	-10.9855
horn	-10.9895
ajout	-10.992
▁invitée	-10.9921
▁julie	-10.9929
graphie	-10.9934
dieu	-10.9937
▁soupçon	-10.9942
adolescent	-10.9942
hollywood	-10.9942
inspiration	-10.9942
équivalent	-10.9942
▁ahmed	-10.9942
▁automatisé	-10.9942
▁charlotte	-10.9942
▁célébré	-10.9942
▁féminisme	-10.9942
▁impossible	-10.9942
▁influencé	-10.9942
▁moldavie	-10.9942
▁navigation	-10.9942
▁préfecture	-10.9942
▁préliminaire	-10.9942
▁xinjiang	-10.9942
▁colorado	-10.9942
▁solidaire	-10.9942
▁domestique	-10.9942
▁vigueur	-10.9942
▁rêve	-10.9942
▁vapeur	-10.9942
▁enseigné	-10.9942
▁amoureux	-10.9943
▁survivant	-10.9943
▁prouvé	-10.9943
arrestation	-10.9943
ground	-10.9943
▁quatorze	-10.9943
adoption	-10.9943
▁prolonge	-10.9943
▁tracé	-10.9943
▁déporté	-10.9944
▁convoi	-10.9944
▁réchauffe	-10.9944
▁prétend	-10.9945
obtention	-10.9945
▁clair	-10.9947
▁suffisa	-10.9947
▁stockage	-10.9948
▁contribu	-10.9949
▁austro	-10.9952
▁variété	-10.9953
▁technologique	-10.9953
▁travailleurs	-10.9955
▁journalisme	-10.9957
▁recev	-10.9958
▁distinction	-10.9959
homo	-10.9961
▁troupe	-10.9963
▁palm	-10.9971
▁pétrole	-10.9974
▁indienne	-10.9975
comb	-10.9977
▁vaut	-10.9979
▁bol	-10.9993
▁conclut	-10.9993
▁tribune	-10.9993
▁préserv	-10.9998
aloe	-11.0007
▁inspecteur	-11.0008
fect	-11.0013
élevage	-11.0022
▁appartement	-11.0025
▁survenue	-11.0031
▁fal	-11.0031
augustin	-11.0032
▁israël	-11.0036
▁précis	-11.0047
▁coloniale	-11.005
work	-11.0052
▁arrivent	-11.0053
▁enregistre	-11.0058
▁interprétée	-11.0059
▁augmentation	-11.0059
▁daté	-11.0072
nzl	-11.0075
▁exposée	-11.0079
revue	-11.0095
▁arrêtée	-11.0095
intervention	-11.0106
▁golf	-11.0106
▁transporté	-11.0107
▁exécution	-11.0116
hongrois	-11.0119
▁cord	-11.0133
▁marge	-11.0136
▁survie	-11.0138
▁génér	-11.0146
▁posé	-11.0147
▁gam	-11.0152
avage	-11.0155
▁qualifiée	-11.0155
▁kilo	-11.0158
champ	-11.0163
bank	-11.0172
▁réduite	-11.0177
▁bot	-11.0183
▁cita	-11.0187
mandant	-11.0194
publiée	-11.0203
▁paroi	-11.0204
back	-11.0207
▁prépare	-11.0233
▁home	-11.024
▁love	-11.0247
▁prit	-11.0252
▁logis	-11.0273
poméranie	-11.0276
créotouristiques	-11.0276
obligation	-11.0276
relégation	-11.0276
équilibre	-11.0276
▁apprécié	-11.0276
▁consommation	-11.0276
▁cyclisme	-11.0276
▁dommages	-11.0276
▁dramaturge	-11.0276
▁entrepreneur	-11.0276
▁fjord	-11.0276
▁giovanni	-11.0276
▁glinsky	-11.0276
▁grégoire	-11.0276
▁madagascar	-11.0276
▁mohamed	-11.0276
▁musulmane	-11.0276
▁observé	-11.0276
▁officialisé	-11.0276
▁paroissiale	-11.0276
▁prononcé	-11.0276
▁semblable	-11.0276
insectes	-11.0276
▁exercé	-11.0276
▁ordinaire	-11.0276
▁tramway	-11.0276
▁arnold	-11.0276
▁collision	-11.0276
▁secrète	-11.0276
▁phrase	-11.0276
▁métallique	-11.0276
▁entreprend	-11.0276
▁pôle	-11.0276
▁bertrand	-11.0276
▁massacre	-11.0276
hélène	-11.0276
▁achète	-11.0276
athènes	-11.0276
▁attaché	-11.0276
▁cyclo	-11.0276
▁passeports	-11.0276
▁utile	-11.0276
▁rédige	-11.0276
▁profondément	-11.0276
▁senior	-11.0276
écurie	-11.0276
▁ethnique	-11.0276
▁prochain	-11.0276
▁pholc	-11.0276
▁dupuy	-11.0277
▁bouclier	-11.0277
▁mathiau	-11.0277
▁seize	-11.0277
▁forfait	-11.0278
▁soleil	-11.0278
observe	-11.0278
▁cuba	-11.0279
▁intéressé	-11.0279
▁tournai	-11.028
▁afro	-11.028
▁drainage	-11.028
▁réveil	-11.028
▁squa	-11.028
arrange	-11.0281
▁pérou	-11.0281
▁brillanne	-11.0281
bomb	-11.0282
imprimeur	-11.0283
assaut	-11.0283
▁chaussées	-11.0285
▁séance	-11.0285
▁dominique	-11.0289
▁pousse	-11.029
▁dessert	-11.0292
▁annie	-11.0299
▁détenu	-11.0299
appartenance	-11.03
▁plage	-11.0301
▁pet	-11.0308
▁road	-11.0308
▁plaine	-11.0316
mund	-11.0317
▁nationalité	-11.032
▁mesur	-11.0322
▁détaillé	-11.0326
▁castel	-11.0328
▁crue	-11.033
scendance	-11.0337
▁passée	-11.0345
▁illégal	-11.035
ombre	-11.035
▁constance	-11.0352
erreur	-11.0355
▁rh	-11.0362
▁préfér	-11.0383
▁parisienne	-11.0385
▁occidental	-11.0401
▁permanent	-11.0408
▁hard	-11.0411
▁gér	-11.0412
centre	-11.0421
▁aidé	-11.0426
drag	-11.0435
▁appli	-11.0437
▁renforce	-11.0437
▁formée	-11.0442
approche	-11.0446
inscription	-11.0451
métrage	-11.0451
national	-11.0453
canada	-11.0454
▁renforcer	-11.0456
▁hot	-11.0457
▁mich	-11.046
▁délai	-11.0465
▁achevée	-11.0477
▁embarqu	-11.0483
astro	-11.0489
▁garanti	-11.0491
bc	-11.0494
▁neuro	-11.0494
allée	-11.05
▁zu	-11.0501
▁envoyée	-11.0522
envoi	-11.053
▁rc	-11.0538
four	-11.0542
▁fair	-11.0574
▁remarque	-11.0578
▁apparten	-11.0592
▁soumis	-11.0594
▁luca	-11.0603
pauline	-11.0605
éthiopie	-11.0614
▁kris	-11.062
herzégovine	-11.0621
wurtemberg	-11.0621
▁belaïeff	-11.0621
▁brydges	-11.0621
▁buckley	-11.0621
▁cemetery	-11.0621
▁challenge	-11.0621
▁collective	-11.0621
▁critiqué	-11.0621
▁céramique	-11.0621
▁emirats	-11.0621
▁fabricant	-11.0621
▁fabriqué	-11.0621
▁koweït	-11.0621
▁nécessité	-11.0621
▁prototype	-11.0621
▁répertori	-11.0621
▁schwinn	-11.0621
▁technology	-11.0621
▁tennessee	-11.0621
▁1895	-11.0621
▁bataillon	-11.0621
▁diminue	-11.0621
▁lettonie	-11.0621
▁restaurant	-11.0621
▁rupture	-11.0621
intendant	-11.0621
▁adversaire	-11.0621
▁automatique	-11.0621
▁briève	-11.0621
▁scandale	-11.0621
▁dénommé	-11.0621
▁identique	-11.0621
▁jordan	-11.0621
▁réformée	-11.0621
▁tibet	-11.0621
▁velour	-11.0621
▁calcaire	-11.0621
▁testament	-11.0621
bulletin	-11.0621
▁hausse	-11.0621
▁cyber	-11.0621
▁rythme	-11.0621
▁sphère	-11.0621
▁apparaissent	-11.0621
▁suppose	-11.0621
▁mérite	-11.0621
maçon	-11.0621
▁consort	-11.0621
▁shō	-11.0621
▁collectionneur	-11.0622
appellation	-11.0623
▁clara	-11.0623
▁collaborateur	-11.0624
▁god	-11.0624
▁émis	-11.0624
▁prusse	-11.0624
▁animé	-11.0624
▁maternel	-11.0625
élire	-11.0625
▁couvrant	-11.0625
▁exceptionnel	-11.0626
▁voile	-11.0627
▁constante	-11.0628
▁flanc	-11.0628
▁ruines	-11.0629
▁aspects	-11.063
▁1864	-11.0631
tendo	-11.0634
▁finaliste	-11.0635
aviation	-11.0636
▁explor	-11.0639
▁tournant	-11.0639
▁matrice	-11.064
petit	-11.0641
▁poursuiv	-11.0641
▁activement	-11.0651
▁massachusetts	-11.0654
▁with	-11.0654
▁supplémentaire	-11.0655
▁citoyen	-11.0656
▁statistique	-11.0656
armement	-11.0657
▁participant	-11.0658
▁courage	-11.0658
▁exprime	-11.0659
▁tourisme	-11.0665
▁prévoya	-11.0665
▁ferré	-11.0666
▁monture	-11.0666
▁démissionne	-11.0676
▁rejeté	-11.0686
albin	-11.0687
▁refusé	-11.0695
▁julien	-11.0695
▁passion	-11.0696
▁repos	-11.0699
actuel	-11.0699
▁habité	-11.07
▁administrateur	-11.0709
apport	-11.0712
▁coton	-11.0712
▁idol	-11.0719
▁joy	-11.0736
▁cordes	-11.0737
▁attire	-11.0739
▁garantie	-11.0756
ría	-11.0763
▁dérivée	-11.0764
zin	-11.0766
▁noter	-11.0767
▁initiale	-11.0768
▁érigé	-11.0769
▁suffrag	-11.0775
▁agn	-11.0778
▁fui	-11.0781
▁achete	-11.0802
▁plateau	-11.0803
accident	-11.0808
antoine	-11.0808
adaptation	-11.0809
enfance	-11.0809
animal	-11.0811
poser	-11.0813
▁philosophe	-11.0817
▁déclenche	-11.0828
marins	-11.083
▁antérieure	-11.0841
▁terminée	-11.0845
▁52	-11.0857
mission	-11.0859
paris	-11.0859
▁chercher	-11.0869
▁tai	-11.0871
gérer	-11.0874
kai	-11.0895
ption	-11.0902
jeu	-11.0904
▁natal	-11.0909
▁touch	-11.0911
▁obten	-11.0916
▁46	-11.0923
▁comédien	-11.0925
#	-11.0928
▁perdue	-11.0934
chemin	-11.0939
kel	-11.0941
▁lourde	-11.0943
▁bey	-11.0948
individu	-11.0952
lisabeth	-11.0955
▁regroupé	-11.0955
archidiocèse	-11.0972
abandon	-11.0973
agissait	-11.0978
efficacité	-11.0978
impératrice	-11.0978
évêché	-11.0978
▁bombardement	-11.0978
▁cavaliers	-11.0978
▁compatriote	-11.0978
▁confiance	-11.0978
▁dialogue	-11.0978
▁dynamique	-11.0978
▁déplacé	-11.0978
▁fréquemment	-11.0978
▁funéraire	-11.0978
▁manufactur	-11.0978
▁mexicain	-11.0978
▁moulvoudaye	-11.0978
▁pratiqué	-11.0978
▁précédemment	-11.0978
▁rhénanie	-11.0978
▁répression	-11.0978
▁smirnova	-11.0978
▁software	-11.0978
▁supprimé	-11.0978
▁sécuritaire	-11.0978
abidjan	-11.0978
▁fossile	-11.0978
▁positive	-11.0978
▁xavier	-11.0978
▁noël	-11.0978
▁monnaie	-11.0978
▁mandara	-11.0978
▁network	-11.0978
▁fabrique	-11.0978
▁riyad	-11.0978
▁timbres	-11.0978
▁surnommé	-11.0978
▁symbolique	-11.0978
▁dominicain	-11.0978
▁dispens	-11.0978
▁virtu	-11.0978
▁éponyme	-11.0978
▁imposé	-11.0978
attaquant	-11.0978
▁samedi	-11.0978
system	-11.0978
▁gratuit	-11.0978
▁martyr	-11.0978
some	-11.0979
▁dépens	-11.0979
▁résolution	-11.0979
▁lincolnshire	-11.0979
inventeur	-11.098
▁minimal	-11.098
▁murray	-11.098
afghanistan	-11.098
égard	-11.098
▁fondatrice	-11.0981
aqueduc	-11.0981
▁viking	-11.0981
▁conta	-11.0982
▁lumino	-11.0982
▁cloche	-11.0982
inématographique	-11.0983
▁candidature	-11.0984
▁zéro	-11.0984
audience	-11.0985
▁joly	-11.0985
▁sportif	-11.0987
▁jaya	-11.099
▁charité	-11.0991
▁spry	-11.0996
▁1830	-11.0996
▁tirage	-11.1002
onu	-11.1005
▁passionné	-11.1006
▁fusil	-11.1007
▁fox	-11.1012
▁obti	-11.1012
▁compositrice	-11.1012
▁graveur	-11.1013
▁chance	-11.1018
▁games	-11.1018
dith	-11.1021
▁remarquer	-11.1022
▁préparer	-11.1024
▁manifestation	-11.1025
▁marco	-11.1032
orgue	-11.1035
▁abandonne	-11.1036
▁belley	-11.1038
arrêter	-11.1048
gate	-11.1048
▁grosse	-11.1061
▁empêcher	-11.1062
▁latino	-11.1064
▁dress	-11.1066
▁faux	-11.1071
▁tuer	-11.1082
post	-11.1094
▁exploité	-11.1094
jour	-11.1095
▁forge	-11.1107
▁évoqué	-11.1115
otti	-11.1119
▁gérée	-11.1126
mbourg	-11.1134
▁christopher	-11.1137
▁prév	-11.1138
alma	-11.1143
▁télévisé	-11.1144
brook	-11.1148
hongroise	-11.1149
rock	-11.1151
▁chercha	-11.1157
accessi	-11.1164
prouver	-11.1164
héritage	-11.1178
québécois	-11.1179
enceinte	-11.1181
▁protégée	-11.1193
occup	-11.1196
alors	-11.1198
mura	-11.1202
mois	-11.1206
▁flot	-11.1214
▁opera	-11.1219
marne	-11.1222
▁fondamentale	-11.1224
▁effectuer	-11.1237
arras	-11.1242
upon	-11.126
▁préservé	-11.1285
▁fonder	-11.1292
▁profond	-11.1294
▁émerge	-11.1294
quo	-11.1303
igny	-11.1304
épée	-11.131
▁temporaire	-11.1333
▁entière	-11.1343
▁cave	-11.1348
agglomération	-11.1348
alphabétisation	-11.1348
athlétisme	-11.1348
▁aleksandr	-11.1348
▁benoît	-11.1348
▁brackley	-11.1348
▁brooklyn	-11.1348
▁chronologie	-11.1348
▁convoqué	-11.1348
▁dunkerque	-11.1348
▁fenouillet	-11.1348
▁grèce	-11.1348
▁lancaster	-11.1348
▁recommandation	-11.1348
▁tulalip	-11.1348
▁vigilance	-11.1348
expansion	-11.1348
▁concurrent	-11.1348
▁déclassée	-11.1348
▁münster	-11.1348
▁refuge	-11.1348
invitation	-11.1348
▁1883	-11.1348
▁rédigé	-11.1348
▁dimitri	-11.1348
▁howard	-11.1348
▁modification	-11.1348
▁rappeur	-11.1348
impulsion	-11.1348
▁reportage	-11.1348
▁augmenté	-11.1348
▁flandre	-11.1348
▁vecteur	-11.1348
hydre	-11.1348
▁impliqua	-11.1348
▁cristal	-11.1348
▁marchandises	-11.1348
▁pietro	-11.1348
▁réservoir	-11.1348
▁justine	-11.1349
▁patients	-11.1349
euskadiko	-11.1349
▁duchesse	-11.1349
▁parasite	-11.1349
provence	-11.1349
▁keats	-11.1349
▁apple	-11.1349
▁suppl	-11.1349
▁frappe	-11.135
▁corruption	-11.135
▁bébé	-11.135
▁sûr	-11.135
▁relatif	-11.1351
urbanisme	-11.1351
▁sénégalais	-11.1351
▁rocheuse	-11.1352
▁croate	-11.1353
▁passagers	-11.1354
▁civilisation	-11.1354
▁nobel	-11.1354
▁abrita	-11.1354
▁milite	-11.1354
▁rejoignent	-11.1355
▁modeste	-11.1356
▁retirer	-11.1356
▁appris	-11.1357
▁alimente	-11.1358
▁facilement	-11.1359
▁attribue	-11.1359
▁lunaire	-11.1359
▁dépit	-11.1361
▁bateaux	-11.1361
▁julia	-11.1361
child	-11.1362
▁1899	-11.1362
▁drame	-11.1362
▁communion	-11.1362
▁1880	-11.1363
▁rhin	-11.1365
imprim	-11.1366
▁ellie	-11.1366
▁fuite	-11.1367
▁haye	-11.1367
▁procédé	-11.1367
▁romantique	-11.137
autorise	-11.1372
▁haras	-11.1372
▁princeton	-11.1373
▁vendée	-11.1376
ische	-11.1376
▁lecteur	-11.1376
▁coque	-11.1379
▁fonctionnement	-11.1381
▁alive	-11.1382
▁fly	-11.1383
▁herm	-11.1383
▁169	-11.1385
doctor	-11.1399
offrir	-11.14
nfl	-11.1401
▁consistant	-11.1407
▁difficulté	-11.141
umann	-11.1411
▁arche	-11.1411
▁stri	-11.1419
▁jim	-11.1422
▁comique	-11.1428
itch	-11.1431
▁définie	-11.1434
▁combi	-11.1435
doctoral	-11.1436
▁turin	-11.1445
installent	-11.1447
▁radical	-11.1455
▁choc	-11.146
▁christin	-11.1529
▁ressemble	-11.1536
cinq	-11.1538
▁annuel	-11.1541
▁ressembl	-11.1559
▁jette	-11.156
▁cout	-11.156
équation	-11.1564
michael	-11.1564
victoire	-11.1564
district	-11.1564
octobre	-11.1564
habitants	-11.1565
fiction	-11.1567
▁érigée	-11.157
comté	-11.1586
meurent	-11.1592
▁complété	-11.1612
▁datée	-11.1623
▁loge	-11.163
▁camil	-11.1641
▁terminal	-11.1647
coréen	-11.1654
_4	-11.1683
▁120	-11.1713
plus	-11.1725
▁kg	-11.1726
▁déclara	-11.1731
intellectu	-11.1732
entérovirus	-11.1733
offensive	-11.1733
▁collectivité	-11.1733
▁conquête	-11.1733
▁dégâts	-11.1733
▁ginsburg	-11.1733
▁glasgow	-11.1733
▁grenoble	-11.1733
▁manipul	-11.1733
▁mannequin	-11.1733
▁mathematics	-11.1733
▁médiévale	-11.1733
▁mémorial	-11.1733
▁novgorod	-11.1733
▁nécessite	-11.1733
▁popularité	-11.1733
▁programmation	-11.1733
▁remparts	-11.1733
▁reynolds	-11.1733
▁reçoivent	-11.1733
▁réputation	-11.1733
▁tänak	-11.1733
▁yagyû	-11.1733
▁1894	-11.1733
▁boîte	-11.1733
▁nagoya	-11.1733
▁pelletier	-11.1733
▁stylisé	-11.1733
▁torpille	-11.1733
avortement	-11.1733
▁clandestin	-11.1733
▁university	-11.1733
▁danube	-11.1733
▁doublé	-11.1733
▁débarque	-11.1733
▁century	-11.1733
▁résulte	-11.1733
▁biblio	-11.1733
▁culmin	-11.1733
▁mourut	-11.1733
borough	-11.1733
▁prononce	-11.1733
▁reporter	-11.1733
▁trump	-11.1733
▁génie	-11.1733
▁remix	-11.1733
▁concile	-11.1733
▁accuse	-11.1733
▁opposant	-11.1733
▁précisément	-11.1733
▁dolma	-11.1733
▁tétra	-11.1733
▁préparé	-11.1733
▁portail	-11.1734
▁sprint	-11.1734
▁castle	-11.1734
attribution	-11.1734
▁scala	-11.1734
▁supervise	-11.1734
▁1902	-11.1735
▁inversé	-11.1735
▁relief	-11.1735
▁1906	-11.1735
▁langage	-11.1735
▁sensible	-11.1736
▁manchester	-11.1736
▁inondations	-11.1736
▁cnco	-11.1736
▁patineuse	-11.1736
▁gelée	-11.1736
intervalle	-11.1737
▁abdel	-11.1738
▁noces	-11.1738
▁allég	-11.1739
▁antoni	-11.1741
▁régulier	-11.1741
▁beach	-11.1742
▁géant	-11.1743
▁great	-11.1743
rack	-11.1743
▁déposé	-11.1743
▁1887	-11.1744
▁derby	-11.1744
▁1723	-11.1744
▁1893	-11.1744
▁1885	-11.1745
▁équipements	-11.1745
▁règlement	-11.1745
▁1877	-11.1746
▁combattre	-11.1747
▁colette	-11.1747
accéder	-11.1748
▁contour	-11.1748
▁mafa	-11.175
▁princesse	-11.1751
▁profil	-11.1751
▁1860	-11.1753
▁bruit	-11.1753
▁maintien	-11.1755
▁lewis	-11.1755
%)	-11.1757
▁emma	-11.1757
▁vendre	-11.1759
▁carrée	-11.176
▁théologien	-11.1765
dead	-11.1768
▁orienté	-11.1768
▁battant	-11.1769
▁représenta	-11.1771
▁casse	-11.1778
▁from	-11.1781
▁johnson	-11.1781
▁profonde	-11.1782
modern	-11.1782
▁marocain	-11.1786
▁grey	-11.1787
▁cessé	-11.1792
▁caractérise	-11.1796
présentant	-11.1805
▁zoo	-11.1814
▁tenta	-11.1828
▁130	-11.1835
▁rosa	-11.1836
▁oriental	-11.1839
italia	-11.1865
▁isolée	-11.1874
établi	-11.1882
▁chanter	-11.189
▁récupéré	-11.189
▁défendu	-11.1896
▁fréquent	-11.1932
▁aborde	-11.1947
▁bail	-11.195
ignon	-11.1956
udo	-11.1961
expédition	-11.1963
avril	-11.1965
champion	-11.1968
▁ost	-11.1989
▁systématique	-11.1991
▁quelqu	-11.2002
▁radicale	-11.2019
▁accepté	-11.2025
vous	-11.2038
▁harpe	-11.2056
▁banc	-11.2078
▁fed	-11.2082
▁médical	-11.2105
▁paol	-11.2107
▁autorisa	-11.2113
▁cab	-11.2114
▁brillan	-11.2116
neuf	-11.2125
▁rejoign	-11.2125
algèbre	-11.2127
œuf	-11.2127
▁coordonn	-11.2129
hélicoptère	-11.2133
épidémie	-11.2133
▁abrégé	-11.2133
▁accompli	-11.2133
▁autochtone	-11.2133
▁bombardier	-11.2133
▁brandebourg	-11.2133
▁caraïbes	-11.2133
▁columbia	-11.2133
▁concurrence	-11.2133
▁confédéré	-11.2133
▁crystal	-11.2133
▁dénomination	-11.2133
▁hectares	-11.2133
▁mythologie	-11.2133
▁pakistan	-11.2133
▁pennsylvani	-11.2133
▁plénière	-11.2133
▁postérité	-11.2133
▁rectangulaire	-11.2133
▁remarqué	-11.2133
▁subvention	-11.2133
▁synthèse	-11.2133
▁séquence	-11.2133
▁triathlon	-11.2133
▁auxiliaire	-11.2133
▁postérieur	-11.2133
▁talbot	-11.2133
▁trentaine	-11.2133
▁vérité	-11.2133
▁élimine	-11.2133
▁disciple	-11.2133
▁indication	-11.2133
▁patronyme	-11.2133
▁écologique	-11.2133
archéologue	-11.2133
▁heritage	-11.2133
▁mosquée	-11.2133
▁trajet	-11.2133
▁typique	-11.2133
▁flèche	-11.2133
▁lituanie	-11.2133
▁1898	-11.2133
▁croatie	-11.2133
enfuit	-11.2133
westphalie	-11.2133
▁bourbon	-11.2133
▁1882	-11.2133
▁démarche	-11.2133
▁réélu	-11.2133
▁norman	-11.2133
▁constaté	-11.2133
▁covid	-11.2133
▁dôme	-11.2133
▁foyer	-11.2133
▁souffre	-11.2133
▁sicile	-11.2133
accusation	-11.2133
▁précipitations	-11.2133
▁zurich	-11.2133
▁socle	-11.2134
imposant	-11.2134
▁nancy	-11.2134
▁kelly	-11.2135
▁puits	-11.2135
▁patineu	-11.2135
▁1909	-11.2135
▁carbone	-11.2136
▁propag	-11.2136
▁conclusion	-11.2136
ottawa	-11.2136
▁inverse	-11.2137
▁trésorier	-11.2137
▁darak	-11.2137
▁variante	-11.2138
▁amical	-11.2138
swiss	-11.2139
▁fausse	-11.2139
▁exprimé	-11.2139
▁antennes	-11.214
▁connait	-11.214
▁alexis	-11.2143
▁alpin	-11.2143
esthétique	-11.2144
▁1872	-11.2144
▁beauté	-11.2145
▁archit	-11.2145
▁présidé	-11.2145
▁1834	-11.2148
▁helen	-11.215
▁faciliter	-11.2152
horloge	-11.2152
▁serment	-11.2153
▁geoffr	-11.2159
▁golden	-11.216
utilisateur	-11.2167
jonction	-11.2168
▁suspendu	-11.217
▁mental	-11.217
▁lourd	-11.2172
muller	-11.2173
▁muni	-11.2178
▁municipales	-11.2179
épid	-11.2183
▁bref	-11.2185
▁facilit	-11.2188
▁cite	-11.2193
▁ornemental	-11.2196
▁assis	-11.2207
▁chili	-11.2223
▁client	-11.2231
▁galli	-11.2233
▁verre	-11.2233
▁159	-11.2236
▁moss	-11.2245
▁guill	-11.2248
▁citer	-11.2266
3,5	-11.2267
install	-11.2269
▁gère	-11.2269
▁cube	-11.2301
▁fréquenté	-11.2308
gul	-11.2309
▁rétabli	-11.2323
▁gand	-11.233
▁inconnu	-11.2351
▁causa	-11.2371
▁noté	-11.2379
assurer	-11.238
cœur	-11.2381
général	-11.2381
argentine	-11.2402
albert	-11.2431
▁constitutionnel	-11.2438
▁ming	-11.2453
asile	-11.2472
▁vive	-11.2491
13)	-11.2495
▁hma	-11.2516
hydro	-11.252
▁égal	-11.2528
▁paléo	-11.2529
bald	-11.2532
appuy	-11.2544
emprisonnement	-11.2549
immigration	-11.2549
ingénierie	-11.2549
▁alternatif	-11.2549
▁birmingham	-11.2549
▁bouddhiste	-11.2549
▁bricktop	-11.2549
▁controverse	-11.2549
▁célébrité	-11.2549
▁distribué	-11.2549
▁démonstration	-11.2549
▁génétique	-11.2549
▁huguenin	-11.2549
▁mathieu	-11.2549
▁michigan	-11.2549
▁moundang	-11.2549
▁particularité	-11.2549
▁patriarcat	-11.2549
▁persécution	-11.2549
▁photographique	-11.2549
▁protagoniste	-11.2549
▁renforcé	-11.2549
▁rotterdam	-11.2549
▁suprême	-11.2549
▁surveillé	-11.2549
▁syndrome	-11.2549
▁vermuyden	-11.2549
▁éventuel	-11.2549
interception	-11.2549
▁fracture	-11.2549
▁plutonique	-11.2549
▁porsche	-11.2549
▁soixante	-11.2549
implication	-11.2549
recruté	-11.2549
▁gallipoli	-11.2549
▁revêt	-11.2549
▁théorique	-11.2549
▁1878	-11.2549
interdiction	-11.2549
▁recteur	-11.2549
▁fragment	-11.2549
▁absolu	-11.2549
▁conversation	-11.2549
▁surprise	-11.2549
▁clinique	-11.2549
▁corneliu	-11.255
analyste	-11.255
▁attiré	-11.255
▁amoureuse	-11.255
▁dagelet	-11.255
▁racing	-11.255
▁dissout	-11.255
▁watts	-11.255
▁travée	-11.255
▁hugues	-11.255
▁barrée	-11.255
▁débit	-11.255
▁enjeux	-11.255
▁resort	-11.255
▁maquis	-11.255
▁mensuel	-11.255
▁montrant	-11.255
▁ivoirien	-11.255
▁reggio	-11.255
▁brechin	-11.2551
▁enlevé	-11.2551
acquér	-11.2551
▁évolué	-11.2551
▁intégrant	-11.2552
labrador	-11.2552
▁citation	-11.2553
▁concession	-11.2553
▁connaiss	-11.2553
auckland	-11.2553
▁vendredi	-11.2554
▁tudor	-11.2554
▁sanitaire	-11.2554
▁stabilité	-11.2555
▁pompe	-11.2555
médée	-11.2555
caesa	-11.2556
▁kaélé	-11.2556
▁individuelles	-11.2556
▁espoirs	-11.2557
▁lignée	-11.2557
▁récupérer	-11.2558
▁qing	-11.2559
▁planification	-11.2559
▁terrasse	-11.256
leslie	-11.2561
▁1857	-11.2562
▁gentil	-11.2562
escorte	-11.2565
▁korte	-11.2565
▁temporairement	-11.2567
▁harry	-11.2567
▁seigneurie	-11.2572
▁promet	-11.2572
▁jack	-11.2576
associe	-11.2583
▁suffisant	-11.2584
▁voirie	-11.2585
▁that	-11.2586
▁taka	-11.2597
▁châ	-11.26
▁zec	-11.2617
▁levée	-11.2619
▁visit	-11.2633
irish	-11.2644
▁arriv	-11.2658
▁cfa	-11.2659
▁trio	-11.2665
▁étendu	-11.2666
segment	-11.2674
ová	-11.269
asser	-11.2694
▁demanda	-11.2697
▁fais	-11.2701
route	-11.2714
▁philosoph	-11.2736
0).	-11.2756
▁1,5	-11.2783
bay	-11.2794
cope	-11.2794
ām	-11.2794
position	-11.2807
encourage	-11.2814
tarzan	-11.2815
décembre	-11.2816
sœur	-11.2816
humain	-11.2817
informatique	-11.2817
▁souten	-11.282
maison	-11.2841
ennemi	-11.2841
▁110	-11.2843
▁plaid	-11.2848
▁83	-11.2864
rouge	-11.2865
▁1000	-11.2865
▁repart	-11.2872
sistance	-11.2873
▁800	-11.2898
liber	-11.2901
▁alba	-11.2909
lpini	-11.2916
exploit	-11.2943
▁castell	-11.2947
enregistr	-11.2948
kō	-11.2964
accro	-11.2964
▁écriva	-11.2968
princip	-11.2978
▁rite	-11.2979
ệ	-11.2983
▁reconnaiss	-11.2983
immigrant	-11.2984
▁amérindien	-11.2984
▁brève	-11.2984
▁bénévole	-11.2984
▁croughton	-11.2984
▁décroche	-11.2984
▁entertainment	-11.2984
▁frégate	-11.2984
▁kretchinski	-11.2984
▁labrecque	-11.2984
▁linguistique	-11.2984
▁lorenzo	-11.2984
▁maréchal	-11.2984
▁mexico	-11.2984
▁morbihan	-11.2984
▁philadelphie	-11.2984
▁polytechnique	-11.2984
▁péribonka	-11.2984
▁reproduction	-11.2984
▁résoudre	-11.2984
▁salariés	-11.2984
▁schmidt	-11.2984
▁singapour	-11.2984
▁égouts	-11.2984
▁adjacent	-11.2984
▁bannière	-11.2984
▁bulgare	-11.2984
▁crête	-11.2984
▁effective	-11.2984
▁explicite	-11.2984
▁mobilier	-11.2984
optères	-11.2984
▁détroit	-11.2984
▁forteresse	-11.2984
▁vedette	-11.2984
▁cavité	-11.2984
▁stanley	-11.2984
▁versailles	-11.2984
▁casquette	-11.2984
▁plafond	-11.2984
▁meeting	-11.2984
▁monarchie	-11.2984
▁pourquoi	-11.2984
▁rallye	-11.2984
▁(2018)	-11.2984
▁vaincu	-11.2984
apôtre	-11.2984
▁commerçant	-11.2984
▁navigue	-11.2984
▁neuville	-11.2984
▁strange	-11.2984
escadre	-11.2984
▁ernest	-11.2984
▁chêne	-11.2984
▁prolongé	-11.2984
▁sauvetage	-11.2984
▁simplifi	-11.2985
▁courtisan	-11.2985
▁guinée	-11.2985
▁gouvernance	-11.2985
▁dossier	-11.2985
▁recours	-11.2985
encontre	-11.2985
▁jorge	-11.2985
▁percée	-11.2985
▁révélation	-11.2985
œil	-11.2986
▁crédit	-11.2988
éthique	-11.2988
▁complot	-11.2989
▁durham	-11.2989
▁parution	-11.2989
▁revendique	-11.2989
▁croker	-11.299
alsace	-11.299
▁consist	-11.2991
▁croissant	-11.2991
▁gaston	-11.2993
▁camion	-11.2993
▁entité	-11.2994
udolf	-11.2995
▁1862	-11.2996
reprenant	-11.2997
▁ukrainienne	-11.2998
▁relat	-11.2999
▁musta	-11.3
audition	-11.3
▁1856	-11.3
liche	-11.3
▁1859	-11.3001
▁biographique	-11.3002
▁indra	-11.3006
▁buste	-11.3006
▁fournisseur	-11.3007
▁hope	-11.3008
dijk	-11.3009
▁répondre	-11.301
▁concertation	-11.3011
▁rarement	-11.3011
▁bilan	-11.3012
▁notion	-11.3013
▁déplacement	-11.3013
born	-11.3028
▁bley	-11.3029
▁perdent	-11.303
▁campus	-11.3037
nui	-11.3043
▁brom	-11.3053
▁luo	-11.3065
▁eva	-11.3067
▁wang	-11.3068
▁luxe	-11.3077
▁lanceur	-11.31
▁minier	-11.311
▁beat	-11.3112
▁cotta	-11.3113
east	-11.3121
▁fenêtre	-11.3121
▁bruce	-11.3128
▁khan	-11.3162
chenko	-11.3167
▁pli	-11.3195
▁soliste	-11.3195
▁familial	-11.3195
russe	-11.3197
bund	-11.32
avantage	-11.321
cession	-11.3211
yves	-11.323
indian	-11.3238
oussa	-11.3251
ridge	-11.3253
▁coula	-11.3269
emmanuel	-11.3269
endroit	-11.3269
région	-11.327
habitat	-11.327
entraîneur	-11.3274
courir	-11.3283
▁colonial	-11.3288
▁admir	-11.3293
uillé	-11.3294
verge	-11.3294
élisabeth	-11.3294
trois	-11.3318
_3	-11.3325
heure	-11.3329
▁convainc	-11.333
▁600	-11.3336
▁gallo	-11.3345
▁oh	-11.3346
vingt	-11.3369
écoute	-11.3399
▁probable	-11.3424
▁différ	-11.3429
▁préféré	-11.3431
▁mystérieu	-11.3439
astronomie	-11.3439
karlsruhe	-11.3439
▁alentours	-11.3439
▁amélioré	-11.3439
▁aménagé	-11.3439
▁anthony	-11.3439
▁bulgarie	-11.3439
▁bénédictin	-11.3439
▁catalogne	-11.3439
▁catastrophe	-11.3439
▁chiêu	-11.3439
▁circonstances	-11.3439
▁commerciaux	-11.3439
▁consécration	-11.3439
▁cylindrique	-11.3439
▁détruire	-11.3439
▁exempt	-11.3439
▁exécute	-11.3439
▁geographic	-11.3439
▁lenticulaire	-11.3439
▁lisbonne	-11.3439
▁marichalar	-11.3439
▁microsoft	-11.3439
▁norfolk	-11.3439
▁nécessita	-11.3439
▁obligatoire	-11.3439
▁pollution	-11.3439
▁pontifical	-11.3439
▁productrice	-11.3439
▁provoqué	-11.3439
▁puzzle	-11.3439
▁rebaptis	-11.3439
▁salvador	-11.3439
▁shanghai	-11.3439
▁soulève	-11.3439
▁spécimen	-11.3439
▁supposé	-11.3439
▁suppression	-11.3439
▁tadoussac	-11.3439
▁vestiges	-11.3439
▁vulnérable	-11.3439
▁windows	-11.3439
▁wrestling	-11.3439
▁évidence	-11.3439
thérèse	-11.3439
▁accentué	-11.3439
▁aiguë	-11.3439
▁communiqué	-11.3439
▁organique	-11.3439
▁botaniste	-11.3439
▁clergé	-11.3439
▁monopole	-11.3439
▁peuplée	-11.3439
archéologie	-11.3439
▁bâle	-11.3439
▁cardiaque	-11.3439
▁navarre	-11.3439
▁paralysie	-11.3439
▁argument	-11.3439
▁munitions	-11.3439
▁vaccin	-11.3439
▁burkina	-11.3439
▁gildon	-11.3439
▁townland	-11.3439
▁couramment	-11.3439
▁donald	-11.3439
▁review	-11.3439
▁doigt	-11.3439
▁leopold	-11.3439
▁blindé	-11.3439
▁paiement	-11.3439
papillon	-11.3439
▁rhodes	-11.3439
▁carnot	-11.3439
▁prôn	-11.3439
lorraine	-11.3439
▁survécu	-11.3439
inventaire	-11.3439
▁envisage	-11.3439
▁emporté	-11.3439
▁triple	-11.3439
brunswick	-11.3439
▁stanisla	-11.3439
▁répartie	-11.3439
▁ugc	-11.3439
félix	-11.3439
▁rubrique	-11.344
▁virus	-11.344
▁podium	-11.344
▁berwick	-11.344
imitation	-11.3441
▁supervision	-11.3441
rinchen	-11.3441
libraire	-11.3441
▁palace	-11.3441
émilie	-11.3442
▁notables	-11.3442
▁cologne	-11.3442
pcd	-11.3443
▁haïtien	-11.3443
▁gérard	-11.3443
cloud	-11.3443
▁grappe	-11.3443
▁existai	-11.3443
▁localisé	-11.3444
▁chasseurs	-11.3444
▁baronnie	-11.3445
▁glen	-11.3446
▁manœuvre	-11.3448
▁thiers	-11.3448
▁parfaite	-11.3449
▁vă	-11.3449
▁1848	-11.345
▁vocal	-11.3452
▁1874	-11.3453
▁1841	-11.3453
▁1871	-11.3453
▁caché	-11.3454
▁poker	-11.3454
▁1861	-11.3455
▁book	-11.3455
▁brillante	-11.3457
▁normal	-11.3462
avignon	-11.3462
attente	-11.3464
▁récent	-11.3467
▁troy	-11.3469
▁participantes	-11.3471
▁dépendant	-11.3473
▁jules	-11.3476
quelles	-11.3476
▁bureaux	-11.3476
▁conflue	-11.3485
▁obus	-11.349
▁devise	-11.3493
#00	-11.3503
apollo	-11.3505
werk	-11.3508
▁myers	-11.3515
▁wta	-11.3522
▁marina	-11.3529
hiro	-11.3547
menant	-11.355
tête	-11.3551
puis	-11.3573
▁règle	-11.3576
▁trahi	-11.3578
▁collègue	-11.3593
borg	-11.3594
▁gast	-11.362
▁méthan	-11.3635
antoinette	-11.3641
training	-11.3649
▁confirm	-11.371
▁dépo	-11.3716
mettait	-11.3734
▁lucie	-11.3739
augmentation	-11.3744
marguerite	-11.3745
édouard	-11.3746
philippe	-11.3746
importants	-11.3747
[	-11.3747
▁électoral	-11.376
opérateur	-11.3762
institution	-11.3778
emk	-11.3779
▁170	-11.3783
aît	-11.381
augmenter	-11.3839
considérablement	-11.3856
▁argentin	-11.3859
▁masa	-11.3866
▁facto	-11.3883
infrastructure	-11.391
incorpor	-11.3914
électrifi	-11.3914
agression	-11.3915
albuquerque	-11.3915
arizona	-11.3915
ariège	-11.3915
armistice	-11.3915
explication	-11.3915
insurrection	-11.3915
zélandais	-11.3915
▁aléatoire	-11.3915
▁approximative	-11.3915
▁berkeley	-11.3915
▁bilatéral	-11.3915
▁březnice	-11.3915
▁compréhension	-11.3915
▁dissident	-11.3915
▁dégradation	-11.3915
▁für	-11.3915
▁hollandais	-11.3915
▁hôpitaux	-11.3915
▁ibérique	-11.3915
▁melbourne	-11.3915
▁migrants	-11.3915
▁nigérian	-11.3915
▁obligé	-11.3915
▁pembroke	-11.3915
▁positif	-11.3915
▁privilégié	-11.3915
▁produisent	-11.3915
▁prédécesseur	-11.3915
▁périphéri	-11.3915
▁quarantaine	-11.3915
▁quatuor	-11.3915
▁rébellion	-11.3915
▁simultanément	-11.3915
▁stipule	-11.3915
▁stockholm	-11.3915
▁stralsund	-11.3915
▁stuttgart	-11.3915
▁suggéré	-11.3915
▁susceptible	-11.3915
▁végétal	-11.3915
▁végétation	-11.3915
▁windsor	-11.3915
▁éloigné	-11.3915
▁évacué	-11.3915
soprano	-11.3915
▁constituant	-11.3915
▁digital	-11.3915
▁méridiona	-11.3915
▁mạc	-11.3915
▁vulcan	-11.3915
▁éditorial	-11.3915
actualité	-11.3915
▁destroyer	-11.3915
▁sylvi	-11.3915
approbation	-11.3915
▁maillot	-11.3915
▁julius	-11.3915
▁slayton	-11.3915
billboard	-11.3915
▁hérite	-11.3915
bachelor	-11.3915
éloigne	-11.3915
▁catcheur	-11.3915
▁harald	-11.3915
▁ferrari	-11.3915
▁turbine	-11.3915
▁business	-11.3915
▁ogier	-11.3915
excellent	-11.3915
▁cède	-11.3915
▁évènements	-11.3915
emmène	-11.3915
▁hébergé	-11.3915
▁florian	-11.3915
▁stricte	-11.3915
▁manager	-11.3915
▁baroque	-11.3915
▁chaleur	-11.3915
▁annulé	-11.3915
▁échoue	-11.3915
▁daryal	-11.3915
▁spring	-11.3915
▁cirque	-11.3916
▁payer	-11.3916
▁lausanne	-11.3916
▁olaf	-11.3916
▁schéma	-11.3916
▁sécession	-11.3916
▁vœu	-11.3916
▁faisceau	-11.3916
▁téléfilm	-11.3917
▁fritz	-11.3917
▁daisy	-11.3917
▁démolition	-11.3918
▁tapis	-11.3918
▁esclaves	-11.3918
yvette	-11.3919
▁météo	-11.392
▁steven	-11.392
ophile	-11.392
▁milice	-11.392
▁régence	-11.3921
▁perpétuel	-11.3922
▁trouvant	-11.3922
▁continuité	-11.3922
▁silver	-11.3924
▁giuli	-11.3924
▁germanique	-11.3924
▁novel	-11.3925
▁blake	-11.3925
▁halte	-11.3926
▁rennes	-11.3926
▁1869	-11.3926
▁1835	-11.3927
▁1838	-11.3929
▁miami	-11.3929
▁extrémités	-11.3931
▁travaillait	-11.3931
▁musicaux	-11.3932
▁battent	-11.3933
▁dérive	-11.3935
▁élémentaire	-11.3935
▁couvrir	-11.3935
▁parlant	-11.3936
▁serre	-11.3936
▁maori	-11.3936
▁camille	-11.3938
▁clare	-11.394
▁balcon	-11.394
▁martinique	-11.3941
autobiograph	-11.3941
▁publia	-11.3944
▁offr	-11.3944
▁cook	-11.3948
▁trap	-11.3951
▁boutique	-11.3956
platz	-11.3956
▁1802	-11.3957
▁hameau	-11.396
▁logo	-11.3986
héli	-11.3988
location	-11.3995
▁considérable	-11.4001
▁pyr	-11.4011
▁convaincu	-11.402
▁fusionne	-11.4032
oxyde	-11.4042
izz	-11.4075
▁étrangère	-11.4093
▁prisonnier	-11.4098
▁insist	-11.4122
▁pure	-11.4153
▁résid	-11.416
infini	-11.4174
other	-11.4178
▁épiscopal	-11.4207
▁johan	-11.4216
assister	-11.4226
▁complét	-11.4227
entraîne	-11.4227
groupe	-11.424
explique	-11.4245
effectue	-11.4246
ministre	-11.4247
exclu	-11.4247
physique	-11.4248
▁ornement	-11.4249
▁mach	-11.4255
pays	-11.426
libération	-11.4263
ambassadeur	-11.4269
▁héberge	-11.4286
▁entrepris	-11.4309
employ	-11.431
échappe	-11.4372
▁étrange	-11.4378
▁potentielle	-11.4381
▁madam	-11.4384
▁évit	-11.4397
▁iranien	-11.4401
▁définitive	-11.4404
icité	-11.4405
enveloppe	-11.441
ạ	-11.4415
hydrauli	-11.4415
entafluorophényl	-11.4415
▁metropoli	-11.4415
aéronautique	-11.4415
extinction	-11.4415
inauguration	-11.4415
nürnberg	-11.4415
égyptien	-11.4415
élaboration	-11.4415
épidémiologi	-11.4415
▁advance	-11.4415
▁affilié	-11.4415
▁boudinot	-11.4415
▁bressuire	-11.4415
▁confusion	-11.4415
▁diocésain	-11.4415
▁elliptique	-11.4415
▁francophonie	-11.4415
▁ghetto	-11.4415
▁herbecq	-11.4415
▁idéologique	-11.4415
▁incomplet	-11.4415
▁infantry	-11.4415
▁influent	-11.4415
▁kosovo	-11.4415
▁mcgill	-11.4415
▁minoritaire	-11.4415
▁pharmac	-11.4415
▁posthume	-11.4415
▁ryckaert	-11.4415
▁récurrent	-11.4415
▁schragenheim	-11.4415
▁shakespeare	-11.4415
▁slovénie	-11.4415
▁surélevé	-11.4415
▁sébastien	-11.4415
▁varravine	-11.4415
▁voronezh	-11.4415
▁wimbledon	-11.4415
▁élimination	-11.4415
▁émérite	-11.4415
aberdeen	-11.4415
▁1891	-11.4415
▁camarade	-11.4415
▁détection	-11.4415
▁dévoile	-11.4415
▁mobilisation	-11.4415
▁nièce	-11.4415
▁recensé	-11.4415
▁reconnait	-11.4415
aperçu	-11.4415
▁construis	-11.4415
▁fonctionnalité	-11.4415
▁lucratif	-11.4415
intersection	-11.4415
▁terroriste	-11.4415
▁1876	-11.4415
▁modélis	-11.4415
▁pétange	-11.4415
▁latérale	-11.4415
▁olivier	-11.4415
▁protecteur	-11.4415
▁rivage	-11.4415
▁1888	-11.4415
▁suscite	-11.4415
▁hérité	-11.4415
▁europa	-11.4415
▁dragestil	-11.4415
▁genèse	-11.4415
▁pioche	-11.4415
▁ancestra	-11.4415
▁little	-11.4415
▁hydraulique	-11.4415
▁vandales	-11.4415
▁tourbière	-11.4415
▁tactique	-11.4415
▁flux	-11.4415
▁rotation	-11.4415
entendre	-11.4415
interface	-11.4415
▁valentina	-11.4415
▁uniforme	-11.4415
intercepte	-11.4415
▁drogue	-11.4416
▁norton	-11.4416
oblast	-11.4416
▁finlande	-11.4416
▁normandie	-11.4416
▁policier	-11.4416
▁visual	-11.4416
▁ressent	-11.4416
▁ultra	-11.4416
▁stefan	-11.4416
illinois	-11.4416
www	-11.4416
▁rebelle	-11.4416
opposa	-11.4416
ро	-11.4417
▁prieur	-11.4417
▁quinzaine	-11.4417
▁décoll	-11.4417
▁renfort	-11.4417
▁comparé	-11.4417
▁prédicat	-11.4417
▁girl	-11.4418
▁disney	-11.4418
▁gilles	-11.4418
▁monétaire	-11.4418
▁assisté	-11.4419
▁coordonnées	-11.4419
▁christianisme	-11.442
▁ngamé	-11.442
▁harold	-11.442
▁harrison	-11.4422
▁divise	-11.4422
▁dessinateur	-11.4422
▁break	-11.4422
▁herold	-11.4422
▁déploiement	-11.4422
▁amène	-11.4423
▁immeubles	-11.4424
▁approprié	-11.4424
▁farid	-11.4424
▁911	-11.4424
▁robot	-11.4424
▁taches	-11.4425
▁interaction	-11.4425
▁convaincre	-11.4425
▁tenté	-11.4426
▁irina	-11.4427
▁heath	-11.4428
92)	-11.4428
▁iranienne	-11.4429
▁1889	-11.4431
▁tusi	-11.4431
▁faso	-11.4432
▁1853	-11.4433
▁1786	-11.4434
▁stella	-11.4434
adapte	-11.4435
▁1799	-11.4435
▁nominé	-11.4436
▁régul	-11.4436
▁chapeau	-11.4438
▁brésilienne	-11.444
▁renouvelable	-11.4444
▁radi	-11.4445
▁élev	-11.4448
▁tomba	-11.445
▁rétro	-11.4452
achille	-11.4452
▁flow	-11.4455
▁1800	-11.4459
oulou	-11.4461
▁fred	-11.4462
alpes	-11.4469
essex	-11.4478
▁prière	-11.4509
▁ajouta	-11.4542
▁méditerranéen	-11.4543
▁dépose	-11.4543
hébergement	-11.4546
▁entoure	-11.4547
therm	-11.4595
gorge	-11.4597
arménie	-11.4608
▁brian	-11.4608
▁véhicule	-11.4619
▁législative	-11.4621
▁poisson	-11.4623
évaluer	-11.4634
▁vase	-11.4653
▁partisan	-11.4654
▁makar	-11.4662
fifa	-11.4666
violette	-11.4677
aël	-11.4701
▁clad	-11.471
▁isolé	-11.4756
religion	-11.4772
interprète	-11.4772
août	-11.4773
chambre	-11.4773
cock	-11.4776
▁conventionnel	-11.4781
portrait	-11.4781
depuis	-11.4782
aîné	-11.4796
indique	-11.4796
langer	-11.4797
▁empêche	-11.4829
▁ravi	-11.4875
▁fédér	-11.4876
▁confession	-11.4917
▁israélien	-11.492
attribu	-11.4922
▁facile	-11.4927
▁conserva	-11.4936
critère	-11.4936
évolu	-11.494
▁résolu	-11.494
▁effectua	-11.4941
▁luthérien	-11.4941
acvfq	-11.4941
observatoire	-11.4941
▁betsiamites	-11.4941
▁chaussures	-11.4941
▁combinaison	-11.4941
▁comparaison	-11.4941
▁confédération	-11.4941
▁coordination	-11.4941
▁coéquipier	-11.4941
▁culpabilité	-11.4941
▁dissolution	-11.4941
▁dussourd	-11.4941
▁décisive	-11.4941
▁gibraltar	-11.4941
▁handicap	-11.4941
▁illégitime	-11.4941
▁jinping	-11.4941
▁langstaff	-11.4941
▁liverpool	-11.4941
▁livingston	-11.4941
▁mckernan	-11.4941
▁monténégro	-11.4941
▁navigateur	-11.4941
▁notoriété	-11.4941
▁pierrot	-11.4941
▁polémique	-11.4941
▁porcelaine	-11.4941
▁portefeuille	-11.4941
▁posséder	-11.4941
▁rapproché	-11.4941
▁savaresi	-11.4941
▁terrorisme	-11.4941
▁transparence	-11.4941
▁venezuela	-11.4941
▁vénitien	-11.4941
aéronef	-11.4941
énigme	-11.4941
▁belgrade	-11.4941
▁canberra	-11.4941
▁cromwell	-11.4941
▁outardes	-11.4941
▁pétition	-11.4941
émancip	-11.4941
▁coordinant	-11.4941
▁marketing	-11.4941
▁ravitaille	-11.4941
▁serpent	-11.4941
▁vraisemblable	-11.4941
adhésion	-11.4941
archipel	-11.4941
▁croyance	-11.4941
▁signification	-11.4941
▁1798	-11.4941
▁synode	-11.4941
▁fluide	-11.4941
▁pochette	-11.4941
▁nilsson	-11.4941
▁asiatique	-11.4941
▁stephan	-11.4941
▁intense	-11.4941
érudit	-11.4941
▁western	-11.4941
▁renversé	-11.4941
▁intégrale	-11.4941
▁franciscain	-11.4941
▁girard	-11.4941
▁tutelle	-11.4941
▁pedro	-11.4941
▁réalisa	-11.4942
▁constituai	-11.4942
▁engendr	-11.4942
▁reproche	-11.4942
uicn	-11.4942
hydrogène	-11.4942
▁fossé	-11.4942
▁silence	-11.4942
▁cascade	-11.4942
kumara	-11.4942
▁bourgogne	-11.4942
▁galloway	-11.4942
▁tangente	-11.4942
▁dallas	-11.4942
▁désignation	-11.4942
apparente	-11.4942
▁conduis	-11.4942
écologie	-11.4943
▁adhér	-11.4943
muséum	-11.4943
▁supernova	-11.4943
▁plainte	-11.4943
▁nichol	-11.4944
▁nikon	-11.4944
▁générateur	-11.4944
▁edmond	-11.4944
hudson	-11.4944
▁francfort	-11.4944
▁réfère	-11.4944
▁elias	-11.4944
apparence	-11.4944
derwent	-11.4945
▁falcon	-11.4945
▁précision	-11.4946
▁annexe	-11.4946
▁démarr	-11.4946
▁fortifié	-11.4946
▁restaure	-11.4947
accélération	-11.4948
▁algèbres	-11.4948
habitude	-11.4948
▁appartenait	-11.4949
▁archidiocèses	-11.4949
▁casting	-11.4949
evitch	-11.4949
▁patrie	-11.495
▁hermann	-11.495
▁option	-11.4951
▁sarre	-11.4953
▁turbo	-11.4953
▁pinson	-11.4953
▁lundi	-11.4953
▁fraude	-11.4954
▁1884	-11.4956
▁1855	-11.4956
▁1879	-11.4957
▁richesse	-11.4958
▁1896	-11.4958
▁graham	-11.4959
▁cannes	-11.496
▁1865	-11.4964
▁ursul	-11.4964
interroge	-11.4967
ohio	-11.4967
exploration	-11.4967
▁patrice	-11.4968
▁serviteur	-11.4976
▁kab	-11.4977
arian	-11.4986
aigle	-11.499
▁denver	-11.4995
▁rentré	-11.5019
▁terrien	-11.5055
planck	-11.5073
▁contract	-11.5074
▁chris	-11.5113
▁massa	-11.514
▁brûl	-11.5155
▁externe	-11.5173
▁francophone	-11.5175
blanc	-11.5181
oubli	-11.5306
espagnol	-11.5326
améliore	-11.5327
hebdomadaire	-11.5328
circonscription	-11.5328
sécurité	-11.5328
flotte	-11.5329
devenu	-11.5329
▁xiv	-11.5335
aérien	-11.5338
▁christoph	-11.5394
▁valeri	-11.5406
étonn	-11.5435
plante	-11.5441
▁socio	-11.5452
▁africa	-11.546
baby	-11.5477
perpétu	-11.5489
▁gymnas	-11.5496
▁confér	-11.5496
calédonie	-11.5497
embryon	-11.5497
extraterrestre	-11.5497
observateur	-11.5497
smackdown	-11.5497
wiesbaden	-11.5497
▁besançon	-11.5497
▁cleveland	-11.5497
▁coefficient	-11.5497
▁controversé	-11.5497
▁célébrer	-11.5497
▁distribue	-11.5497
▁dunkeld	-11.5497
▁expulsé	-11.5497
▁giordano	-11.5497
▁groningue	-11.5497
▁généalogi	-11.5497
▁history	-11.5497
▁hiérarchie	-11.5497
▁knorring	-11.5497
▁légitime	-11.5497
▁macdonald	-11.5497
▁macédoine	-11.5497
▁mercredi	-11.5497
▁mitchell	-11.5497
▁mécanisme	-11.5497
▁mélodie	-11.5497
▁octogonal	-11.5497
▁phylogénétique	-11.5497
▁politburo	-11.5497
▁principauté	-11.5497
▁proclamé	-11.5497
▁protocole	-11.5497
▁prématuré	-11.5497
▁requête	-11.5497
▁rumelange	-11.5497
▁septentrionale	-11.5497
▁snooker	-11.5497
▁trajectoire	-11.5497
▁tranchées	-11.5497
▁tsurumai	-11.5497
▁vacances	-11.5497
▁waldeck	-11.5497
▁écrivit	-11.5497
▁cadours	-11.5497
▁eiermann	-11.5497
▁magistrat	-11.5497
▁matthew	-11.5497
▁poitiers	-11.5497
▁sécuris	-11.5497
▁vicinaux	-11.5497
élévation	-11.5497
▁1863	-11.5497
▁bedford	-11.5497
▁conducteur	-11.5497
▁ernst	-11.5497
▁fasciste	-11.5497
▁propagande	-11.5497
▁préface	-11.5497
▁sawayama	-11.5497
▁surveiller	-11.5497
élysée	-11.5497
▁bonheur	-11.5497
▁coquille	-11.5497
▁idéale	-11.5497
▁pastorale	-11.5497
▁négatif	-11.5497
▁zêta	-11.5497
pompiers	-11.5497
▁irwin	-11.5497
▁middle	-11.5497
▁survivre	-11.5497
▁variés	-11.5497
méthyl	-11.5497
▁buchan	-11.5497
écrivent	-11.5497
▁capucin	-11.5497
▁dijon	-11.5497
▁modéré	-11.5497
▁1852	-11.5497
▁relevé	-11.5497
▁sacrifi	-11.5497
▁granite	-11.5497
▁forestier	-11.5497
▁kře	-11.5497
▁trevor	-11.5497
▁fichier	-11.5497
▁programmé	-11.5497
atterrissage	-11.5497
▁flamand	-11.5497
▁nathan	-11.5497
▁garcia	-11.5497
▁fascin	-11.5497
▁diamant	-11.5497
▁dresde	-11.5497
▁theatre	-11.5497
▁mourir	-11.5497
▁slogan	-11.5497
▁frappé	-11.5497
▁épousa	-11.5497
▁intellectuelle	-11.5497
▁massive	-11.5497
animateur	-11.5497
▁porche	-11.5497
▁rénové	-11.5497
mouth	-11.5497
▁voulu	-11.5498
▁gaule	-11.5498
▁xviii	-11.5498
éditrice	-11.5498
▁dissous	-11.5498
▁miroir	-11.5499
▁silva	-11.5499
▁abonda	-11.5499
▁lambert	-11.5499
▁provenance	-11.5499
▁valérie	-11.55
▁hasard	-11.55
slieve	-11.5501
▁comprenaient	-11.5501
▁mongol	-11.5502
▁masques	-11.5503
▁constate	-11.5503
▁frederic	-11.5503
▁wust	-11.5504
▁séoul	-11.5504
kowsk	-11.5506
="1	-11.5507
▁éthiopien	-11.5507
▁entrant	-11.5507
▁prestigieuse	-11.5507
▁binaire	-11.5508
apprenti	-11.5508
▁moindre	-11.5509
▁creuse	-11.551
▁soigne	-11.551
▁valley	-11.5511
▁loutre	-11.5512
▁faiblesse	-11.5513
▁traction	-11.5513
clerc	-11.5513
▁1875	-11.5516
05)	-11.5517
▁israélienne	-11.5519
▁dangereuse	-11.5521
▁1868	-11.5521
theater	-11.5522
▁lecce	-11.5522
▁1807	-11.5523
▁guili	-11.5524
▁sauve	-11.5526
▁abordé	-11.5529
▁affronter	-11.5536
▁disparaît	-11.5553
▁bordure	-11.5568
▁brisé	-11.5578
public	-11.5583
canadi	-11.5584
▁susan	-11.5594
calais	-11.5612
ipac	-11.5627
▁lucien	-11.564
incub	-11.5643
▁tronc	-11.5644
▁réfugié	-11.5762
▁kilomètre	-11.5765
▁minute	-11.5767
▁impérial	-11.5799
▁initial	-11.5808
▁philip	-11.5851
reconnaître	-11.5866
sdorf	-11.587
▁froid	-11.5894
habit	-11.5911
israël	-11.5914
incendie	-11.5915
apparition	-11.5916
croix	-11.5916
chanson	-11.5917
longueur	-11.5917
center	-11.592
prince	-11.5923
tosca	-11.5931
voyant	-11.5989
▁sexuel	-11.5996
arbitre	-11.5999
▁euska	-11.6014
▁officie	-11.6027
▁cabine	-11.607
▁universel	-11.6071
▁sollicit	-11.6074
▁harris	-11.6081
identifie	-11.6081
▁immédiat	-11.6083
archidiacre	-11.6085
outaouais	-11.6085
écureuils	-11.6085
▁2016-2017	-11.6085
▁abilways	-11.6085
▁apparemment	-11.6085
▁armoiries	-11.6085
▁blindage	-11.6085
▁bénéfice	-11.6085
▁charpente	-11.6085
▁condamnation	-11.6085
▁cracksman	-11.6085
▁diplomatie	-11.6085
▁douglas	-11.6085
▁douzième	-11.6085
▁décharge	-11.6085
▁düsseldorf	-11.6085
▁empirique	-11.6085
▁encouragé	-11.6085
▁facebook	-11.6085
▁faillite	-11.6085
▁fiancée	-11.6085
▁fitzroy	-11.6085
▁giuseppe	-11.6085
▁génome	-11.6085
▁jérôme	-11.6085
▁leipzig	-11.6085
▁maintenance	-11.6085
▁memorial	-11.6085
▁mussolini	-11.6085
▁pandémie	-11.6085
▁patrouille	-11.6085
▁qadri	-11.6085
▁radiodiffusion	-11.6085
▁raytheon	-11.6085
▁sydney	-11.6085
▁synonymes	-11.6085
▁tchitogama	-11.6085
▁tchécoslovaquie	-11.6085
▁théâtrale	-11.6085
▁triomphe	-11.6085
▁typologie	-11.6085
▁warriors	-11.6085
▁élaboré	-11.6085
evolution	-11.6085
excellence	-11.6085
imaginaire	-11.6085
▁certifié	-11.6085
▁condamne	-11.6085
▁stivell	-11.6085
▁wycombe	-11.6085
▁épinière	-11.6085
▁adressé	-11.6085
▁prévention	-11.6085
▁schröder	-11.6085
▁énorme	-11.6085
audiovisuel	-11.6085
palazzo	-11.6085
rhône	-11.6085
▁apprécie	-11.6085
▁conversion	-11.6085
athéisme	-11.6085
▁canular	-11.6085
▁défaut	-11.6085
▁détenteur	-11.6085
▁guerrier	-11.6085
▁marginal	-11.6085
▁tanguy	-11.6085
▁colonisation	-11.6085
▁existé	-11.6085
▁harriet	-11.6085
▁mozart	-11.6085
édimbourg	-11.6085
▁1782	-11.6085
aucassin	-11.6085
runacher	-11.6085
▁neutrali	-11.6085
▁leçons	-11.6085
▁réédité	-11.6085
animatrice	-11.6085
infraction	-11.6085
▁channel	-11.6085
▁cadeaux	-11.6085
ampleur	-11.6085
▁géologie	-11.6085
▁inédite	-11.6085
▁roubles	-11.6085
accroissement	-11.6085
▁ignore	-11.6085
▁remercie	-11.6085
anthologie	-11.6085
▁sieger	-11.6086
▁tigre	-11.6086
▁adhère	-11.6086
▁allongé	-11.6086
▁meyer	-11.6086
▁flasque	-11.6086
▁rights	-11.6086
▁inventé	-11.6086
▁jenni	-11.6086
▁jimmy	-11.6086
gridman	-11.6086
▁omni	-11.6086
plasma	-11.6086
▁chancelier	-11.6087
▁quête	-11.6087
▁catalan	-11.6087
▁densité	-11.6087
▁renverse	-11.6087
на	-11.6087
▁aitken	-11.6087
▁claudi	-11.6087
▁réprim	-11.6087
▁diego	-11.6087
▁bunny	-11.6088
▁prologue	-11.6088
▁capensis	-11.6088
▁dépendances	-11.6088
modalité	-11.6088
alaska	-11.6088
▁gordon	-11.6088
▁nourriture	-11.6088
▁console	-11.6088
▁sauvé	-11.6088
▁ptc	-11.6089
▁baleine	-11.6089
▁champagne	-11.6089
▁triangle	-11.6089
▁nicolette	-11.6089
▁defence	-11.609
▁hayat	-11.609
▁arrows	-11.609
▁logistique	-11.609
▁soutiennent	-11.609
▁cambre	-11.609
▁brésilien	-11.6091
▁agrandi	-11.6091
érosion	-11.6091
éclairage	-11.6092
▁plonge	-11.6092
▁greff	-11.6092
▁trouvaient	-11.6092
▁atterri	-11.6093
▁honda	-11.6093
atomique	-11.6093
▁morris	-11.6094
ăng	-11.6095
▁croire	-11.6096
▁spécialité	-11.6096
▁fabien	-11.6104
sinsat	-11.6105
ogramme	-11.6153
▁compact	-11.619
▁dalle	-11.6194
arctique	-11.6222
armand	-11.6227
model	-11.634
accroît	-11.636
carbon	-11.6387
▁missile	-11.6387
▁ouvrière	-11.6387
▁compétence	-11.6388
▁alimenté	-11.6433
agisse	-11.6491
haute	-11.6499
traînant	-11.6511
▁proportion	-11.652
enseigne	-11.6533
extension	-11.654
éviter	-11.654
atteindre	-11.6541
arthur	-11.6541
assistant	-11.6541
social	-11.6541
pilote	-11.6541
exemple	-11.6541
football	-11.6542
français	-11.6542
charles	-11.6542
femmes	-11.6543
exerce	-11.6543
côte	-11.6543
éléments	-11.6544
aimé	-11.6561
▁cern	-11.6587
céder	-11.6606
▁drap	-11.6647
▁spécifi	-11.6698
▁germani	-11.6701
▁physi	-11.6702
accélér	-11.6702
assassin	-11.6704
inondation	-11.6705
geometry	-11.671
acarinarium	-11.671
citroën	-11.671
fyodorovka	-11.671
immaculée	-11.671
schreiber	-11.671
évacuation	-11.671
▁2019-2020	-11.671
▁bathyra	-11.671
▁beyrouth	-11.671
▁bourrha	-11.671
▁chicots	-11.671
▁chirurgie	-11.671
▁collégiale	-11.671
▁copenhague	-11.671
▁cylindre	-11.671
▁célibataire	-11.671
▁dictature	-11.671
▁douzaine	-11.671
▁délimité	-11.671
▁démocratie	-11.671
▁déménagé	-11.671
▁guazzoni	-11.671
▁guitariste	-11.671
▁guiziga	-11.671
▁huntingdon	-11.671
▁inaugural	-11.671
▁ismaili	-11.671
▁messieurs	-11.671
▁minnesota	-11.671
▁netflix	-11.671
▁pilotage	-11.671
▁pratiquant	-11.671
▁primitif	-11.671
▁problématique	-11.671
▁protectorat	-11.671
▁protège	-11.671
▁préparatoire	-11.671
▁pédagogique	-11.671
▁rijckaert	-11.671
▁réaffecté	-11.671
▁révérend	-11.671
▁scandinavie	-11.671
▁schwarzenegger	-11.671
▁sexfontaines	-11.671
▁souffrant	-11.671
▁strašecí	-11.671
▁succéder	-11.671
▁symptômes	-11.671
▁sédiments	-11.671
▁théoricien	-11.671
▁triangulaire	-11.671
▁tronçon	-11.671
▁éireann	-11.671
▁évident	-11.671
abkhazie	-11.671
implantation	-11.671
philitt	-11.671
trifluor	-11.671
▁carpates	-11.671
▁inhabituel	-11.671
▁kotoko	-11.671
▁meubles	-11.671
▁mistouk	-11.671
▁probabilité	-11.671
▁recherché	-11.671
▁remplaçant	-11.671
▁restreint	-11.671
▁significative	-11.671
asphodel	-11.671
▁apparenté	-11.671
▁bagdad	-11.671
▁figurant	-11.671
▁göth	-11.671
▁lambrior	-11.671
▁mondiaux	-11.671
vasculaire	-11.671
▁allusion	-11.671
▁limoge	-11.671
▁rachète	-11.671
▁faîte	-11.671
▁hitomi	-11.671
▁brothers	-11.671
▁détaché	-11.671
▁gothique	-11.671
▁ludwig	-11.671
▁glacier	-11.671
▁interrogé	-11.671
▁négative	-11.671
▁retrace	-11.671
▁voûte	-11.671
▁1846	-11.671
▁río	-11.671
▁monarque	-11.671
▁détecte	-11.671
▁securit	-11.671
▁sodium	-11.671
endurance	-11.671
izieu	-11.671
▁quarante	-11.671
macronyx	-11.671
évasion	-11.671
avertissement	-11.671
idéologie	-11.671
▁timoth	-11.671
▁suscité	-11.671
▁torturé	-11.671
▁économiste	-11.671
▁pimentel	-11.671
▁classic	-11.671
intrigue	-11.671
▁coutume	-11.671
▁theodor	-11.671
▁asselin	-11.671
▁zaidee	-11.671
optimis	-11.671
▁cnrs	-11.671
touloum	-11.671
▁déroula	-11.671
gervais	-11.671
portlandia	-11.6711
▁paramètre	-11.6711
égide	-11.6711
▁deboutte	-11.6711
▁emmené	-11.6711
variant	-11.6711
assyrie	-11.6711
▁islamiste	-11.6711
▁confisqué	-11.6711
emaki	-11.6711
▁géométrique	-11.6711
▁militar	-11.6711
▁edmund	-11.6711
▁bowley	-11.6711
▁cerveau	-11.6712
asterius	-11.6712
▁fromelles	-11.6712
îlot	-11.6712
▁poussé	-11.6712
▁chelem	-11.6713
▁chayes	-11.6713
▁opéré	-11.6713
▁evans	-11.6713
▁leturc	-11.6713
▁instaur	-11.6713
▁judah	-11.6714
▁reliques	-11.6714
▁lauberg	-11.6714
number	-11.6715
▁topologie	-11.6715
▁viande	-11.6715
▁lésion	-11.6716
▁originelle	-11.6718
▁bertin	-11.6719
▁frein	-11.6719
▁conquis	-11.6719
▁appuyé	-11.6719
achever	-11.6722
josef	-11.6723
▁short	-11.6724
▁payé	-11.6724
holstein	-11.6727
▁béatifi	-11.6729
▁crypto	-11.6729
▁censé	-11.6732
▁souvien	-11.6735
impôt	-11.6761
twin	-11.6773
▁privat	-11.6822
ornementation	-11.6829
arrow	-11.6847
trauma	-11.6849
▁renvoy	-11.6868
▁proportionnel	-11.6904
bacill	-11.6922
oural	-11.6925
intéress	-11.6936
▁antérieur	-11.6956
engin	-11.7008
▁interprété	-11.7136
▁liquid	-11.7156
paraissent	-11.7171
fontaine	-11.7183
administrateur	-11.7206
appartement	-11.7206
colonel	-11.7207
étudier	-11.7207
héritier	-11.7208
animaux	-11.7208
première	-11.7208
quatre	-11.7209
compte	-11.7209
1997	-11.7209
oncle	-11.7209
hung	-11.7234
abandonner	-11.727
witt	-11.7287
stituer	-11.7296
escence	-11.7308
▁jewel	-11.7317
illère	-11.7359
▁suffi	-11.7361
▁matériau	-11.7371
▁panneau	-11.7371
▁bowl	-11.7375
▁espion	-11.7377
ométrie	-11.7377
assembly	-11.7377
berlanguella	-11.7377
gendarmerie	-11.7377
hypertrucage	-11.7377
introduire	-11.7377
pâturage	-11.7377
émigration	-11.7377
▁2015-2016	-11.7377
▁bonaparte	-11.7377
▁bouddhisme	-11.7377
▁broadway	-11.7377
▁carcassonne	-11.7377
▁casablanca	-11.7377
▁chanverrie	-11.7377
▁chelsea	-11.7377
▁cinquantaine	-11.7377
▁combinatoire	-11.7377
▁compatible	-11.7377
▁connexion	-11.7377
▁consommateurs	-11.7377
▁cérébral	-11.7377
▁dissimul	-11.7377
▁démembré	-11.7377
▁détérior	-11.7377
▁folklore	-11.7377
▁guatemala	-11.7377
▁homonyme	-11.7377
▁hydrographique	-11.7377
▁innocent	-11.7377
▁jonathan	-11.7377
▁judaïsme	-11.7377
▁kagoshima	-11.7377
▁kennedy	-11.7377
▁kentucky	-11.7377
▁komunista	-11.7377
▁makhmudov	-11.7377
▁mésopotamie	-11.7377
▁mœurs	-11.7377
▁nîmes	-11.7377
▁paludisme	-11.7377
▁patriotique	-11.7377
▁repoussé	-11.7377
▁récupère	-11.7377
▁secrétariat	-11.7377
▁sociologue	-11.7377
▁soudanais	-11.7377
▁steelers	-11.7377
▁succédant	-11.7377
▁suspension	-11.7377
▁syllabes	-11.7377
▁taktovik	-11.7377
▁voronej	-11.7377
▁westminster	-11.7377
▁échangé	-11.7377
▁évangélique	-11.7377
oppression	-11.7377
▁communautaire	-11.7377
▁câble	-11.7377
▁justifie	-11.7377
▁obispo	-11.7377
▁ouïghour	-11.7377
▁philologue	-11.7377
▁révéler	-11.7377
anatomie	-11.7377
envergure	-11.7377
ogenèse	-11.7377
planétaire	-11.7377
▁1794	-11.7377
▁benkart	-11.7377
▁carburant	-11.7377
▁tsering	-11.7377
▁lumbres	-11.7377
▁onzième	-11.7377
▁réplique	-11.7377
▁supervisé	-11.7377
▁sévère	-11.7377
▁hannah	-11.7377
▁shannon	-11.7377
▁stanford	-11.7377
aellopos	-11.7377
▁kaldor	-11.7377
▁répété	-11.7377
messaline	-11.7377
▁centenaire	-11.7377
▁comparable	-11.7377
▁migration	-11.7377
▁routière	-11.7377
▁1892	-11.7377
▁bloqué	-11.7377
▁grenade	-11.7377
▁boursier	-11.7377
▁spencer	-11.7377
▁chimiste	-11.7377
atlanta	-11.7377
▁dorsale	-11.7377
▁défunt	-11.7377
▁french	-11.7377
▁study	-11.7377
exposant	-11.7377
▁annonça	-11.7377
▁(2017)	-11.7377
▁malaisie	-11.7377
▁perçu	-11.7377
▁tragique	-11.7377
▁harbor	-11.7377
▁mountain	-11.7377
immense	-11.7377
▁dolmen	-11.7377
▁soares	-11.7377
▁castille	-11.7377
▁summer	-11.7377
▁marxiste	-11.7377
▁plaza	-11.7377
▁mépris	-11.7377
▁minerai	-11.7377
▁scierie	-11.7377
▁lucarne	-11.7377
donovan	-11.7377
▁walton	-11.7377
▁tanzanie	-11.7377
inominal	-11.7377
▁bologne	-11.7377
▁détruis	-11.7377
▁récolte	-11.7377
▁stakes	-11.7377
▁reuter	-11.7377
▁ronald	-11.7377
▁croisée	-11.7377
▁livré	-11.7377
▁antilles	-11.7377
hippoc	-11.7377
▁curtis	-11.7378
▁grammy	-11.7378
délicat	-11.7378
humour	-11.7378
▁creusé	-11.7378
uzhou	-11.7378
▁plantation	-11.7378
▁roulant	-11.7378
▁confis	-11.7378
▁monogène	-11.7378
▁venait	-11.7378
▁kingdom	-11.7378
▁microphone	-11.7379
▁entretenu	-11.7379
mokolo	-11.7379
▁tavern	-11.7379
▁paternel	-11.7379
▁edgar	-11.7379
▁amphi	-11.738
hésite	-11.738
▁cdc	-11.738
figuré	-11.738
ièvre	-11.7381
▁fusée	-11.7381
▁identifier	-11.7381
▁attesté	-11.7381
▁survit	-11.7381
individualis	-11.7382
andorre	-11.7382
▁reims	-11.7382
entourage	-11.7384
monterey	-11.7384
▁oublié	-11.7385
▁glisse	-11.7386
interromp	-11.7394
shoot	-11.7395
éther	-11.7399
agrément	-11.7404
▁persan	-11.7404
▁ambro	-11.7405
▁regret	-11.7406
excuse	-11.7409
▁averti	-11.742
protect	-11.7423
marianne	-11.7436
plaçant	-11.7443
▁référent	-11.7445
▁šk	-11.7464
essimi	-11.7473
▁sabot	-11.7494
▁inscri	-11.7503
medium	-11.7521
valentin	-11.7537
traitant	-11.7546
▁étroit	-11.7613
enlèvement	-11.7663
▁regroup	-11.7679
approuv	-11.7737
▁enlève	-11.7792
simha	-11.7807
▁monét	-11.7847
▁survenu	-11.79
▁arbor	-11.79
niagara	-11.7921
automobile	-11.7922
seigneur	-11.7922
parfois	-11.7923
émile	-11.7923
château	-11.7923
league	-11.7923
perçoit	-11.7932
▁détermine	-11.7983
▁prestigieu	-11.8077
appropri	-11.8078
esclave	-11.8086
intitul	-11.8091
hexagon	-11.8091
▁bactérie	-11.8091
▁fantastique	-11.8091
▁intérim	-11.8091
▁oppenheim	-11.8091
▁orchestra	-11.8091
▁vélizy	-11.8091
apecita	-11.8091
arétin	-11.8091
axholme	-11.8091
palatinat	-11.8091
rojektmanagement	-11.8091
signifiant	-11.8091
éphémère	-11.8091
▁alessandr	-11.8091
▁alphonse	-11.8091
▁budapest	-11.8091
▁building	-11.8091
▁bustamante	-11.8091
▁citoyenneté	-11.8091
▁concubines	-11.8091
▁confronté	-11.8091
▁conservatrice	-11.8091
▁constructiviste	-11.8091
▁cuilcagh	-11.8091
▁discrète	-11.8091
▁dépourvu	-11.8091
▁engineering	-11.8091
▁ezkerra	-11.8091
▁fantôme	-11.8091
▁flaubert	-11.8091
▁fœtus	-11.8091
▁gestapo	-11.8091
▁gonzález	-11.8091
▁guggenheim	-11.8091
▁gwyllym	-11.8091
▁icône	-11.8091
▁incarcéré	-11.8091
▁lidotchka	-11.8091
▁livraison	-11.8091
▁légendaire	-11.8091
▁mahtessian	-11.8091
▁maximilien	-11.8091
▁mousgoum	-11.8091
▁nettoyage	-11.8091
▁nocturne	-11.8091
▁nouméa	-11.8091
▁numismatique	-11.8091
▁opdyke	-11.8091
▁opolais	-11.8091
▁pamphlet	-11.8091
▁pasechnik	-11.8091
▁patrimonial	-11.8091
▁pernkopf	-11.8091
▁pittiplatsch	-11.8091
▁pittsburgh	-11.8091
▁préfectoral	-11.8091
▁préparatifs	-11.8091
▁prétext	-11.8091
▁puyricard	-11.8091
▁pénurie	-11.8091
▁qianlong	-11.8091
▁reconstruire	-11.8091
▁reflète	-11.8091
▁respiratoire	-11.8091
▁rivérieulx	-11.8091
▁rythmique	-11.8091
▁réfugie	-11.8091
▁référendum	-11.8091
▁répétition	-11.8091
▁sauvegarde	-11.8091
▁schneider	-11.8091
▁sergueï	-11.8091
▁slovaquie	-11.8091
▁spéciaux	-11.8091
▁studies	-11.8091
▁taiyuan	-11.8091
▁technicien	-11.8091
▁vishnou	-11.8091
▁émigre	-11.8091
▁cabaret	-11.8091
▁captivité	-11.8091
▁fertilité	-11.8091
▁foundation	-11.8091
▁hostile	-11.8091
▁lindsey	-11.8091
▁loango	-11.8091
▁prairie	-11.8091
▁prestige	-11.8091
▁rencontra	-11.8091
▁sponsor	-11.8091
▁vashem	-11.8091
aventurier	-11.8091
intensité	-11.8091
▁bubble	-11.8091
▁incertain	-11.8091
▁moldave	-11.8091
▁priorité	-11.8091
▁quintinie	-11.8091
▁robinson	-11.8091
▁bernabé	-11.8091
▁brochure	-11.8091
▁clermont	-11.8091
▁eagles	-11.8091
▁gallery	-11.8091
▁primitive	-11.8091
▁bâton	-11.8091
▁gibson	-11.8091
▁humanitaire	-11.8091
▁convoque	-11.8091
▁montaigne	-11.8091
▁shinran	-11.8091
▁stadium	-11.8091
▁1792	-11.8091
▁portsmouth	-11.8091
▁control	-11.8091
▁http	-11.8091
▁pyramid	-11.8091
espionnage	-11.8091
▁menetou	-11.8091
▁découp	-11.8091
▁mazarin	-11.8091
▁préalable	-11.8091
▁siéger	-11.8091
▁mindif	-11.8091
▁communiquer	-11.8091
▁congolais	-11.8091
▁heinz	-11.8091
▁foncé	-11.8091
▁gaulle	-11.8091
▁relevant	-11.8091
▁intervenu	-11.8091
▁matteo	-11.8091
clamart	-11.8091
▁convient	-11.8091
▁cubesat	-11.8091
▁mobilisé	-11.8091
▁fleet	-11.8091
▁accueillant	-11.8091
▁enchères	-11.8091
feature	-11.8091
▁houston	-11.8091
▁provoqua	-11.8091
inspection	-11.8091
▁rebond	-11.8091
palestinien	-11.8091
▁langres	-11.8091
borate	-11.8091
▁civique	-11.8091
auschwitz	-11.8091
▁reconstitu	-11.8091
▁fermier	-11.8092
▁réparé	-11.8092
▁informé	-11.8092
▁libérer	-11.8092
▁mtv	-11.8092
essonne	-11.8092
▁pénétr	-11.8092
▁éduqu	-11.8092
▁exploitant	-11.8092
▁malheur	-11.8092
▁grove	-11.8092
▁logique	-11.8092
▁négocie	-11.8092
▁gascar	-11.8092
▁dakar	-11.8092
▁intéressant	-11.8092
▁soudain	-11.8092
▁gisement	-11.8093
▁olga	-11.8093
▁jasmin	-11.8093
▁enfermé	-11.8093
▁ethnie	-11.8093
▁réduis	-11.8093
ен	-11.8093
▁lointain	-11.8093
acariens	-11.8094
figaro	-11.8094
▁intact	-11.8094
▁dévast	-11.8094
▁satisfaisant	-11.8094
▁bassiste	-11.8095
▁lotus	-11.8095
▁confère	-11.8095
▁assume	-11.8095
▁chapel	-11.8095
▁estimation	-11.8096
▁abandonna	-11.8097
▁nikol	-11.8102
alsacien	-11.8103
▁kurt	-11.8104
▁cartographi	-11.8105
lègue	-11.8107
▁garnis	-11.8108
twent	-11.811
▁symbolis	-11.8115
confessionnel	-11.8124
▁brouill	-11.8135
▁choua	-11.8151
▁réserv	-11.8166
▁craint	-11.8173
incite	-11.8267
onnait	-11.8267
honorable	-11.8305
admiral	-11.833
▁hende	-11.8362
▁recul	-11.8396
▁publi	-11.8495
présent	-11.8557
88)	-11.8572
▁enchaîn	-11.861
▁enceint	-11.8656
▁témoign	-11.8679
constance	-11.869
maurice	-11.869
préfet	-11.8691
adjoint	-11.8691
saguenay	-11.8691
communications	-11.8692
élargi	-11.8692
arrive	-11.8695
1998	-11.8696
▁réhabilit	-11.8697
▁orphelin	-11.8745
nfluence	-11.8767
▁procéd	-11.8779
▁explos	-11.8783
▁léopold	-11.8797
▁éolien	-11.8801
symbol	-11.8829
▁ukrainien	-11.8836
▁américa	-11.8842
▁satisfai	-11.8857
▁révéla	-11.8859
▁expliqua	-11.886
electronic	-11.886
gliflozine	-11.886
harpalyc	-11.886
holocaust	-11.886
épiscopat	-11.886
▁alphabétique	-11.886
▁benedetti	-11.886
▁beskidenkorps	-11.886
▁chronologique	-11.886
▁clausonne	-11.886
▁collecté	-11.886
▁configuration	-11.886
▁connecticut	-11.886
▁convergence	-11.886
▁coïncide	-11.886
▁cracovie	-11.886
▁crâne	-11.886
▁cuirassiers	-11.886
▁diagnostic	-11.886
▁diaspora	-11.886
▁divertissement	-11.886
▁djihadistes	-11.886
▁doctrine	-11.886
▁défensive	-11.886
▁désespéré	-11.886
▁détecté	-11.886
▁electric	-11.886
▁flûte	-11.886
▁guidiguis	-11.886
▁hirscher	-11.886
▁hostilités	-11.886
▁industrial	-11.886
▁jouvenel	-11.886
▁kamiizumi	-11.886
▁kudeříková	-11.886
▁locomotive	-11.886
▁léningrad	-11.886
▁mixtape	-11.886
▁montgomery	-11.886
▁municipaux	-11.886
▁narbonne	-11.886
▁norreis	-11.886
▁néoclassique	-11.886
▁polnareff	-11.886
▁poniatowski	-11.886
▁popularis	-11.886
▁reconverti	-11.886
▁reréformé	-11.886
▁réactif	-11.886
▁récipiendaire	-11.886
▁successif	-11.886
▁tchécoslovaque	-11.886
▁titularis	-11.886
▁trèves	-11.886
▁villegailhenc	-11.886
▁virginia	-11.886
▁échantillons	-11.886
utérus	-11.886
▁biomasse	-11.886
▁bolivie	-11.886
▁bristol	-11.886
▁carrefour	-11.886
▁chorégraphi	-11.886
▁cofondateur	-11.886
▁cuivre	-11.886
▁désastre	-11.886
▁envisagé	-11.886
▁guardian	-11.886
▁haberman	-11.886
▁honorifique	-11.886
▁jalobert	-11.886
▁jockey	-11.886
▁maigret	-11.886
▁mataró	-11.886
▁mizuki	-11.886
▁souffrance	-11.886
▁vijaya	-11.886
▁vétéran	-11.886
hygiène	-11.886
▁affaibli	-11.886
▁engelhorn	-11.886
▁family	-11.886
▁iraultza	-11.886
▁saxophon	-11.886
fantasia	-11.886
▁bavarois	-11.886
▁chypre	-11.886
▁monastique	-11.886
▁précieux	-11.886
▁recettes	-11.886
▁sabinus	-11.886
couesnon	-11.886
identification	-11.886
thérapie	-11.886
▁céleste	-11.886
▁hispani	-11.886
▁peloton	-11.886
▁sabetta	-11.886
▁thématique	-11.886
argyll	-11.886
▁coppel	-11.886
alembert	-11.886
▁différencie	-11.886
▁pepsi	-11.886
▁bruyère	-11.886
▁clavier	-11.886
hérault	-11.886
skaïa	-11.886
▁1788	-11.886
▁dolnik	-11.886
▁hitler	-11.886
▁agrégé	-11.886
▁bishop	-11.886
▁hollande	-11.886
▁mšec	-11.886
▁rooney	-11.886
▁suffixe	-11.886
▁wallonne	-11.886
▁dîner	-11.886
▁propice	-11.886
▁neurologique	-11.886
▁tétrakis	-11.886
▁1858	-11.886
▁jésus	-11.886
▁miguel	-11.886
▁desfoux	-11.886
▁suppléant	-11.886
▁galicie	-11.886
▁iskand	-11.886
▁sncf	-11.886
▁rotonde	-11.886
abonnés	-11.886
▁sicilien	-11.886
▁adepte	-11.886
▁circulaire	-11.886
▁renamo	-11.886
▁pâle	-11.886
▁discret	-11.886
▁importé	-11.886
escalade	-11.886
interruption	-11.8861
▁bateson	-11.8861
▁remontant	-11.8861
▁wagons	-11.8861
▁kansas	-11.8861
▁ollier	-11.8861
▁innovant	-11.8861
königsberg	-11.8861
▁relance	-11.8861
▁ingram	-11.8861
▁particules	-11.8861
▁sloan	-11.8861
alabama	-11.8861
▁trust	-11.8861
▁incorporée	-11.8861
▁natation	-11.8861
▁couronné	-11.8861
▁comores	-11.8861
▁diffère	-11.8861
▁préconis	-11.8862
▁troie	-11.8862
▁conduir	-11.8862
saône	-11.8862
▁vacant	-11.8862
▁décriva	-11.8862
indonésie	-11.8862
▁douleur	-11.8863
▁dennis	-11.8863
▁rumeur	-11.8863
▁augmenta	-11.8866
▁cuir	-11.8867
▁rationnel	-11.8868
agathe	-11.887
encadré	-11.8872
▁salué	-11.8874
endorf	-11.8877
abeille	-11.8882
nosaur	-11.8898
▁jumeau	-11.8901
léopoldine	-11.8924
explosion	-11.8935
chaîne	-11.8951
sentinel	-11.9049
abside	-11.9061
étang	-11.9099
▁fondamental	-11.9129
▁devrai	-11.9151
onyme	-11.9228
▁inuit	-11.9251
▁structur	-11.9322
▁physicien	-11.9326
paraître	-11.9369
attirer	-11.9421
inspecteur	-11.9523
exemplaires	-11.9523
neuvième	-11.9523
ordinateur	-11.9524
anniversaire	-11.9524
amsterdam	-11.9524
irlandais	-11.9524
antonio	-11.9524
lieutenant	-11.9524
luxembourg	-11.9525
washington	-11.9525
défaite	-11.9525
société	-11.9525
nicolas	-11.9525
chapelle	-11.9525
cameroun	-11.9525
urbain	-11.9525
londres	-11.9526
cycle	-11.9526
rôle	-11.9529
affirme	-11.953
japon	-11.9531
militaire	-11.9532
estonie	-11.9557
▁transfér	-11.9604
ographiques	-11.9622
▁intellige	-11.9661
▁gouverne	-11.9663
britanni	-11.9686
▁compétit	-11.9691
sidence	-11.9693
▁gouverna	-11.9693
coordinates	-11.9693
▁développa	-11.9693
▁kavanagh	-11.9693
▁maastricht	-11.9693
▁nicaragua	-11.9693
▁précède	-11.9693
aristote	-11.9694
aveugle	-11.9694
entomologiste	-11.9694
goldzeiguer	-11.9694
gonzague	-11.9694
hippodrome	-11.9694
properties	-11.9694
qahtani	-11.9694
évangile	-11.9694
▁abdulaziz	-11.9694
▁albești	-11.9694
▁berkshire	-11.9694
▁bilingue	-11.9694
▁bundestag	-11.9694
▁bürgerschaft	-11.9694
▁cadavre	-11.9694
▁california	-11.9694
▁caucase	-11.9694
▁channakeshara	-11.9694
▁clôture	-11.9694
▁cohérence	-11.9694
▁confrontation	-11.9694
▁consécutif	-11.9694
▁conviction	-11.9694
▁cuirassé	-11.9694
▁domeniconi	-11.9694
▁déferrée	-11.9694
▁détournement	-11.9694
▁eberhard	-11.9694
▁emblématique	-11.9694
▁gregory	-11.9694
▁habsbourg	-11.9694
▁humoristique	-11.9694
▁introduis	-11.9694
▁kosgei	-11.9694
▁lasauvage	-11.9694
▁libanais	-11.9694
▁licencié	-11.9694
▁liptako	-11.9694
▁liturgique	-11.9694
▁loyzeau	-11.9694
▁lópez	-11.9694
▁ministériel	-11.9694
▁miscibles	-11.9694
▁mishelevka	-11.9694
▁mitrailleuse	-11.9694
▁motorsport	-11.9694
▁muvahhit	-11.9694
▁napolitain	-11.9694
▁obasanjo	-11.9694
▁organisateurs	-11.9694
▁photovoltaïque	-11.9694
▁politicien	-11.9694
▁propulsion	-11.9694
▁python	-11.9694
▁pèlerinage	-11.9694
▁randonnée	-11.9694
▁recommande	-11.9694
▁rinpoché	-11.9694
▁récepteur	-11.9694
▁résultant	-11.9694
▁schoellkopf	-11.9694
▁sedlčany	-11.9694
▁singulier	-11.9694
▁softball	-11.9694
▁spécul	-11.9694
▁sternlicht	-11.9694
▁sympathis	-11.9694
▁tchebychev	-11.9694
▁thaïlandais	-11.9694
▁thuringe	-11.9694
▁traducteur	-11.9694
▁tragédie	-11.9694
▁transformisme	-11.9694
▁vestimentaire	-11.9694
▁vinogradov	-11.9694
▁énergétique	-11.9694
aquitaine	-11.9694
empreinte	-11.9694
soyouz	-11.9694
vindske	-11.9694
éventail	-11.9694
▁bijoux	-11.9694
▁contraste	-11.9694
▁council	-11.9694
▁dauphin	-11.9694
▁lithium	-11.9694
▁malformation	-11.9694
▁remanié	-11.9694
▁rémunér	-11.9694
▁sensibilis	-11.9694
▁twitter	-11.9694
▁visibilité	-11.9694
cademia	-11.9694
▁consultatif	-11.9694
▁guarana	-11.9694
▁mezzo	-11.9694
▁tandberg	-11.9694
▁anastas	-11.9694
▁littoral	-11.9694
▁naylor	-11.9694
▁viardot	-11.9694
▁1873	-11.9694
▁péniten	-11.9694
▁échoué	-11.9694
▁bétail	-11.9694
▁donjon	-11.9694
▁peltier	-11.9694
▁éminent	-11.9694
://	-11.9694
▁policière	-11.9694
encadrement	-11.9694
eyneburg	-11.9694
▁abattu	-11.9694
▁caribou	-11.9694
▁edwin	-11.9694
▁inhabitée	-11.9694
▁stéréo	-11.9694
▁boivin	-11.9694
▁dignitaire	-11.9694
▁débris	-11.9694
incroyable	-11.9694
▁jacquel	-11.9694
▁madison	-11.9694
▁whig	-11.9694
▁féroé	-11.9694
▁saxonnes	-11.9694
▁menhir	-11.9694
anomalie	-11.9694
▁steinberg	-11.9694
▁capsule	-11.9694
▁toléran	-11.9694
▁gaulois	-11.9694
▁salomon	-11.9694
technica	-11.9694
▁bakou	-11.9694
▁mikael	-11.9694
▁norbert	-11.9694
▁stuart	-11.9694
monthly	-11.9694
▁mogom	-11.9694
▁motivé	-11.9694
▁ibm	-11.9694
▁shiners	-11.9694
agrandissement	-11.9694
feuilleton	-11.9694
▁pereval	-11.9694
▁dodger	-11.9694
goudoum	-11.9694
▁sultan	-11.9694
▁assiri	-11.9694
▁neutre	-11.9694
▁ireland	-11.9694
aptitude	-11.9694
stān	-11.9694
▁spanos	-11.9694
▁buzz	-11.9694
▁bergues	-11.9695
▁contesté	-11.9695
invention	-11.9695
▁trompe	-11.9695
▁formulé	-11.9695
ojb	-11.9695
▁federic	-11.9696
▁bienheureu	-11.9697
theremin	-11.9697
▁annexé	-11.9697
▁dégage	-11.9698
accordéon	-11.97
▁décrét	-11.9701
▁avoue	-11.9705
adrien	-11.9709
▁granul	-11.9716
fresh	-11.9718
▁emili	-11.9728
▁teatr	-11.9744
▁televisi	-11.975
éoliennes	-11.9763
habile	-11.9768
▁pacifi	-11.9794
expertise	-11.9804
garros	-11.9807
embarque	-12.0043
▁pétrol	-12.0085
▁infirm	-12.014
refusant	-12.0144
chauffe	-12.0151
▁caractéris	-12.0151
concerto	-12.0177
2001)	-12.027
kazu	-12.0361
▁conjoint	-12.0414
construction	-12.0428
indépendant	-12.0431
marathon	-12.0432
million	-12.0433
original	-12.0433
invité	-12.0433
vincent	-12.0434
compositeur	-12.0434
éclat	-12.0434
world	-12.0434
économique	-12.0434
québec	-12.0434
david	-12.0435
importantes	-12.0435
nouveau	-12.0435
▁artificiel	-12.0567
▁enseigna	-12.0578
▁ordonna	-12.058
▁dénombr	-12.0583
ouvrant	-12.0589
rruption	-12.0598
grégation	-12.0599
quatorz	-12.0601
▁précipit	-12.0602
cleobis	-12.0602
économis	-12.0602
olympia	-12.0603
onchocercose	-12.0603
▁assiégé	-12.0603
▁biotechnologie	-12.0603
▁broadcasting	-12.0603
▁calligraphie	-12.0603
▁glaciaire	-12.0603
▁héréditaire	-12.0603
▁inachevé	-12.0603
▁infructueuse	-12.0603
▁leibniz	-12.0603
▁préfabriqué	-12.0603
▁shinkage	-12.0603
agriculteur	-12.0603
anthropologue	-12.0603
arkansas	-12.0603
atmosphère	-12.0603
aérospatiale	-12.0603
bifidobacterium	-12.0603
cöln	-12.0603
ensoleillement	-12.0603
fraternité	-12.0603
incertitude	-12.0603
indomptable	-12.0603
indépendamment	-12.0603
itinéraire	-12.0603
météoroïdes	-12.0603
singularit	-12.0603
stečko	-12.0603
▁antimissile	-12.0603
▁baisikou	-12.0603
▁balkhash	-12.0603
▁baptême	-12.0603
▁barbakoff	-12.0603
▁bremerhaven	-12.0603
▁burroughs	-12.0603
▁capitulation	-12.0603
▁castelluccio	-12.0603
▁chancellor	-12.0603
▁charlemagne	-12.0603
▁cluzel	-12.0603
▁coiffé	-12.0603
▁complexité	-12.0603
▁convolution	-12.0603
▁correction	-12.0603
▁crétacé	-12.0603
▁diminué	-12.0603
▁dédicace	-12.0603
▁démarcation	-12.0603
▁extraordinaire	-12.0603
▁farruko	-12.0603
▁folioles	-12.0603
▁grenouille	-12.0603
▁headquarters	-12.0603
▁henckel	-12.0603
▁homologue	-12.0603
▁honduras	-12.0603
▁huguenot	-12.0603
▁humblet	-12.0603
▁jenkins	-12.0603
▁joshua	-12.0603
▁linguiste	-12.0603
▁mathilde	-12.0603
▁mclaren	-12.0603
▁midjivin	-12.0603
▁mikkelsen	-12.0603
▁négociant	-12.0603
▁obstacle	-12.0603
▁opportunité	-12.0603
▁parabolano	-12.0603
▁patriarch	-12.0603
▁pavlíkov	-12.0603
▁perdiguère	-12.0603
▁personnalis	-12.0603
▁possédé	-12.0603
▁poétesse	-12.0603
▁privilèges	-12.0603
▁prêche	-12.0603
▁péruvien	-12.0603
▁ruremonde	-12.0603
▁salzbourg	-12.0603
▁santiago	-12.0603
▁scolarité	-12.0603
▁significatif	-12.0603
▁soukhoumi	-12.0603
▁spectaculaire	-12.0603
▁staatsoper	-12.0603
▁stanhope	-12.0603
▁suggestion	-12.0603
▁supprime	-12.0603
▁surplomb	-12.0603
▁trèbes	-12.0603
▁vernaculaire	-12.0603
▁villégiature	-12.0603
▁vérification	-12.0603
▁winchester	-12.0603
▁yeomans	-12.0603
▁yoshino	-12.0603
▁zoologiste	-12.0603
▁élégant	-12.0603
adolescence	-12.0603
armavir	-12.0603
▁(996)	-12.0603
▁algebra	-12.0603
▁centrafricaine	-12.0603
▁certitude	-12.0603
▁chodja	-12.0603
▁cohérent	-12.0603
▁conscient	-12.0603
▁craiova	-12.0603
▁jesús	-12.0603
▁marlborough	-12.0603
▁osborne	-12.0603
▁philologie	-12.0603
▁protestantisme	-12.0603
▁péronisme	-12.0603
▁sociologie	-12.0603
▁spatiaux	-12.0603
▁spiritual	-12.0603
▁valencienn	-12.0603
▁yongning	-12.0603
oxygène	-12.0603
éléphant	-12.0603
▁colchester	-12.0603
▁englobe	-12.0603
▁finlandais	-12.0603
▁fresnel	-12.0603
▁hampden	-12.0603
▁jupiter	-12.0603
▁nisibe	-12.0603
▁préaudeau	-12.0603
▁tatouage	-12.0603
▁township	-12.0603
▁worldteam	-12.0603
phényl	-12.0603
▁banquier	-12.0603
▁dialect	-12.0603
▁gassama	-12.0603
▁repousse	-12.0603
▁viktor	-12.0603
▁1797	-12.0603
▁florissant	-12.0603
▁légation	-12.0603
▁people	-12.0603
▁méduse	-12.0603
▁alimentaire	-12.0603
▁arbuste	-12.0603
▁grégor	-12.0603
▁médicaux	-12.0603
▁vivace	-12.0603
▁casgrain	-12.0603
▁sûreté	-12.0603
▁1776	-12.0603
▁pollak	-12.0603
▁pueblo	-12.0603
▁romancière	-12.0603
▁satirique	-12.0603
▁ressortissants	-12.0603
▁clinton	-12.0603
▁1688	-12.0603
▁dordrecht	-12.0603
▁censure	-12.0603
▁pearce	-12.0603
▁réparer	-12.0603
="10.1	-12.0603
adjuge	-12.0603
▁ralenti	-12.0603
▁maitland	-12.0603
▁dépeint	-12.0603
▁nevada	-12.0603
expatri	-12.0603
acronyme	-12.0603
anguilla	-12.0603
▁portuaire	-12.0603
▁soufre	-12.0603
adriatique	-12.0603
▁cjip	-12.0603
▁falaise	-12.0603
annulation	-12.0603
octroi	-12.0603
▁thermique	-12.0603
▁cyrill	-12.0603
▁conquér	-12.0603
▁ciblé	-12.0603
▁électrifiée	-12.0603
▁activiste	-12.0603
▁pivot	-12.0604
clichy	-12.0604
▁compromis	-12.0604
celonites	-12.0604
▁variée	-12.0604
▁mobilise	-12.0604
▁spitta	-12.0604
explosifs	-12.0606
▁libye	-12.0606
▁menaça	-12.0606
▁cédri	-12.0606
▁vittori	-12.0607
dynast	-12.0608
▁jubil	-12.0609
▁tempe	-12.0612
▁crédib	-12.0615
armateur	-12.0624
▁pinceau	-12.0626
argile	-12.063
object	-12.063
iformis	-12.0651
▁tuyau	-12.0681
émergen	-12.074
▁arbitr	-12.074
gamma	-12.0799
victorien	-12.0804
télégraphe	-12.081
lazare	-12.0841
inscrir	-12.0909
rodali	-12.0931
systématiquement	-12.0941
inscriv	-12.1034
publié	-12.1043
accompagn	-12.1047
caspien	-12.1122
▁évoqu	-12.1122
▁désigna	-12.1417
député	-12.1434
belgique	-12.1434
maintenant	-12.1434
politique	-12.1434
prête	-12.1435
notamment	-12.1435
▁brigad	-12.1435
▁suspend	-12.1508
attrait	-12.1508
semblant	-12.154
▁métropolit	-12.1577
ù	-12.1585
▁déploie	-12.1587
▁afghan	-12.1595
▁catholic	-12.1601
▁pinçon	-12.1603
▁hendrik	-12.1603
▁retransmis	-12.1603
▁vénézuélien	-12.1603
alençon	-12.1603
annibale	-12.1603
authenticité	-12.1603
cincinnati	-12.1603
economic	-12.1603
efforce	-12.1603
enthousiasme	-12.1603
humidité	-12.1603
idimensionnel	-12.1603
idéosurveillance	-12.1603
impossibilité	-12.1603
incarcération	-12.1603
indemnité	-12.1603
irrigation	-12.1603
lectromagnétique	-12.1603
magnapaulia	-12.1603
osphérique	-12.1603
unanimité	-12.1603
uridisciplinaire	-12.1603
▁2014-2015	-12.1603
▁adamowicz	-12.1603
▁antibiotiques	-12.1603
▁autodidacte	-12.1603
▁avoisinant	-12.1603
▁batasuna	-12.1603
▁biodiversité	-12.1603
▁borbón	-12.1603
▁bosniaques	-12.1603
▁bouddhique	-12.1603
▁bénédiction	-12.1603
▁carnarvon	-12.1603
▁cawkwell	-12.1603
▁chancellerie	-12.1603
▁charleroi	-12.1603
▁compétent	-12.1603
▁consentement	-12.1603
▁darmstadt	-12.1603
▁different	-12.1603
▁disciplinaire	-12.1603
▁divulgué	-12.1603
▁diéthylique	-12.1603
▁djibouti	-12.1603
▁défensif	-12.1603
▁embauché	-12.1603
▁encantats	-12.1603
▁engineers	-12.1603
▁expliqué	-12.1603
▁fletcher	-12.1603
▁fluvial	-12.1603
▁frederik	-12.1603
▁gaélique	-12.1603
▁gmmtv	-12.1603
▁görlitz	-12.1603
▁herbacée	-12.1603
▁hopkins	-12.1603
▁iași	-12.1603
▁ibrahim	-12.1603
▁karayiánni	-12.1603
▁kazakhstan	-12.1603
▁korchitsky	-12.1603
▁labyrinthe	-12.1603
▁lancashire	-12.1603
▁leffrinckoucke	-12.1603
▁leicestershire	-12.1603
▁lužná	-12.1603
▁machiavel	-12.1603
▁madakonai	-12.1603
▁mahamadou	-12.1603
▁maurétanie	-12.1603
▁maximov	-12.1603
▁maçonnerie	-12.1603
▁muhammad	-12.1603
▁méthodique	-12.1603
▁norwich	-12.1603
▁nottingham	-12.1603
▁ouvriériste	-12.1603
▁pendjab	-12.1603
▁philanthrope	-12.1603
▁phylogénie	-12.1603
▁poelaert	-12.1603
▁professor	-12.1603
▁prolétari	-12.1603
▁remaniement	-12.1603
▁schnatterinchen	-12.1603
▁shiffrin	-12.1603
▁silberschein	-12.1603
▁sociopoétique	-12.1603
▁souffert	-12.1603
▁succédé	-12.1603
▁surréaliste	-12.1603
▁sverdlovsk	-12.1603
đ	-12.6888
ä	-13.4891
ü	-13.4892
