<unk>	0
<s>	0
</s>	0
▁the	-2.98978
.	-2.99595
,	-3.29538
s	-3.68482
▁of	-3.75308
▁and	-3.90661
▁in	-3.91873
▁a	-3.9899
▁to	-4.21139
▁is	-4.23037
▁	-4.77223
▁was	-4.91673
▁"	-4.91898
▁are	-4.94875
▁it	-4.99948
▁that	-5.13795
▁for	-5.18783
▁(	-5.3142
▁as	-5.33807
"	-5.36531
▁on	-5.41097
#	-5.43201
▁#	-5.44624
-	-5.45862
'	-5.46966
▁by	-5.48186
▁or	-5.50822
▁he	-5.51081
▁with	-5.53967
▁they	-5.57213
▁from	-5.59439
ed	-5.62988
▁be	-5.64337
▁people	-5.66601
ing	-5.6962
▁this	-5.74119
)	-5.76451
▁not	-5.80783
▁an	-5.83437
▁have	-5.88047
▁also	-5.92652
▁his	-5.94164
▁can	-5.951
▁has	-5.96575
▁many	-5.99258
▁other	-6.03729
▁at	-6.03894
d	-6.04528
▁which	-6.04668
▁were	-6.04683
▁called	-6.10666
▁one	-6.12277
▁there	-6.13106
▁some	-6.15499
▁but	-6.2232
▁their	-6.22426
:	-6.27934
▁most	-6.2998
▁when	-6.3492
▁used	-6.40084
y	-6.42887
▁had	-6.46
n	-6.46367
▁who	-6.47271
e	-6.4763
▁first	-6.48671
▁about	-6.48902
▁more	-6.52494
".	-6.53644
▁all	-6.5369
▁made	-6.54333
a	-6.55357
er	-6.56465
ly	-6.57627
▁after	-6.60704
c	-6.61277
▁because	-6.62139
).	-6.6432
th	-6.68893
▁world	-6.69282
▁city	-6.69398
▁these	-6.69734
t	-6.70293
▁time	-6.71906
▁new	-6.72484
▁two	-6.73467
▁like	-6.7364
▁very	-6.75342
▁into	-6.77881
▁different	-6.78215
▁than	-6.79001
▁its	-6.79165
▁may	-6.83194
▁so	-6.84427
al	-6.85083
",	-6.86457
o	-6.87611
▁united	-6.89529
▁make	-6.89546
▁years	-6.90174
▁them	-6.9021
▁do	-6.90682
▁only	-6.91433
▁part	-6.95166
▁been	-6.95439
▁states	-6.95711
▁such	-6.97087
es	-6.98618
the	-6.99239
▁use	-6.99486
▁up	-6.99784
▁became	-7.00813
i	-7.01407
;	-7.01578
▁war	-7.02685
▁she	-7.02916
),	-7.03313
in	-7.03772
▁if	-7.05061
g	-7.0566
▁over	-7.07337
▁her	-7.08176
r	-7.10086
▁often	-7.10804
▁known	-7.12278
l	-7.12311
m	-7.13269
▁country	-7.14565
▁state	-7.1569
▁will	-7.16032
▁would	-7.17397
▁during	-7.17746
▁out	-7.18369
▁where	-7.19221
▁countries	-7.21118
p	-7.23028
▁example	-7.23942
▁usually	-7.24103
▁no	-7.2477
▁between	-7.24989
or	-7.25228
▁same	-7.25422
▁person	-7.29159
▁year	-7.29577
▁water	-7.30002
▁name	-7.32354
▁then	-7.33906
▁things	-7.3487
▁english	-7.35462
▁south	-7.36089
▁life	-7.38232
▁north	-7.4081
▁each	-7.41138
▁number	-7.41618
▁music	-7.41652
▁language	-7.42854
▁government	-7.43183
▁work	-7.43591
▁later	-7.44176
▁important	-7.46933
▁well	-7.46945
▁did	-7.47115
▁him	-7.47201
▁three	-7.48244
▁word	-7.48305
le	-7.48306
k	-7.48382
▁way	-7.48733
b	-7.48924
▁before	-7.49538
ic	-7.49856
▁system	-7.49861
▁around	-7.50045
▁history	-7.5054
▁how	-7.51174
▁what	-7.51362
▁president	-7.52125
▁however	-7.526
▁century	-7.53264
▁de	-7.54205
▁sometimes	-7.55054
▁live	-7.55199
▁another	-7.5684
▁much	-7.57181
▁means	-7.5738
▁re	-7.57464
▁get	-7.57689
▁american	-7.58075
▁small	-7.58463
h	-7.58464
▁long	-7.58572
▁could	-7.58946
re	-7.59163
▁large	-7.60043
f	-7.60278
▁common	-7.61233
▁found	-7.6136
▁day	-7.61533
▁second	-7.62164
▁even	-7.63294
en	-7.63767
▁through	-7.63907
ers	-7.64726
▁being	-7.6624
▁1	-7.66724
▁18	-7.66735
▁since	-7.67198
▁both	-7.6744
▁go	-7.67876
on	-7.68527
▁until	-7.68686
▁group	-7.69641
▁i	-7.69983
▁said	-7.703
▁area	-7.7041
▁help	-7.70828
▁any	-7.70843
▁still	-7.71176
▁we	-7.71247
▁famous	-7.71463
an	-7.71677
▁king	-7.71973
▁capital	-7.73282
▁include	-7.73532
▁land	-7.74492
▁light	-7.74942
▁early	-7.75013
▁started	-7.75208
▁while	-7.75291
▁now	-7.75386
▁popular	-7.76975
ation	-7.77596
▁show	-7.77619
▁place	-7.77861
▁'	-7.7828
▁main	-7.78398
▁earth	-7.78466
▁sea	-7.78711
li	-7.80083
▁died	-7.80539
▁old	-7.81179
▁river	-7.82385
▁largest	-7.82777
▁c	-7.82927
▁million	-7.83123
st	-7.84517
to	-7.84741
▁2	-7.85029
▁own	-7.85184
▁body	-7.8556
▁end	-7.86313
se	-7.86442
▁together	-7.86965
u	-7.87527
x	-7.87793
▁several	-7.87984
▁does	-7.89
▁high	-7.89189
▁against	-7.89386
▁under	-7.89838
▁england	-7.89938
▁good	-7.90579
▁parts	-7.92186
▁e	-7.92265
▁population	-7.92763
▁form	-7.92765
▁food	-7.94056
ion	-7.94692
▁including	-7.9475
/	-7.94969
▁back	-7.9542
▁using	-7.95424
▁east	-7.95496
▁came	-7.95953
el	-7.9598
▁become	-7.96302
▁god	-7.96492
▁air	-7.96685
▁3	-7.96695
▁family	-7.96803
▁named	-7.97017
▁power	-7.97241
ra	-7.9743
▁national	-7.9746
▁you	-7.97676
▁great	-7.97924
▁four	-7.97951
▁un	-7.97959
▁15	-7.98016
▁born	-7.98212
us	-7.98223
▁children	-7.98541
▁today	-7.98733
▁man	-7.99292
▁europe	-7.99508
▁near	-7.99751
▁every	-7.99975
▁france	-8.00328
▁home	-8.01112
▁see	-8.01661
▁thought	-8.01729
▁union	-8.018
▁began	-8.01947
ro	-8.02256
▁west	-8.02429
▁death	-8.02446
ar	-8.03089
▁game	-8.03182
ton	-8.03258
▁band	-8.03342
▁british	-8.03363
ri	-8.03457
▁17	-8.04518
ch	-8.04838
▁cities	-8.04949
▁makes	-8.05097
▁animals	-8.05393
▁album	-8.05576
▁school	-8.05733
ur	-8.05913
ma	-8.06067
te	-8.06436
▁words	-8.06634
▁-	-8.073
▁energy	-8.07694
▁d	-8.07895
▁just	-8.07945
▁few	-8.07961
w	-8.08004
▁written	-8.08119
▁island	-8.08359
ism	-8.08378
▁modern	-8.0839
▁released	-8.08459
▁change	-8.08632
▁america	-8.0912
▁types	-8.09474
▁human	-8.09579
▁best	-8.0972
na	-8.10207
▁last	-8.10238
▁k	-8.1073
z	-8.10744
▁down	-8.11079
▁money	-8.11203
▁those	-8.11657
2	-8.11969
▁u	-8.11992
▁times	-8.12008
▁formula	-8.12263
▁big	-8.12295
▁4	-8.12538
▁take	-8.12717
▁black	-8.13147
it	-8.13617
▁lot	-8.13743
▁left	-8.13821
co	-8.13888
▁kingdom	-8.14165
▁french	-8.14578
▁special	-8.14697
▁less	-8.14811
▁won	-8.14898
▁computer	-8.14921
il	-8.15033
de	-8.16014
▁games	-8.16776
▁languages	-8.17153
▁created	-8.17211
man	-8.17365
▁built	-8.17418
▁making	-8.1747
▁put	-8.18304
▁movie	-8.1832
▁living	-8.18529
▁say	-8.19069
▁empire	-8.19113
ian	-8.19335
ive	-8.19676
▁10	-8.1973
▁women	-8.19914
▁type	-8.20123
▁age	-8.20475
▁germany	-8.20522
▁play	-8.20769
me	-8.21265
▁men	-8.21647
▁church	-8.21865
▁took	-8.22001
▁16	-8.22015
▁german	-8.22166
▁should	-8.22332
▁rock	-8.22349
▁white	-8.22671
▁book	-8.22795
ta	-8.23215
v	-8.23683
▁something	-8.24218
▁m	-8.24746
▁law	-8.24806
▁20	-8.2497
▁right	-8.25094
ry	-8.25296
▁party	-8.25665
▁went	-8.25931
▁5	-8.26112
▁republic	-8.26114
▁china	-8.26227
▁john	-8.26379
▁places	-8.26394
▁think	-8.26733
▁come	-8.27045
▁roman	-8.27159
▁species	-8.27371
is	-8.2744
tic	-8.27684
▁series	-8.27714
▁public	-8.27864
▁wrote	-8.27903
▁short	-8.28105
▁control	-8.28226
ia	-8.28508
▁ancient	-8.28559
ist	-8.28866
▁march	-8.29837
ate	-8.29949
▁st	-8.3037
▁b	-8.3041
▁comes	-8.30615
ne	-8.30868
▁car	-8.31293
ity	-8.315
▁ii	-8.31842
▁middle	-8.31859
▁house	-8.31979
▁us	-8.32023
la	-8.32497
▁study	-8.32942
▁father	-8.33183
▁general	-8.33389
able	-8.33525
▁january	-8.3403
▁political	-8.34179
▁o	-8.34459
ter	-8.34515
’	-8.34541
▁co	-8.34588
▁head	-8.34735
–	-8.3488
▁town	-8.34891
▁("	-8.34938
▁sun	-8.35015
▁television	-8.35087
▁6	-8.354
▁side	-8.3544
▁based	-8.35518
▁university	-8.35635
▁york	-8.35815
land	-8.35822
▁space	-8.35848
▁must	-8.36038
")	-8.36095
▁groups	-8.36586
▁too	-8.36625
▁list	-8.36642
▁again	-8.37094
▁p	-8.37266
▁next	-8.37299
▁7	-8.37829
▁northern	-8.38236
▁london	-8.38991
▁almost	-8.38996
▁point	-8.39098
▁believe	-8.39332
▁wanted	-8.39688
ment	-8.39774
▁european	-8.39885
▁africa	-8.39937
▁though	-8.40443
ve	-8.40449
lo	-8.40485
5	-8.40532
▁free	-8.40766
▁major	-8.40899
▁others	-8.40945
▁western	-8.41046
▁off	-8.41383
▁term	-8.41614
be	-8.41885
▁meaning	-8.41895
mi	-8.42012
▁away	-8.42281
▁december	-8.42289
▁soviet	-8.42292
▁given	-8.42608
▁v	-8.42792
▁international	-8.42857
▁played	-8.43108
▁per	-8.43266
▁greek	-8.43343
as	-8.43467
do	-8.43515
▁members	-8.43558
▁f	-8.43596
▁set	-8.4368
▁army	-8.44266
▁red	-8.44396
▁g	-8.44461
3	-8.44858
▁five	-8.44881
▁blood	-8.45089
▁hard	-8.45123
▁cannot	-8.45344
▁19	-8.45381
▁books	-8.45541
▁although	-8.45859
▁days	-8.45938
▁natural	-8.45966
vi	-8.45974
▁12	-8.46196
1	-8.46219
▁always	-8.46266
▁move	-8.46395
▁al	-8.46556
▁july	-8.46942
▁april	-8.47116
▁line	-8.47468
▁similar	-8.47559
▁lived	-8.47921
ph	-8.48185
▁third	-8.48397
▁married	-8.48531
▁latin	-8.48602
▁la	-8.48659
um	-8.4887
▁instead	-8.49503
▁might	-8.49579
▁give	-8.49617
▁–	-8.49707
▁got	-8.49761
▁uses	-8.49849
▁mostly	-8.49989
▁keep	-8.50173
ca	-8.504
▁center	-8.50488
ine	-8.50657
▁region	-8.51011
▁areas	-8.5111
▁plants	-8.51135
at	-8.51151
▁need	-8.5118
without	-8.51233
ti	-8.51315
▁mother	-8.51387
▁changed	-8.51858
▁want	-8.51901
▁june	-8.51937
▁song	-8.52372
▁mean	-8.52736
▁chemical	-8.52772
▁better	-8.52795
▁theory	-8.53188
▁led	-8.53254
▁14	-8.53342
▁august	-8.53676
▁find	-8.5428
8	-8.54337
▁know	-8.54456
▁team	-8.54513
ul	-8.54568
▁november	-8.54606
no	-8.54996
▁kinds	-8.55166
▁climate	-8.55438
▁along	-8.55654
▁real	-8.55857
ke	-8.5591
▁football	-8.56112
▁february	-8.56146
0	-8.56153
▁seen	-8.56184
▁numbers	-8.56484
▁top	-8.56487
mo	-8.56673
▁central	-8.56788
▁culture	-8.56856
4	-8.56905
▁company	-8.57015
▁once	-8.57136
▁cells	-8.57233
▁mass	-8.57237
▁idea	-8.57289
▁certain	-8.57297
ha	-8.57479
▁science	-8.57546
▁period	-8.57597
▁sp	-8.58021
▁order	-8.58105
▁force	-8.5815
ting	-8.58221
▁run	-8.58297
▁never	-8.58395
▁problems	-8.58424
▁little	-8.58448
6	-8.5847
▁di	-8.58543
da	-8.58662
▁kind	-8.58673
▁done	-8.58786
▁ocean	-8.58801
▁movies	-8.58877
▁color	-8.58998
▁support	-8.59055
▁india	-8.59063
▁look	-8.59146
▁ways	-8.59351
▁october	-8.59602
▁cause	-8.60125
▁smaller	-8.60165
▁japan	-8.60476
▁inside	-8.60816
▁single	-8.60831
ad	-8.61173
est	-8.61388
▁social	-8.61402
▁divided	-8.61456
▁september	-8.61693
▁moved	-8.61699
▁eat	-8.61797
▁x	-8.62295
▁mo	-8.62543
▁gas	-8.62597
j	-8.62633
ness	-8.62746
id	-8.62794
▁biggest	-8.62857
▁henry	-8.62858
▁(19	-8.63025
▁killed	-8.63078
▁13	-8.63172
▁plant	-8.63285
go	-8.63353
▁11	-8.63357
▁islands	-8.63586
▁son	-8.63601
ent	-8.63642
▁official	-8.63663
▁allow	-8.64026
less	-8.64418
et	-8.64557
▁league	-8.64587
▁young	-8.64656
▁enough	-8.64803
▁far	-8.64847
▁past	-8.6503
▁spanish	-8.65047
▁metal	-8.65118
▁following	-8.65194
▁disease	-8.65271
▁9	-8.65457
▁con	-8.65544
▁humans	-8.65938
po	-8.65952
ary	-8.66184
ck	-8.66272
▁southern	-8.66286
▁art	-8.66371
▁universe	-8.66784
▁non	-8.66864
▁queen	-8.66913
ge	-8.67343
▁8	-8.67785
▁economy	-8.67791
▁temperature	-8.67832
▁laws	-8.67912
▁building	-8.68037
▁military	-8.68062
▁according	-8.68074
▁changes	-8.68238
ni	-8.68296
▁gave	-8.68307
▁among	-8.68556
having	-8.68563
▁ten	-8.68662
▁hand	-8.6891
▁object	-8.69145
bi	-8.69239
▁strong	-8.69275
▁someone	-8.6977
▁amount	-8.69809
pe	-8.6995
▁chinese	-8.70116
▁sound	-8.70297
os	-8.70414
amp	-8.70428
ie	-8.70465
▁member	-8.7077
born	-8.70862
▁caused	-8.70944
▁speed	-8.71395
▁pre	-8.71518
▁songs	-8.71524
▁ideas	-8.71638
▁w	-8.71784
▁writing	-8.7184
▁internet	-8.71922
▁held	-8.71926
▁works	-8.72032
▁club	-8.72071
un	-8.72089
di	-8.72318
▁able	-8.72375
▁either	-8.72714
▁version	-8.72886
▁player	-8.73124
▁reagan	-8.73246
▁woman	-8.73302
▁ice	-8.73388
age	-8.73399
▁half	-8.73544
▁late	-8.73786
▁windows	-8.74025
▁especially	-8.74128
▁religion	-8.7426
▁lost	-8.74677
▁close	-8.7501
▁william	-8.75059
son	-8.75171
▁star	-8.75218
▁surface	-8.75406
▁t	-8.75612
ir	-8.75738
ies	-8.75768
▁county	-8.75999
▁information	-8.7653
▁australia	-8.76609
▁rights	-8.76802
▁includes	-8.76833
▁six	-8.7696
ba	-8.76982
▁california	-8.77056
ga	-8.77264
▁local	-8.77337
▁size	-8.77505
▁considered	-8.77753
ant	-8.7804
▁speak	-8.78205
▁trade	-8.78218
▁coast	-8.78343
▁na	-8.78522
▁me	-8.78523
▁season	-8.78543
▁due	-8.78656
▁fight	-8.78737
▁pro	-8.78942
▁field	-8.79103
▁birds	-8.7911
▁bar	-8.79204
▁themselves	-8.793
▁nations	-8.79363
▁carbon	-8.80033
▁formed	-8.80046
▁radio	-8.80131
▁george	-8.80167
ard	-8.80188
▁eastern	-8.80212
é	-8.80441
▁native	-8.80449
▁low	-8.80616
▁ka	-8.80777
ll	-8.80815
ted	-8.81114
▁health	-8.81149
▁taken	-8.81326
▁bo	-8.81505
▁hot	-8.81529
pa	-8.81797
▁fish	-8.81813
▁bc	-8.81899
am	-8.82114
▁paper	-8.82238
and	-8.82354
▁male	-8.82537
▁start	-8.82729
ther	-8.82848
▁sa	-8.82932
▁education	-8.82953
▁ireland	-8.83058
▁travel	-8.83136
▁film	-8.83278
▁ground	-8.8341
▁japanese	-8.83411
au	-8.83515
▁asia	-8.84163
▁read	-8.84197
▁lake	-8.84198
▁britain	-8.84244
▁canada	-8.84244
▁sold	-8.84249
▁video	-8.84296
▁call	-8.84305
▁scientists	-8.84376
▁le	-8.84397
▁write	-8.84408
▁worked	-8.84518
▁mountains	-8.84564
ty	-8.84827
▁leader	-8.84865
▁rest	-8.84907
9	-8.85104
▁open	-8.85169
▁examples	-8.8522
lt	-8.85395
up	-8.85747
▁allowed	-8.8589
ce	-8.85915
▁working	-8.85926
▁longer	-8.85945
▁li	-8.8614
▁bad	-8.86177
▁players	-8.86247
▁independent	-8.86352
sa	-8.8636
▁bush	-8.86433
▁grow	-8.86937
ver	-8.87287
▁influence	-8.87578
▁heart	-8.87836
▁civil	-8.88163
▁story	-8.88643
▁stars	-8.88737
▁matter	-8.88852
▁outside	-8.88859
▁soon	-8.88862
▁love	-8.88891
▁court	-8.88897
▁square	-8.8913
▁within	-8.8913
▁cell	-8.89144
▁highest	-8.8918
▁lower	-8.89325
▁oxygen	-8.89786
out	-8.89803
▁rules	-8.89805
▁shows	-8.89814
nd	-8.90361
7	-8.90489
▁minister	-8.9071
▁result	-8.90719
▁child	-8.90766
ka	-8.90798
▁russia	-8.91168
▁simple	-8.91308
▁summer	-8.91463
▁oil	-8.91718
▁developed	-8.91817
for	-8.9202
▁stop	-8.92115
op	-8.92258
▁society	-8.9231
▁present	-8.92322
▁elected	-8.92434
men	-8.92535
▁cold	-8.92543
▁wood	-8.92544
▁ba	-8.92561
▁process	-8.92641
▁spain	-8.92661
▁h	-8.92676
▁level	-8.92852
▁above	-8.92958
▁role	-8.93116
▁skin	-8.93121
▁mountain	-8.93248
▁birth	-8.9327
ling	-8.93536
▁planet	-8.93572
▁italy	-8.9363
ish	-8.93655
▁sub	-8.93838
▁learn	-8.93898
▁here	-8.93997
ley	-8.94193
▁san	-8.94206
▁average	-8.94268
▁depend	-8.94361
▁korea	-8.94381
▁border	-8.94422
▁record	-8.94424
▁total	-8.94622
▁sports	-8.94749
▁pope	-8.9477
▁our	-8.94915
▁sent	-8.94966
▁russian	-8.95243
▁100	-8.95377
▁ago	-8.95497
▁says	-8.95602
").	-8.9601
▁former	-8.96136
▁computers	-8.96156
ns	-8.96191
▁forms	-8.96757
▁ma	-8.96765
▁reason	-8.96815
▁animal	-8.96816
▁catholic	-8.96821
▁wife	-8.96942
like	-8.97119
▁needed	-8.97169
▁vi	-8.97188
▁original	-8.9721
ci	-8.97231
▁gold	-8.97246
▁election	-8.97262
▁blue	-8.97361
▁ti	-8.97371
pi	-8.97532
▁joined	-8.97537
▁atoms	-8.97554
rs	-8.97583
▁fire	-8.97598
▁larger	-8.976
▁1980	-8.97671
▁se	-8.97796
▁hit	-8.9791
▁protect	-8.97925
▁ra	-8.97961
▁possible	-8.97984
▁religious	-8.98004
ol	-8.98038
▁christian	-8.98133
▁thing	-8.98142
▁mi	-8.98225
▁lead	-8.98394
▁believed	-8.98424
ster	-8.98436
▁across	-8.98449
”	-8.98645
▁schools	-8.98741
bo	-8.98759
▁en	-8.9895
▁anti	-8.9907
▁week	-8.99276
▁r	-8.99339
he	-8.9947
▁&	-8.99481
▁female	-8.99669
▁sexual	-8.99724
▁true	-8.9978
▁ball	-8.99913
▁port	-9.00005
▁rule	-9.00035
▁data	-9.00062
▁sex	-9.00088
&	-9.00235
▁tree	-9.00336
▁goes	-9.00393
ak	-9.00714
▁act	-9.0078
▁ever	-9.009
one	-9.01101
▁park	-9.01124
▁spoken	-9.01184
▁revolution	-9.0123
▁current	-9.01299
(	-9.01299
ous	-9.0132
▁service	-9.01425
▁italian	-9.01477
les	-9.01643
▁ho	-9.01707
▁personal	-9.0177
ac	-9.01868
▁added	-9.01989
▁buildings	-9.0209
ated	-9.02143
▁discovered	-9.02202
▁seven	-9.02393
▁“	-9.0254
▁prime	-9.02547
▁green	-9.02603
▁30	-9.02846
▁l	-9.02952
▁2000	-9.03113
▁1970	-9.03234
▁iron	-9.03267
▁ended	-9.03302
▁itself	-9.03324
io	-9.03482
▁independence	-9.03584
▁medical	-9.03585
▁1990	-9.03593
▁decided	-9.03714
▁causes	-9.03835
▁case	-9.03866
▁companies	-9.03947
▁various	-9.03947
▁heat	-9.0409
▁program	-9.04108
▁release	-9.04159
▁scotland	-9.0431
▁your	-9.04556
▁calendar	-9.04675
▁least	-9.04685
▁quickly	-9.04701
▁included	-9.04822
▁nuclear	-9.05042
▁rain	-9.05147
▁objects	-9.05303
▁software	-9.05412
▁african	-9.05422
▁singer	-9.05511
▁pay	-9.0552
▁parents	-9.05563
▁mar	-9.05583
we	-9.05636
▁style	-9.05685
▁whole	-9.05942
▁months	-9.05991
▁basic	-9.0614
▁compounds	-9.06236
▁material	-9.06258
ized	-9.06287
▁create	-9.06399
▁brought	-9.0652
▁cancer	-9.06528
▁battle	-9.06664
ance	-9.06676
▁successful	-9.0676
▁hydrogen	-9.06896
▁development	-9.06905
▁symbol	-9.06999
▁career	-9.07102
▁going	-9.07126
va	-9.07153
▁takes	-9.07291
—	-9.07927
by	-9.0811
▁names	-9.08229
▁month	-9.08248
▁n	-9.0834
▁moving	-9.0844
▁trees	-9.08452
▁night	-9.0857
▁systems	-9.08727
▁ad	-9.08895
▁movement	-9.09001
▁du	-9.09012
▁economic	-9.09019
▁published	-9.09216
sh	-9.09325
ts	-9.09465
▁moon	-9.09515
▁parliament	-9.09528
▁jackson	-9.09551
▁kansas	-9.0993
▁why	-9.09937
▁dead	-9.10017
▁higher	-9.10039
▁weapons	-9.10052
▁stone	-9.10067
▁base	-9.1045
ical	-9.10756
▁characters	-9.10768
ff	-9.10779
con	-9.10827
▁model	-9.10973
wa	-9.11077
▁refer	-9.11097
per	-9.11268
▁tried	-9.11293
▁salt	-9.11411
▁super	-9.11414
▁shape	-9.11473
▁himself	-9.11493
▁cup	-9.1158
▁mainly	-9.1162
▁el	-9.11685
mer	-9.11883
▁brain	-9.11931
▁separate	-9.11954
▁kill	-9.12041
line	-9.12081
▁older	-9.12399
▁try	-9.12415
▁km	-9.12489
▁business	-9.12539
ho	-9.12581
▁greece	-9.12664
▁bible	-9.12681
▁powerful	-9.12697
▁democratic	-9.12705
▁ca	-9.13071
▁james	-9.13081
▁lives	-9.13121
▁source	-9.13361
▁winter	-9.13376
▁physical	-9.13526
ap	-9.1357
▁forces	-9.13818
▁j	-9.13982
▁design	-9.14035
▁mary	-9.14086
▁kept	-9.14261
▁beginning	-9.14264
▁playing	-9.14314
ber	-9.14321
▁web	-9.14398
▁wall	-9.14514
▁character	-9.14592
▁problem	-9.14598
mb	-9.1466
▁talk	-9.14662
▁grew	-9.14674
▁letters	-9.1468
ah	-9.14732
▁elements	-9.14809
▁carter	-9.15124
▁washington	-9.15126
ists	-9.15253
▁office	-9.154
ger	-9.1565
▁regions	-9.15736
▁rather	-9.15903
▁length	-9.15938
▁front	-9.15984
fe	-9.16019
▁position	-9.16031
▁actor	-9.1604
ja	-9.16067
▁difficult	-9.16114
time	-9.16219
▁dutch	-9.16348
▁1,	-9.16367
▁cut	-9.16544
▁award	-9.16586
ial	-9.16612
▁saint	-9.16706
▁stories	-9.16707
▁letter	-9.1671
▁2006	-9.16722
▁fa	-9.16768
om	-9.16999
▁produce	-9.17071
▁network	-9.1712
▁oldest	-9.17192
▁ro	-9.17275
▁full	-9.17402
ful	-9.17561
▁events	-9.17667
▁hold	-9.17756
▁ruled	-9.1782
▁ta	-9.18317
▁lo	-9.18317
▁research	-9.18317
▁governor	-9.18383
ite	-9.18464
▁buy	-9.18478
▁produced	-9.18613
▁geography	-9.18791
▁spread	-9.18872
day	-9.18884
▁mid	-9.18884
▁industry	-9.19211
que	-9.19368
nt	-9.19407
▁gets	-9.19408
ip	-9.19431
▁unit	-9.19454
▁paris	-9.19533
▁1960	-9.19647
ally	-9.19652
▁tell	-9.19659
▁politics	-9.2006
lin	-9.20066
▁market	-9.20096
▁poor	-9.2013
cy	-9.20276
0,000	-9.20302
ham	-9.2035
▁prince	-9.20473
ut	-9.20536
▁job	-9.20613
▁hair	-9.20641
▁related	-9.20665
▁appeared	-9.20775
▁fall	-9.20804
▁da	-9.21009
vo	-9.21141
▁dark	-9.21331
▁25	-9.2141
▁liquid	-9.21446
▁host	-9.21494
▁mario	-9.21593
▁happen	-9.21625
▁indian	-9.21687
▁po	-9.21833
▁standard	-9.21899
em	-9.22104
▁friends	-9.22117
▁ju	-9.22229
▁rich	-9.2257
▁explorer	-9.22671
▁2007	-9.22681
▁royal	-9.2271
▁billion	-9.22714
ten	-9.22756
▁daughter	-9.22782
▁dry	-9.22868
▁soldiers	-9.23196
▁saw	-9.23204
▁college	-9.23235
tra	-9.23239
▁pa	-9.24072
▁religions	-9.24073
▁range	-9.24424
▁physics	-9.24462
▁understand	-9.24526
▁electrons	-9.24663
▁view	-9.24726
gu	-9.24825
▁charles	-9.2487
▁stay	-9.24953
▁feel	-9.25009
▁rate	-9.25092
▁units	-9.25255
▁legal	-9.2527
▁founded	-9.25369
▁2008	-9.25689
▁2011	-9.25778
▁apple	-9.25861
▁republican	-9.26023
▁community	-9.26216
▁invented	-9.26217
▁ships	-9.26251
za	-9.26285
▁throughout	-9.26286
tor	-9.26593
▁normal	-9.26597
▁orbit	-9.26603
▁prevent	-9.26671
▁fought	-9.26672
▁alphabet	-9.2683
▁my	-9.26882
hi	-9.26981
▁test	-9.27028
▁pi	-9.27127
min	-9.27129
known	-9.27163
▁sell	-9.27375
▁sc	-9.27391
▁plays	-9.27466
▁equal	-9.27488
▁21	-9.27502
▁traditional	-9.27503
▁piece	-9.2753
▁council	-9.27586
▁jesus	-9.27586
▁2010	-9.27609
▁exist	-9.27628
ven	-9.27647
ect	-9.27668
▁tour	-9.27912
▁soil	-9.27915
▁happens	-9.2793
▁rome	-9.2808
der	-9.28132
▁media	-9.28211
▁wear	-9.28295
▁whe	-9.28307
▁wide	-9.28442
ru	-9.28474
▁let	-9.28515
▁guitar	-9.2852
▁emperor	-9.28555
▁eight	-9.28582
pp	-9.28819
▁die	-9.28837
▁ph	-9.28868
mp	-9.28971
▁code	-9.2912
50	-9.29222
ner	-9.29242
▁gra	-9.29258
▁turn	-9.29304
tion	-9.2935
▁fact	-9.29406
▁snow	-9.29454
▁centre	-9.29491
▁ex	-9.2962
▁towns	-9.29771
iv	-9.30121
▁below	-9.30137
▁charge	-9.30166
▁milk	-9.30221
▁join	-9.30241
▁si	-9.30273
▁machine	-9.30289
▁mexico	-9.30383
▁pressure	-9.30387
▁class	-9.30406
▁bigger	-9.30419
▁normally	-9.30528
▁microsoft	-9.30858
▁ha	-9.3093
▁netherlands	-9.31021
▁shown	-9.31096
▁records	-9.31116
▁churches	-9.31143
▁su	-9.31203
▁told	-9.31381
▁production	-9.31398
▁mu	-9.3153
▁nation	-9.31608
▁table	-9.31647
▁generally	-9.31706
▁method	-9.31728
▁robert	-9.31817
▁products	-9.3196
▁2004	-9.32067
▁pictures	-9.32069
▁supported	-9.32077
▁pe	-9.32203
▁workers	-9.3222
▁copper	-9.32292
ot	-9.32372
▁build	-9.32386
▁event	-9.32431
▁meant	-9.32588
res	-9.32643
ions	-9.32753
▁paul	-9.32761
▁operating	-9.32788
▁mind	-9.32802
▁bring	-9.32803
pro	-9.32875
▁0	-9.32982
▁originally	-9.32985
▁care	-9.33035
dia	-9.33079
▁boy	-9.33097
▁effect	-9.3322
▁province	-9.33221
▁2003	-9.33305
▁deep	-9.33313
▁presidential	-9.33328
▁starting	-9.33366
▁hu	-9.33408
▁chicago	-9.33749
▁communist	-9.33788
▁distance	-9.33789
ex	-9.33969
▁happened	-9.34155
▁mercury	-9.34239
▁solid	-9.34241
du	-9.34311
▁don	-9.34421
▁send	-9.34436
▁americans	-9.34468
▁continued	-9.34476
ps	-9.34523
▁egypt	-9.34704
▁eventually	-9.34732
▁scientific	-9.34759
▁brother	-9.34793
▁fighting	-9.34827
▁bridge	-9.34854
▁teams	-9.3487
▁pieces	-9.34943
▁ship	-9.35209
▁easily	-9.35227
▁nature	-9.35232
▁solar	-9.35296
▁replaced	-9.35367
▁received	-9.3537
▁reach	-9.35531
gt	-9.35616
coming	-9.35638
▁christmas	-9.35725
▁structure	-9.35753
▁ages	-9.3577
▁eggs	-9.35855
hu	-9.35861
which	-9.35878
den	-9.35934
▁commonly	-9.36024
cl	-9.3615
▁programs	-9.36156
▁studied	-9.36224
▁origin	-9.36286
let	-9.36454
tes	-9.36522
▁environment	-9.3662
▁recorded	-9.36772
▁thousands	-9.3678
▁24	-9.3696
▁cross	-9.37008
▁planets	-9.37048
▁followed	-9.37048
ler	-9.37118
▁value	-9.37271
▁deal	-9.37273
ford	-9.37452
▁evolution	-9.37512
▁met	-9.37532
nes	-9.37595
▁federal	-9.37739
▁studies	-9.37739
▁actually	-9.37788
▁represent	-9.37844
▁gender	-9.37905
▁electric	-9.37923
tal	-9.37991
ium	-9.38002
tt	-9.38107
ors	-9.38183
▁vietnam	-9.38245
▁peace	-9.38246
▁2002	-9.38324
▁rivers	-9.38563
che	-9.38614
ko	-9.38669
fi	-9.38715
▁huge	-9.38781
▁gain	-9.38863
▁2005	-9.38876
▁return	-9.38927
if	-9.38958
rd	-9.39001
ide	-9.39028
▁philosophy	-9.39278
▁2012	-9.39293
▁particles	-9.39346
ology	-9.3943
old	-9.39604
▁features	-9.39704
▁therefore	-9.39796
▁poland	-9.39828
▁doctors	-9.39915
▁50	-9.39927
▁atom	-9.40029
▁inter	-9.40052
▁lu	-9.40397
cu	-9.40496
▁centuries	-9.4084
▁police	-9.40845
▁constitution	-9.40993
▁lord	-9.41047
ier	-9.41112
▁contain	-9.41123
▁forest	-9.41201
▁doing	-9.41281
ow	-9.41319
▁everything	-9.41368
▁growing	-9.41498
ze	-9.41517
▁treatment	-9.41523
▁dance	-9.4167
▁musical	-9.41675
10	-9.41754
▁bacteria	-9.41897
▁islam	-9.41935
all	-9.42015
▁leave	-9.42061
▁already	-9.42428
▁louis	-9.42466
q	-9.42501
▁classical	-9.42545
▁appear	-9.42772
▁success	-9.42796
▁contains	-9.42819
▁describe	-9.42923
▁probably	-9.42962
▁hall	-9.42981
▁attack	-9.42988
▁belong	-9.43062
▁bi	-9.4309
▁jo	-9.43126
ab	-9.4313
▁active	-9.43155
bu	-9.43275
▁function	-9.43284
▁gives	-9.43401
▁sha	-9.43444
▁congress	-9.435
▁future	-9.435
▁jews	-9.43501
ai	-9.4354
ig	-9.43577
000	-9.43592
▁round	-9.43641
▁albums	-9.43654
▁explain	-9.43678
ach	-9.43782
▁bank	-9.43856
rt	-9.43973
▁cases	-9.44011
▁jewish	-9.44041
▁heavy	-9.44041
▁meat	-9.44144
▁ran	-9.44224
▁students	-9.44294
▁mac	-9.4454
gen	-9.44553
▁available	-9.44584
▁territory	-9.44584
▁awards	-9.4465
ure	-9.44661
ft	-9.44791
▁slaves	-9.44867
▁miles	-9.44914
▁ring	-9.45102
▁dr	-9.45122
▁baby	-9.45144
▁elizabeth	-9.45152
▁electricity	-9.45157
"),	-9.45171
ron	-9.45239
▁destroyed	-9.45324
▁picture	-9.45385
▁adult	-9.45404
▁ch	-9.45439
▁win	-9.45517
00	-9.45601
▁easy	-9.4568
ea	-9.45766
▁uk	-9.4577
▁scale	-9.45821
▁hi	-9.45897
▁warm	-9.45934
gh	-9.45939
red	-9.45942
im	-9.45988
▁tv	-9.46012
▁drive	-9.46081
▁2001	-9.46259
▁final	-9.46313
ep	-9.46375
▁tu	-9.46463
▁medicine	-9.46515
▁pop	-9.46596
▁officially	-9.46677
ring	-9.46779
▁singapore	-9.46788
▁virginia	-9.46818
▁anne	-9.46821
▁technology	-9.46833
not	-9.46839
▁van	-9.46972
▁except	-9.47017
▁difference	-9.47091
▁sport	-9.47105
▁visit	-9.47195
▁soft	-9.47214
▁addition	-9.4723
▁fourth	-9.47343
▁simply	-9.47347
▁glass	-9.47347
▁split	-9.47361
▁2016	-9.47365
▁lines	-9.47426
▁castle	-9.47427
▁private	-9.4743
▁mount	-9.47491
▁ri	-9.47501
ki	-9.47532
▁vice	-9.47691
▁muslims	-9.47822
▁complex	-9.47908
▁weather	-9.47908
▁steel	-9.47909
▁sense	-9.4791
▁2014	-9.47928
▁everyone	-9.47963
▁effects	-9.47979
▁flat	-9.4798
▁follow	-9.48048
▁reasons	-9.48115
▁z	-9.48168
▁acid	-9.48194
▁instruments	-9.48228
▁weight	-9.48238
▁los	-9.4828
▁terms	-9.4835
tu	-9.48466
▁mathematics	-9.48473
▁break	-9.48483
▁wales	-9.48507
▁atmosphere	-9.48511
ities	-9.48619
▁symptoms	-9.4864
gi	-9.48911
▁sign	-9.48915
▁recent	-9.48933
▁voice	-9.49042
▁piano	-9.49047
▁hours	-9.49309
▁jane	-9.49375
king	-9.49383
▁element	-9.49392
▁really	-9.49468
▁atlantic	-9.49655
▁secret	-9.49657
▁quite	-9.49667
▁unlike	-9.49672
▁weak	-9.49702
▁vote	-9.49741
▁leaves	-9.50009
▁returned	-9.50015
si	-9.50029
ny	-9.50031
▁watch	-9.50036
▁street	-9.50052
ud	-9.50101
▁campaign	-9.50188
▁services	-9.50208
▁controlled	-9.50208
▁fast	-9.50211
▁diseases	-9.50239
▁bird	-9.50246
▁mental	-9.50246
▁mammals	-9.50247
end	-9.50382
▁covered	-9.50493
ey	-9.50519
nic	-9.50527
▁gett	-9.50546
▁product	-9.50616
▁stage	-9.50634
▁fruit	-9.50681
▁station	-9.50736
▁molecules	-9.50771
▁block	-9.50774
▁1999	-9.50783
▁provinces	-9.50851
▁removed	-9.50884
▁dis	-9.51107
▁reached	-9.5125
▁transport	-9.51309
▁honor	-9.51352
▁etc	-9.5136
▁pass	-9.51376
ice	-9.51383
▁self	-9.51553
▁growth	-9.51585
▁described	-9.51605
▁needs	-9.51712
▁olympic	-9.51779
▁spin	-9.51858
▁lots	-9.51879
ö	-9.51932
▁circle	-9.51932
▁sugar	-9.51937
▁writer	-9.51939
▁ja	-9.51962
▁esperanto	-9.51965
▁mark	-9.51973
taking	-9.51993
▁points	-9.51995
▁drink	-9.52031
▁versions	-9.52139
ou	-9.52154
mar	-9.52248
▁doctor	-9.52433
5%	-9.52507
20	-9.52518
▁earlier	-9.52523
▁christianity	-9.52563
▁risk	-9.52591
▁brown	-9.52603
▁race	-9.5271
▁asked	-9.52756
▁drugs	-9.5278
▁owned	-9.52816
▁marriage	-9.53112
▁richard	-9.53132
▁opposite	-9.53147
▁houses	-9.53158
▁dna	-9.53248
▁post	-9.53257
mon	-9.53413
ence	-9.53441
▁carry	-9.53456
▁korean	-9.53502
fa	-9.53546
▁particular	-9.53583
▁cultures	-9.53695
▁division	-9.53765
▁else	-9.53771
ya	-9.5387
side	-9.53921
▁starts	-9.54025
▁tower	-9.54104
▁subject	-9.5421
▁airport	-9.54226
▁district	-9.54303
_1	-9.54306
▁teeth	-9.54307
▁ni	-9.5433
▁becomes	-9.54336
▁bill	-9.54512
dic	-9.54735
▁cost	-9.548
▁bu	-9.54817
ec	-9.54832
▁dioxide	-9.54908
▁angeles	-9.54964
▁yet	-9.55035
▁parties	-9.5513
▁measure	-9.55177
▁sl	-9.55184
▁=	-9.55299
▁site	-9.55302
▁industrial	-9.55312
ell	-9.55478
▁feet	-9.55558
▁holy	-9.55756
▁ford	-9.55854
pl	-9.55907
▁families	-9.56124
▁wrong	-9.56128
▁freedom	-9.56139
▁forced	-9.56184
▁nine	-9.56188
▁majority	-9.56202
▁road	-9.56246
▁useful	-9.5626
▁waves	-9.56567
▁focus	-9.56643
▁universities	-9.56738
oc	-9.56766
des	-9.56798
▁plan	-9.57181
▁board	-9.57239
▁title	-9.57245
▁speech	-9.57257
▁am	-9.57336
▁ne	-9.57446
▁22	-9.57501
▁served	-9.57509
▁ga	-9.57537
ons	-9.57743
tro	-9.57809
▁hospital	-9.57952
▁switzerland	-9.57977
▁properties	-9.57978
▁spring	-9.57991
▁leap	-9.57999
atomic	-9.58043
▁eye	-9.58068
▁wind	-9.58085
▁georgia	-9.58187
▁clear	-9.5846
▁previous	-9.58461
▁han	-9.58473
▁tells	-9.58524
ong	-9.58541
▁fit	-9.58583
▁learned	-9.58662
▁districts	-9.58698
▁ar	-9.58708
▁cultural	-9.58749
▁lakes	-9.58773
▁widely	-9.5879
▁passed	-9.5899
kin	-9.59228
▁evidence	-9.5923
▁face	-9.59248
▁relationship	-9.59257
▁sentence	-9.59267
▁sister	-9.5928
▁weeks	-9.59349
▁faster	-9.59405
▁wars	-9.59409
▁flag	-9.59535
▁grown	-9.59549
▁artists	-9.59553
log	-9.59823
▁silver	-9.59863
▁bodies	-9.59863
▁valley	-9.59871
▁specific	-9.59882
▁cathedral	-9.59915
com	-9.6
▁socialist	-9.60009
dy	-9.60118
ng	-9.60155
▁store	-9.60341
head	-9.60341
▁turned	-9.60355
▁engine	-9.60365
tan	-9.60403
ating	-9.60488
wi	-9.60528
▁michael	-9.60557
▁introduced	-9.60582
▁gu	-9.60665
ina	-9.60709
fl	-9.60895
called	-9.60943
don	-9.60969
▁increase	-9.60972
▁romania	-9.61008
▁signed	-9.61137
▁eyes	-9.61141
▁2018	-9.61164
so	-9.61175
▁motion	-9.61189
▁measured	-9.61393
▁christians	-9.61504
dr	-9.61574
▁chi	-9.61598
▁beliefs	-9.61707
▁texas	-9.61786
▁zero	-9.61787
▁stopped	-9.61789
▁further	-9.61795
▁announced	-9.61816
▁knowledge	-9.61817
▁muslim	-9.6201
▁towards	-9.62079
▁pain	-9.62109
▁rings	-9.6219
▁easier	-9.62435
▁extra	-9.62436
▁pan	-9.62449
▁worldwide	-9.62458
▁islamic	-9.62506
▁greatest	-9.62531
▁react	-9.62903
▁add	-9.62984
▁einstein	-9.63089
▁abortion	-9.63214
▁th	-9.63218
▁individual	-9.63246
▁feature	-9.63585
har	-9.63667
▁license	-9.63747
▁pacific	-9.63747
▁pakistan	-9.63747
▁thomas	-9.63747
▁1996	-9.63758
▁crime	-9.63906
▁wild	-9.64059
▁insects	-9.64093
▁decide	-9.64172
▁em	-9.64221
▁pen	-9.64252
▁memory	-9.64409
▁anything	-9.64412
▁qu	-9.64416
▁clothing	-9.64514
▁2009	-9.64549
▁touch	-9.64603
han	-9.64702
▁2013	-9.64705
%	-9.64712
▁producer	-9.64755
▁materials	-9.64878
▁concept	-9.65017
ana	-9.65017
▁aluminium	-9.65076
▁ethnic	-9.65078
▁turkey	-9.65079
▁slavery	-9.65159
ju	-9.65162
▁screen	-9.65199
▁disorder	-9.65255
▁wave	-9.65422
▁cat	-9.6543
▁cuba	-9.6545
▁hill	-9.65661
▁napoleon	-9.65747
▁suicide	-9.65747
▁berlin	-9.65748
▁1989	-9.65758
▁1950	-9.65778
▁romans	-9.65826
bs	-9.65834
way	-9.65849
▁date	-9.65944
▁trans	-9.65976
-19	-9.66036
▁ver	-9.66072
▁tools	-9.66106
▁eu	-9.66196
▁room	-9.66239
▁likely	-9.66319
my	-9.66342
▁newton	-9.66359
▁arab	-9.66366
▁sand	-9.66382
ward	-9.66382
▁zinc	-9.66423
▁predict	-9.66425
▁david	-9.66466
▁beautiful	-9.66478
▁friend	-9.66501
▁metals	-9.66503
▁1995	-9.66512
ning	-9.66621
▁cover	-9.66715
▁mal	-9.66748
▁symbols	-9.6687
▁hole	-9.66898
year	-9.6694
▁helps	-9.66962
▁+	-9.67023
▁choose	-9.67103
▁orchestra	-9.67103
▁prize	-9.67107
▁taught	-9.67108
▁architecture	-9.6714
▁portuguese	-9.67141
▁pull	-9.67141
▁established	-9.67186
▁roll	-9.67193
▁negative	-9.67211
▁fi	-9.67302
▁string	-9.67376
▁conditions	-9.67406
▁bass	-9.67415
▁connected	-9.67423
▁im	-9.67487
▁looks	-9.67596
▁(20	-9.67685
▁electronic	-9.6791
can	-9.67958
▁40	-9.67984
▁definition	-9.68039
▁train	-9.68139
▁ru	-9.68327
▁te	-9.68359
▁colour	-9.68465
▁academy	-9.68477
▁access	-9.68478
▁performance	-9.68485
▁stick	-9.68503
▁gravity	-9.68546
▁desert	-9.68748
▁sides	-9.68918
▁austria	-9.68921
ves	-9.68997
▁forests	-9.69029
▁percent	-9.69169
▁joseph	-9.69172
▁1945	-9.69191
▁(1	-9.69235
▁fer	-9.69323
▁involved	-9.69325
ets	-9.6939
▁instrument	-9.69475
▁2,	-9.69633
▁prison	-9.69684
▁contract	-9.69705
▁foreign	-9.69819
▁florida	-9.69871
see	-9.69872
▁shot	-9.69886
▁hitler	-9.69889
▁bra	-9.69902
▁spent	-9.69926
▁duke	-9.69936
▁opened	-9.70011
▁tri	-9.70012
▁share	-9.70038
lan	-9.70134
▁device	-9.70193
▁rise	-9.70197
▁electron	-9.70288
▁ko	-9.70415
▁invasion	-9.70576
▁afghanistan	-9.70576
▁leonardo	-9.70587
▁finland	-9.7059
▁learning	-9.70594
▁protestant	-9.70606
▁comedy	-9.70607
▁yellow	-9.70687
▁agreed	-9.70806
1,	-9.70808
▁seem	-9.70951
▁reaction	-9.70973
▁23	-9.70973
▁text	-9.70986
ang	-9.71015
▁tall	-9.71138
ii	-9.71139
such	-9.7114
▁mon	-9.71172
▁disney	-9.71266
▁illegal	-9.71285
▁primary	-9.71285
▁height	-9.71288
▁2017	-9.71305
qui	-9.71325
also	-9.71355
ids	-9.71357
ship	-9.71398
gan	-9.71401
▁leaders	-9.71603
▁flow	-9.7162
▁consider	-9.71639
ile	-9.71728
▁key	-9.71764
lu	-9.71802
▁bright	-9.71961
▁stadium	-9.71999
quantum	-9.71999
▁colony	-9.72034
▁commercial	-9.72039
▁stand	-9.72079
▁generation	-9.72098
▁running	-9.72126
▁moves	-9.72143
▁mouth	-9.72162
▁grand	-9.72245
▁artist	-9.72398
á	-9.72513
99	-9.72533
▁volume	-9.72718
▁content	-9.72719
▁literature	-9.72719
ator	-9.7276
▁linux	-9.72814
ius	-9.72817
▁golden	-9.72821
▁ke	-9.72851
18	-9.72859
▁sure	-9.72884
▁60	-9.72919
▁28	-9.73011
▁os	-9.731
▁studio	-9.73117
▁drug	-9.73133
mit	-9.73345
▁address	-9.73346
bb	-9.73363
▁1991	-9.73443
▁copies	-9.73443
▁railway	-9.73452
▁currently	-9.73731
▁walk	-9.73755
▁treat	-9.73761
▁upper	-9.73781
14	-9.7393
▁layer	-9.73985
▁jobs	-9.74045
▁alcohol	-9.74116
▁democracy	-9.74173
▁nintendo	-9.74173
▁peninsula	-9.74173
▁behind	-9.74173
▁search	-9.74174
ize	-9.74175
▁edward	-9.74176
▁dangerous	-9.74178
▁radiation	-9.74181
▁bay	-9.74276
▁apart	-9.7431
▁performed	-9.74408
▁agree	-9.74416
▁director	-9.74424
40	-9.7445
low	-9.7445
ung	-9.74452
▁soul	-9.74546
mat	-9.74653
xi	-9.74674
▁underground	-9.74914
▁property	-9.74916
▁1998	-9.74919
▁2019	-9.74933
▁changing	-9.75006
qua	-9.75113
▁che	-9.75137
▁borders	-9.75312
▁museum	-9.75372
▁damage	-9.75467
her	-9.7553
▁lincoln	-9.75649
▁answer	-9.75653
▁professional	-9.75718
▁citizens	-9.75751
▁smallest	-9.75811
▁finished	-9.75894
▁fe	-9.75927
▁horse	-9.76159
▁multi	-9.76297
▁cars	-9.76307
▁fly	-9.7631
▁designed	-9.76333
60	-9.76392
▁located	-9.76395
▁palace	-9.76399
▁thick	-9.76402
▁hurt	-9.76412
▁coming	-9.76425
▁exactly	-9.76456
▁captured	-9.76512
▁completely	-9.76526
▁eaten	-9.76547
▁raised	-9.76554
▁experience	-9.7667
▁christ	-9.76821
▁image	-9.76924
ran	-9.76966
su	-9.77012
field	-9.77043
▁lee	-9.77137
▁behavior	-9.77147
▁counties	-9.7716
▁stations	-9.77383
nk	-9.77411
▁sky	-9.77493
ok	-9.77532
▁opera	-9.77696
▁author	-9.77714
row	-9.77721
light	-9.77777
70	-9.77802
15	-9.77842
▁ku	-9.77843
▁hands	-9.77899
▁location	-9.77905
▁denmark	-9.77908
mu	-9.77929
▁hundreds	-9.77929
lit	-9.78007
pr	-9.78062
▁finally	-9.78104
▁cards	-9.78166
▁elections	-9.78167
▁200	-9.78208
▁attacked	-9.78416
▁iraq	-9.78496
30	-9.78554
ria	-9.78615
▁giving	-9.78668
▁actress	-9.78669
▁develop	-9.78724
▁protons	-9.7874
▁directly	-9.78791
▁bit	-9.78928
star	-9.79026
▁connect	-9.79031
▁coal	-9.7913
sta	-9.79189
▁electrical	-9.79369
▁coffee	-9.79437
▁sweden	-9.79437
▁zealand	-9.79437
▁polish	-9.79443
over	-9.79443
▁1994	-9.79451
▁saying	-9.79569
▁user	-9.79651
▁wa	-9.79684
led	-9.79738
▁enter	-9.79922
ville	-9.79978
▁monarch	-9.80035
▁stayed	-9.80061
lar	-9.80126
ris	-9.80165
▁relativity	-9.80212
▁label	-9.80213
▁martin	-9.80226
▁thus	-9.8026
jo	-9.80275
▁iran	-9.80317
▁slowly	-9.80346
ping	-9.80352
mark	-9.80385
▁placed	-9.80496
tin	-9.80543
▁farm	-9.8058
▁continue	-9.8066
chi	-9.80672
▁cool	-9.80674
mm	-9.80678
▁amounts	-9.80729
▁project	-9.80835
▁thin	-9.80851
▁entire	-9.80853
!	-9.80892
▁hemisphere	-9.80994
▁jupiter	-9.80994
▁vitamin	-9.80994
▁creation	-9.81018
ov	-9.81042
▁crops	-9.81067
▁greater	-9.81091
▁tax	-9.81136
▁treaty	-9.81167
form	-9.81188
▁gods	-9.81339
▁differences	-9.81357
▁relative	-9.81429
▁notes	-9.81468
zo	-9.81497
▁colors	-9.81524
▁continent	-9.81538
▁broke	-9.81626
▁results	-9.81645
▁village	-9.81658
▁runs	-9.81664
gent	-9.81677
▁direction	-9.81697
▁page	-9.81755
▁2015	-9.81809
▁association	-9.8183
car	-9.81922
19	-9.82039
▁chemicals	-9.82126
▁mixed	-9.82138
▁box	-9.82146
rom	-9.82155
▁31	-9.82219
45	-9.8223
▁sounds	-9.82238
▁y	-9.823
▁sin	-9.8231
▁verb	-9.82364
▁substance	-9.82464
▁organization	-9.82469
▁security	-9.82575
▁taiwan	-9.82575
▁evil	-9.82575
▁particle	-9.82617
br	-9.8273
▁israel	-9.82778
▁complete	-9.83122
▁bands	-9.83126
▁mix	-9.83128
▁survive	-9.83136
▁holes	-9.8314
ible	-9.8318
▁powers	-9.83255
▁thousand	-9.8329
well	-9.83335
▁domestic	-9.83363
▁plastic	-9.83375
▁reserve	-9.83375
▁global	-9.83375
▁1975	-9.83388
▁chance	-9.83396
ee	-9.83403
▁provide	-9.83455
▁couple	-9.83457
▁action	-9.83711
ified	-9.83898
▁separated	-9.83912
▁dogs	-9.8392
▁ya	-9.83969
tre	-9.84041
▁occur	-9.84093
▁channel	-9.84181
▁senate	-9.84182
▁bought	-9.8419
▁appearance	-9.84199
▁sick	-9.8421
11	-9.84265
▁era	-9.84284
▁peter	-9.84392
▁limited	-9.8445
▁increased	-9.84481
▁arabic	-9.84545
▁rogers	-9.84565
▁29	-9.84625
▁attacks	-9.84707
▁bell	-9.84796
zi	-9.84838
▁trying	-9.84876
▁slow	-9.84895
ker	-9.849
▁organisms	-9.8494
tri	-9.84946
▁ge	-9.84953
▁degree	-9.84962
par	-9.84994
▁muhammad	-9.84994
▁target	-9.84996
47	-9.84996
▁scottish	-9.84998
▁jazz	-9.85001
▁temple	-9.85099
▁compar	-9.85155
▁wheel	-9.85179
▁genes	-9.8524
▁worship	-9.85328
▁sir	-9.85345
87	-9.8549
▁26	-9.85547
▁burn	-9.85566
ise	-9.85598
shi	-9.85688
+	-9.85715
▁attract	-9.85741
▁°	-9.85772
▁hundred	-9.85788
▁comics	-9.85796
▁activity	-9.85814
▁immune	-9.85814
▁phrase	-9.85814
▁welsh	-9.85814
▁autism	-9.85815
▁calvin	-9.85818
▁theatre	-9.85837
▁knew	-9.85841
▁defined	-9.85932
▁ends	-9.85946
▁bur	-9.85947
▁catch	-9.85953
▁methods	-9.85958
sen	-9.85975
▁hunting	-9.86007
16	-9.86167
ative	-9.862
ign	-9.86413
▁fat	-9.8643
▁cor	-9.86439
▁upon	-9.86624
▁alexander	-9.8664
▁judge	-9.8664
▁earliest	-9.86641
▁buried	-9.86645
▁2020	-9.86677
▁declared	-9.86683
▁frank	-9.8672
▁navy	-9.86743
gra	-9.86746
!"	-9.86748
?	-9.86756
▁longest	-9.86822
▁flower	-9.86828
rate	-9.86937
▁mars	-9.8694
▁dole	-9.86976
yn	-9.87004
▁je	-9.87182
▁meet	-9.87187
▁levels	-9.87201
ill	-9.87266
▁fields	-9.87322
▁tradition	-9.87367
▁depression	-9.87474
▁cream	-9.87483
▁minutes	-9.87484
▁biology	-9.87487
american	-9.87493
▁agreement	-9.875
und	-9.87531
▁popeye	-9.87571
most	-9.87603
▁comic	-9.87677
▁rocks	-9.87751
▁kings	-9.87788
▁clean	-9.87972
▁musicians	-9.88019
▁minerals	-9.88258
▁columbia	-9.88314
▁entertainment	-9.8832
▁irish	-9.88321
▁canadian	-9.88376
▁positive	-9.88397
▁viruses	-9.88398
▁chosen	-9.88426
ara	-9.88521
▁prayer	-9.88608
▁tribes	-9.88627
▁accepted	-9.88643
▁begins	-9.88777
▁poet	-9.88788
▁va	-9.8885
80	-9.88911
▁nu	-9.88916
▁questions	-9.89017
▁users	-9.89029
▁brazil	-9.89133
▁section	-9.89162
▁norway	-9.89167
▁1997	-9.89177
▁1973	-9.8918
▁straight	-9.89223
▁opening	-9.89266
▁fell	-9.89269
war	-9.89283
▁engineering	-9.89314
▁remains	-9.89357
▁recently	-9.89371
▁taste	-9.8939
ev	-9.89431
kh	-9.89465
▁reported	-9.89497
▁murder	-9.89743
13	-9.8976
▁goods	-9.89902
▁sy	-9.89968
ding	-9.89979
▁enemies	-9.90016
▁troops	-9.90016
▁copyright	-9.90018
▁27	-9.90026
▁1992	-9.9003
▁canal	-9.90058
▁beat	-9.90391
▁treated	-9.90442
▁step	-9.90458
▁script	-9.90483
▁micro	-9.90658
▁bomb	-9.90765
▁wine	-9.90832
▁leading	-9.90862
▁cycle	-9.90878
▁holiday	-9.90878
▁defend	-9.90879
▁saturn	-9.90883
▁rare	-9.90889
▁2021	-9.90904
▁lay	-9.90924
▁magazine	-9.90968
▁belief	-9.90985
▁meters	-9.90986
▁flows	-9.91313
▁killing	-9.91624
▁volcano	-9.91652
▁digital	-9.91748
▁liberal	-9.91748
▁malaria	-9.91748
▁floor	-9.91748
▁classification	-9.91754
▁rose	-9.91762
▁nothing	-9.91764
▁recording	-9.91766
▁flowers	-9.91784
▁spot	-9.91793
▁sweet	-9.91849
▁direct	-9.92061
made	-9.92069
ans	-9.92324
▁seasons	-9.92489
▁motor	-9.92612
▁convert	-9.92626
▁display	-9.92632
▁1993	-9.92643
▁sailor	-9.92692
hel	-9.9274
▁stream	-9.92757
▁equation	-9.92773
▁question	-9.92783
▁walls	-9.92789
5,000	-9.9281
▁interest	-9.92841
ret	-9.92859
▁required	-9.9286
▁edge	-9.92913
▁usb	-9.9293
▁resources	-9.93066
▁adults	-9.93069
ory	-9.93087
▁males	-9.93223
▁serious	-9.93372
▁mor	-9.9346
ü	-9.9351
▁mixture	-9.9351
▁1974	-9.93526
▁flight	-9.93536
°	-9.93555
pped	-9.93565
21	-9.93764
▁remained	-9.93796
istic	-9.93818
▁devices	-9.93995
▁iii	-9.94027
▁sum	-9.94038
pu	-9.9407
van	-9.94073
12	-9.94238
▁regular	-9.94262
▁associat	-9.94348
dis	-9.94356
▁3,	-9.94361
▁columbus	-9.94403
▁illinois	-9.94403
▁metropolitan	-9.94403
▁surgery	-9.94403
▁secretary	-9.9443
▁brothers	-9.94448
▁nazi	-9.94617
▁gl	-9.94675
zz	-9.94713
90	-9.94751
▁roots	-9.94796
▁eating	-9.94831
▁adding	-9.94886
▁cra	-9.94908
▁temperatures	-9.95154
bar	-9.95201
val	-9.95268
▁practice	-9.95273
▁catherine	-9.95304
▁communication	-9.95304
▁presidency	-9.95307
▁bre	-9.95424
▁note	-9.95447
09	-9.95464
▁sources	-9.95529
▁trip	-9.9555
berg	-9.95644
▁hy	-9.95646
▁bin	-9.95654
▁para	-9.95797
referred	-9.95924
▁improve	-9.95983
▁branch	-9.96116
▁4,	-9.9612
▁(18	-9.96148
▁dynasty	-9.96213
▁expensive	-9.96213
▁saddam	-9.96213
▁premier	-9.96213
▁avoid	-9.96214
▁nearby	-9.96295
▁report	-9.96297
▁nor	-9.96339
66	-9.96459
▁collect	-9.96541
▁experiment	-9.96866
▁cats	-9.96936
ned	-9.96965
17	-9.96975
new	-9.97085
ries	-9.97117
▁twice	-9.9713
▁carried	-9.97131
▁programming	-9.97131
▁vietnamese	-9.97139
▁thinking	-9.97149
▁jones	-9.97177
▁rice	-9.97177
▁actors	-9.97242
▁respect	-9.97253
▁article	-9.97405
ade	-9.97463
▁defeated	-9.97483
▁looking	-9.97548
▁outer	-9.97584
cha	-9.97614
▁looked	-9.97641
▁cast	-9.97691
▁accept	-9.97695
▁australian	-9.97815
port	-9.97826
▁historical	-9.97974
▁protest	-9.98023
win	-9.98048
▁browser	-9.98056
▁calcium	-9.98056
▁variety	-9.98056
▁nucleus	-9.98056
▁hugo	-9.98091
▁tourism	-9.98122
▁spirit	-9.9818
▁invaded	-9.98211
▁machines	-9.98317
yo	-9.98338
▁fuel	-9.98376
▁protein	-9.98441
ix	-9.9852
▁sh	-9.98575
▁visited	-9.98658
▁legs	-9.98668
▁constant	-9.9885
▁leaving	-9.98991
▁clinton	-9.98991
▁fifth	-9.98991
▁console	-9.98991
▁flash	-9.99005
▁felt	-9.99011
▁schizophrenia	-9.99019
▁clothes	-9.99034
▁fear	-9.99035
▁acts	-9.99097
▁grass	-9.99098
▁manager	-9.99113
▁correct	-9.99115
▁chain	-9.9914
▁pu	-9.99245
▁festival	-9.99311
▁tea	-9.99421
play	-9.9946
▁defeat	-9.99573
▁musician	-9.99687
▁mosques	-9.99775
▁activities	-9.99934
▁bottom	-9.99934
▁despite	-9.99934
▁husband	-9.99934
▁multiple	-9.99934
▁bat	-9.9994
▁construction	-9.99942
▁tropical	-9.99958
▁1930	-9.99961
▁1940	-9.99962
ble	-9.99966
▁chemistry	-10.0001
▁items	-10.0002
▁typically	-10.0003
▁issues	-10.0005
▁taxes	-10.0005
▁anyone	-10.0006
▁penis	-10.001
back	-10.0013
▁count	-10.0014
▁sort	-10.0014
ball	-10.0015
▁pet	-10.0015
▁dog	-10.002
ever	-10.0021
▁closer	-10.0022
▁fo	-10.0026
ologist	-10.0032
▁affect	-10.0036
▁reactions	-10.0044
▁serve	-10.0053
▁camera	-10.0055
▁pole	-10.0055
▁painting	-10.0065
ani	-10.0067
tur	-10.0071
je	-10.0071
▁paint	-10.008
▁acting	-10.0086
▁galaxy	-10.0089
▁1981	-10.0089
▁civilization	-10.009
▁regard	-10.009
▁lady	-10.0092
▁paid	-10.0093
▁southeast	-10.0094
▁degrees	-10.0094
▁pages	-10.0104
▁spelling	-10.0106
▁monarchy	-10.0109
▁philosophers	-10.0114
53	-10.0115
24	-10.0118
▁semi	-10.0123
▁liked	-10.014
▁mag	-10.015
▁cha	-10.0158
ious	-10.0159
din	-10.0161
ese	-10.018
▁belgium	-10.0185
▁caesar	-10.0185
▁hebrew	-10.0185
▁nobel	-10.0185
▁instance	-10.0185
▁arctic	-10.0186
▁1979	-10.0186
ica	-10.0189
▁virus	-10.0193
▁onto	-10.0196
wood	-10.0197
super	-10.02
▁sites	-10.0208
▁sperm	-10.021
law	-10.0223
▁gases	-10.0224
▁department	-10.0225
▁plate	-10.0234
▁disc	-10.0234
▁reading	-10.0235
▁moons	-10.0236
▁goal	-10.0236
▁cur	-10.0239
▁11,	-10.024
77	-10.0244
▁ray	-10.026
▁spoke	-10.0267
▁ce	-10.0273
bra	-10.0274
ins	-10.0277
med	-10.0278
▁competition	-10.0282
▁galaxies	-10.0282
▁orthodox	-10.0282
▁cattle	-10.0282
▁colonies	-10.0282
▁orange	-10.0283
▁check	-10.0285
▁fluid	-10.0286
▁collection	-10.0293
▁failed	-10.0294
▁tries	-10.0298
▁wings	-10.0308
ised	-10.0308
▁novel	-10.0309
▁ci	-10.0317
ala	-10.0322
▁website	-10.0326
▁bullet	-10.0326
▁allies	-10.0336
hy	-10.0337
▁strings	-10.0345
pre	-10.0349
▁finding	-10.035
▁begin	-10.0353
▁fame	-10.0354
▁bath	-10.0355
▁score	-10.0356
▁millions	-10.036
▁ob	-10.0362
nce	-10.037
act	-10.037
▁mechanics	-10.038
▁twenty	-10.038
▁nudity	-10.038
▁photograph	-10.038
▁medal	-10.0381
▁bread	-10.0383
▁organic	-10.0385
▁double	-10.039
▁garden	-10.0392
▁females	-10.0396
▁ask	-10.0396
▁selling	-10.0399
▁server	-10.0405
oid	-10.0411
25	-10.0413
lia	-10.0418
fer	-10.0421
▁slave	-10.0425
▁figure	-10.0426
▁heard	-10.0439
▁gene	-10.0447
▁diet	-10.0451
▁historians	-10.0455
pla	-10.046
▁com	-10.0462
▁grammy	-10.0479
▁immediately	-10.0479
▁venus	-10.0479
▁bronze	-10.0479
▁beatles	-10.0481
▁roads	-10.0487
▁persian	-10.0488
▁branches	-10.0489
aw	-10.0497
now	-10.0503
▁olympics	-10.0505
▁(2	-10.0506
▁fl	-10.0507
▁gay	-10.052
▁shapes	-10.0524
▁purpose	-10.0529
▁wants	-10.0532
▁trains	-10.0541
▁genetic	-10.0546
▁covers	-10.0546
ano	-10.0551
▁wi	-10.0552
▁faith	-10.0578
▁mediterranean	-10.0579
▁supply	-10.0579
▁testament	-10.0579
▁1971	-10.0579
▁urban	-10.0579
▁helium	-10.0579
▁aircraft	-10.058
▁arthur	-10.058
▁status	-10.058
▁authority	-10.0582
▁alone	-10.0586
▁iceland	-10.0588
ens	-10.0588
▁cal	-10.0591
í	-10.0591
▁vary	-10.0591
▁har	-10.0596
▁wonder	-10.0598
ug	-10.0603
▁gi	-10.0605
ray	-10.0606
▁claimed	-10.0615
life	-10.0618
▁wr	-10.0622
▁sit	-10.0625
▁fans	-10.0632
▁student	-10.0633
▁ability	-10.0638
▁gun	-10.0646
▁val	-10.0656
▁talking	-10.0663
▁arch	-10.0667
▁hour	-10.0668
pan	-10.0673
▁nixon	-10.068
▁situation	-10.068
▁smith	-10.068
▁folk	-10.068
▁carolina	-10.068
▁oxide	-10.068
▁1969	-10.0682
▁conservative	-10.0684
▁semen	-10.0684
▁ki	-10.0688
▁suit	-10.069
sha	-10.0692
qu	-10.0693
▁fishing	-10.0696
73	-10.0697
▁factors	-10.0704
39	-10.0708
oli	-10.0718
▁shi	-10.0719
▁acids	-10.0723
93	-10.0724
▁claim	-10.0728
▁training	-10.073
27	-10.0732
▁condition	-10.0737
4%	-10.0741
▁tourists	-10.0743
▁destroy	-10.0746
▁receive	-10.0748
▁lose	-10.0755
ization	-10.0758
▁match	-10.0773
▁require	-10.0774
200	-10.078
▁identity	-10.0782
▁1968	-10.0784
▁estimated	-10.0789
fu	-10.0791
▁continental	-10.0796
▁lack	-10.0803
▁girls	-10.0817
tz	-10.0823
ks	-10.0829
▁lands	-10.0835
▁char	-10.084
▁younger	-10.0841
▁ie	-10.0843
69	-10.085
eu	-10.0866
sch	-10.0871
▁neutrons	-10.0876
hol	-10.0877
▁buddha	-10.0885
▁hamilton	-10.0885
▁manhattan	-10.0885
▁moscow	-10.0885
▁pregnancy	-10.0885
▁territories	-10.0885
▁bishop	-10.0885
▁funeral	-10.0885
▁fun	-10.0886
▁clay	-10.0888
▁boats	-10.0891
▁verbs	-10.0901
town	-10.0902
▁launched	-10.0903
▁trial	-10.0905
tru	-10.0905
▁tool	-10.0907
▁highly	-10.0907
▁mainland	-10.0909
▁mayor	-10.0922
▁interested	-10.0928
▁healthy	-10.0943
▁price	-10.0948
▁ser	-10.0953
▁ethiopia	-10.0954
ick	-10.0954
▁broadcast	-10.0955
▁grant	-10.0956
▁print	-10.0959
ari	-10.0959
▁safe	-10.0969
▁cap	-10.0974
67	-10.098
west	-10.0986
▁angel	-10.0987
▁holds	-10.0988
▁census	-10.0989
▁financial	-10.0989
▁gregorian	-10.0989
▁pollution	-10.0989
▁inhabitants	-10.0989
▁nepal	-10.0989
▁1984	-10.0991
▁plato	-10.0991
▁neck	-10.0993
▁1920	-10.0993
▁composers	-10.0994
7%	-10.0995
▁jack	-10.0998
ren	-10.1002
▁marine	-10.1005
▁sch	-10.1008
ast	-10.1009
▁jr	-10.1011
▁bal	-10.1013
▁foot	-10.1018
▁listen	-10.1021
▁writers	-10.1021
▁command	-10.1023
37	-10.1025
▁kilometers	-10.1031
▁pure	-10.1031
rn	-10.1032
state	-10.1036
net	-10.1042
mes	-10.1044
▁infection	-10.1055
▁moral	-10.1056
▁op	-10.1069
▁hosted	-10.1077
▁sal	-10.1085
▁manage	-10.1092
▁accident	-10.1094
▁candidate	-10.1095
▁michigan	-10.1095
▁sleep	-10.1095
▁neptune	-10.1095
▁safety	-10.1096
▁theories	-10.1097
▁farmers	-10.1102
▁arrived	-10.1104
2%	-10.1111
set	-10.1111
▁adopted	-10.1112
▁feed	-10.1122
ties	-10.1127
▁borough	-10.1138
▁cd	-10.1138
▁wet	-10.1155
▁pot	-10.1156
▁speaking	-10.1174
▁girl	-10.1181
off	-10.1185
non	-10.1194
▁conflict	-10.1201
▁frequency	-10.1201
▁gulf	-10.1201
▁demand	-10.1201
▁hinduism	-10.1203
▁brand	-10.1204
▁ending	-10.1204
tar	-10.1212
meter	-10.1213
▁reduce	-10.1214
▁strip	-10.1214
_2	-10.1218
▁detect	-10.1225
▁offer	-10.1231
85	-10.1231
▁attempt	-10.1236
our	-10.125
▁bones	-10.1259
top	-10.1265
▁()	-10.1275
▁pick	-10.1279
▁bond	-10.128
▁net	-10.1282
▁involve	-10.1283
▁32	-10.1284
▁500	-10.1299
▁blind	-10.1307
▁agriculture	-10.1308
▁chocolate	-10.1308
▁library	-10.1308
▁potential	-10.1308
▁vector	-10.1308
▁bbc	-10.1311
▁1987	-10.1311
▁press	-10.1312
mor	-10.1315
▁1800	-10.1318
▁happy	-10.1319
▁hormones	-10.1326
▁vegetables	-10.1326
gar	-10.1327
bert	-10.1332
▁fort	-10.1335
▁scar	-10.1336
▁spa	-10.134
▁1976	-10.1341
▁hits	-10.1344
▁grain	-10.1344
▁mis	-10.1346
▁limit	-10.135
▁seeds	-10.1352
ney	-10.1353
bul	-10.1354
▁farming	-10.1355
▁card	-10.1365
▁stronger	-10.1368
▁fu	-10.137
cus	-10.1377
▁enjoy	-10.1381
▁arts	-10.1381
500	-10.1391
▁nickname	-10.1393
ash	-10.1397
▁bio	-10.1397
▁studying	-10.1405
▁fair	-10.141
▁noun	-10.1415
▁minor	-10.1415
▁commonwealth	-10.1417
▁pregnant	-10.1417
▁lennon	-10.1417
▁senator	-10.1417
▁heaven	-10.1417
▁serbia	-10.1418
▁creating	-10.1418
▁cook	-10.1421
▁europeans	-10.1421
▁giant	-10.1422
▁artificial	-10.1423
▁tim	-10.1424
▁astronomy	-10.1425
tte	-10.1432
▁conquered	-10.1432
▁fixed	-10.1437
you	-10.1438
dom	-10.1438
▁classes	-10.1439
▁celebrated	-10.144
▁victoria	-10.1443
▁door	-10.1445
▁graph	-10.1466
▁exists	-10.1466
bri	-10.1468
▁gar	-10.1473
▁prey	-10.1484
▁philosopher	-10.1498
cal	-10.1513
nder	-10.1514
▁hawaii	-10.1521
▁egg	-10.1521
▁bear	-10.1525
▁ski	-10.1525
▁alternative	-10.1527
▁roosevelt	-10.1527
▁unique	-10.1527
▁libya	-10.1527
▁1964	-10.1529
▁1982	-10.1529
▁strange	-10.1529
▁1985	-10.1529
▁organ	-10.1531
▁chile	-10.1531
▁pack	-10.1532
▁professor	-10.1533
▁surrounded	-10.1535
av	-10.1538
▁q	-10.154
▁recognized	-10.1545
▁dust	-10.1545
▁toxic	-10.1545
▁row	-10.156
▁fully	-10.1571
▁tend	-10.1574
▁tube	-10.1583
57	-10.1588
▁ordered	-10.1591
▁articles	-10.1605
▁fossil	-10.1611
▁compound	-10.1612
▁owner	-10.1613
▁banks	-10.1624
▁awarded	-10.1625
ase	-10.1628
board	-10.1634
▁currency	-10.1638
▁mathematical	-10.1638
▁violin	-10.1638
▁solution	-10.1638
▁daily	-10.1638
▁institute	-10.1638
▁exchange	-10.1639
▁1986	-10.164
▁evolved	-10.164
that	-10.1641
▁assembly	-10.1642
▁liver	-10.1643
▁violence	-10.1648
▁peak	-10.1652
▁remain	-10.1658
▁bri	-10.1658
house	-10.1666
▁films	-10.1667
▁organs	-10.1671
▁5,	-10.1675
▁abuse	-10.1677
▁stored	-10.1681
▁fin	-10.1681
▁cent	-10.1683
▁perform	-10.1691
56	-10.1692
▁colours	-10.1707
▁poison	-10.1716
▁spend	-10.172
▁sam	-10.1728
▁mc	-10.1731
▁mexican	-10.175
▁normandy	-10.1751
▁choice	-10.1751
who	-10.1752
▁1983	-10.1752
▁1977	-10.1753
▁produces	-10.1753
▁guide	-10.1759
▁chief	-10.1767
▁stable	-10.177
▁broken	-10.1773
▁singing	-10.1773
ku	-10.1777
▁hydro	-10.178
water	-10.1782
▁boys	-10.1792
▁affected	-10.1793
▁fold	-10.1795
23	-10.1814
▁solo	-10.1817
▁fur	-10.1823
▁proteins	-10.1827
▁flood	-10.183
▁ham	-10.1842
shire	-10.1842
▁magic	-10.1845
ire	-10.1851
ola	-10.1851
▁fine	-10.1854
▁teacher	-10.1854
▁cricket	-10.1864
▁liverpool	-10.1864
▁throne	-10.1864
▁variable	-10.1864
▁policy	-10.1864
▁morning	-10.1865
▁export	-10.1866
▁occupied	-10.1866
▁fr	-10.1866
▁route	-10.1866
▁mining	-10.1868
▁mississippi	-10.1869
▁wheat	-10.1869
▁effective	-10.1871
▁marry	-10.1872
▁tiny	-10.1877
▁settled	-10.1877
berry	-10.188
mal	-10.1895
▁wire	-10.1902
art	-10.1902
▁signs	-10.1908
1)	-10.1911
9%	-10.1917
cent	-10.1918
ji	-10.193
▁usa	-10.1931
▁escape	-10.1956
▁statue	-10.1959
▁measurement	-10.1963
▁zone	-10.1963
▁southwest	-10.1976
▁francis	-10.1976
▁homosexual	-10.1977
▁fresh	-10.1979
▁colombia	-10.1979
▁response	-10.1979
▁stomach	-10.1979
▁vienna	-10.1979
▁solve	-10.1979
▁invention	-10.1979
▁antarctica	-10.1982
▁hungary	-10.2
ama	-10.2005
▁handle	-10.2006
▁belt	-10.2006
western	-10.2027
▁foods	-10.203
▁80	-10.2034
use	-10.204
▁beach	-10.2044
cut	-10.2057
▁harder	-10.2062
▁experiments	-10.2062
this	-10.2064
▁link	-10.2067
8%	-10.207
▁remove	-10.2072
▁account	-10.2078
▁principle	-10.2079
▁track	-10.208
2)	-10.2091
are	-10.2092
▁argument	-10.2095
▁matrix	-10.2095
▁permanent	-10.2095
▁portugal	-10.2095
▁slightly	-10.2095
▁mandela	-10.2095
▁vagina	-10.2095
▁championship	-10.2096
▁universal	-10.2096
▁ram	-10.2097
▁crust	-10.2099
▁adams	-10.2099
▁1900	-10.21
▁noble	-10.2105
▁partly	-10.2107
▁chess	-10.2108
74	-10.2113
▁hop	-10.2113
of	-10.2117
▁core	-10.2125
▁soap	-10.2127
▁cho	-10.2136
based	-10.2139
▁push	-10.214
▁entered	-10.215
lly	-10.2153
26	-10.2154
▁appears	-10.2173
▁issue	-10.2178
▁governments	-10.2178
▁plane	-10.2195
▁document	-10.2197
▁plain	-10.2199
▁muscle	-10.2199
▁reform	-10.2202
▁stores	-10.2204
▁replace	-10.2208
▁aristotle	-10.2213
▁caribbean	-10.2213
▁kimono	-10.2213
▁quality	-10.2213
▁diameter	-10.2213
hood	-10.2214
▁1944	-10.2215
▁magnetic	-10.2215
▁shell	-10.2215
▁francisco	-10.2216
▁dream	-10.2218
97	-10.2221
▁discovery	-10.2221
▁transportation	-10.2222
▁defense	-10.2227
▁captain	-10.2227
▁farms	-10.2235
ene	-10.2235
▁theater	-10.2236
▁nouns	-10.2248
stone	-10.2249
uk	-10.2263
▁cu	-10.2266
▁seat	-10.2269
▁foundation	-10.227
wan	-10.2285
100	-10.229
▁consists	-10.23
▁prussia	-10.231
▁raise	-10.231
▁rod	-10.2314
▁concert	-10.2318
▁course	-10.232
▁illness	-10.2324
▁mine	-10.2332
▁audience	-10.2332
▁convention	-10.2332
▁eminem	-10.2332
▁rainforest	-10.2332
▁beyond	-10.2332
▁somerset	-10.2332
▁visible	-10.2332
▁stalin	-10.2332
▁telephone	-10.2332
▁globe	-10.2332
▁combination	-10.2334
▁flute	-10.2342
▁custom	-10.2342
▁file	-10.2343
▁teaching	-10.2347
▁subjects	-10.2351
ken	-10.2351
▁rarely	-10.2351
78	-10.2358
▁guard	-10.236
ied	-10.236
94	-10.2363
▁showing	-10.2366
▁fruits	-10.237
vin	-10.2376
▁map	-10.2383
with	-10.2391
–19	-10.2392
▁save	-10.2394
▁clouds	-10.2408
▁syria	-10.2409
ane	-10.2426
rie	-10.2427
▁shorter	-10.2432
als	-10.2436
79	-10.2441
▁message	-10.2445
comp	-10.245
▁pair	-10.2451
▁azerbaijan	-10.2453
▁socrates	-10.2453
▁strength	-10.2453
▁supreme	-10.2453
▁attention	-10.2453
▁playstation	-10.2453
▁factories	-10.2453
▁athens	-10.2454
▁1978	-10.2455
▁sword	-10.2459
▁factory	-10.2463
82	-10.2474
▁speakers	-10.2478
▁fossils	-10.2482
▁businesses	-10.2482
▁combined	-10.2485
▁boat	-10.2492
▁meeting	-10.2493
▁turns	-10.2495
▁hear	-10.2498
yan	-10.2511
▁purposes	-10.2513
cc	-10.2527
east	-10.2531
hr	-10.2539
lon	-10.2539
▁nazis	-10.2548
2.	-10.2548
▁loss	-10.2557
af	-10.2557
▁closed	-10.256
▁chose	-10.2563
sk	-10.2565
▁euro	-10.2567
▁traditions	-10.2573
▁challenge	-10.2574
▁dwarf	-10.2574
▁medieval	-10.2574
▁guinea	-10.2574
▁credit	-10.2575
▁basis	-10.2575
▁roof	-10.2576
▁1965	-10.2576
▁composer	-10.2578
▁reign	-10.2582
▁occurs	-10.2585
3%	-10.2588
33	-10.2588
▁operation	-10.2593
,000,000	-10.2597
centr	-10.2604
▁cooking	-10.2612
ky	-10.2613
▁1000	-10.2615
book	-10.2615
▁$1	-10.2623
▁guns	-10.2637
▁describes	-10.2655
▁camp	-10.2659
▁20,	-10.266
▁albert	-10.2686
▁ions	-10.2694
▁politician	-10.2695
▁rhine	-10.2697
▁administrative	-10.2698
▁communities	-10.2698
▁declaration	-10.2698
▁ronald	-10.2698
▁significant	-10.2698
▁density	-10.2698
uch	-10.2698
▁transgender	-10.2698
▁1988	-10.27
▁poetry	-10.2702
▁income	-10.2705
▁appointed	-10.2707
▁edition	-10.271
▁substances	-10.2715
▁punk	-10.2718
▁math	-10.2729
▁horses	-10.2741
07	-10.2745
from	-10.2746
mus	-10.2754
ata	-10.2755
▁germans	-10.2758
ware	-10.2758
96	-10.2763
▁hal	-10.2771
ek	-10.2774
▁roles	-10.2783
get	-10.2785
▁hero	-10.2785
0.	-10.2785
▁instructions	-10.2796
▁mer	-10.2796
▁gri	-10.2797
▁engines	-10.2812
▁hills	-10.2813
43	-10.2821
42	-10.2822
▁executive	-10.2823
▁perhaps	-10.2823
▁nitrogen	-10.2823
▁nurse	-10.2823
▁organisation	-10.2823
▁tokyo	-10.2823
▁spectrum	-10.2823
6%	-10.2824
▁protected	-10.283
▁sunday	-10.283
▁molecule	-10.2831
▁representatives	-10.2831
▁neutral	-10.2833
▁wish	-10.2834
▁volcanoes	-10.2837
▁divorced	-10.2843
▁advanced	-10.2846
▁formal	-10.2858
▁vehicles	-10.2863
▁lasted	-10.2893
▁poly	-10.291
▁existed	-10.2922
▁chart	-10.2926
▁whom	-10.2928
▁equations	-10.2928
▁bob	-10.293
▁mill	-10.294
▁compose	-10.294
ez	-10.2944
ography	-10.2949
▁missouri	-10.295
▁twelve	-10.295
▁velocity	-10.295
▁absorb	-10.295
▁1972	-10.295
▁enemy	-10.295
▁julian	-10.295
▁abraham	-10.295
▁northwest	-10.295
▁dress	-10.295
▁ottoman	-10.2951
▁dc	-10.2954
▁staff	-10.2955
▁oklahoma	-10.2956
▁puert	-10.2956
▁surrounding	-10.2958
oo	-10.2959
tain	-10.2961
▁refused	-10.2963
▁muscles	-10.2964
▁ion	-10.2968
▁alive	-10.2969
▁cash	-10.2971
▁suggested	-10.2975
▁particularly	-10.2979
place	-10.2992
▁voted	-10.3002
cho	-10.3005
▁arms	-10.301
▁bull	-10.3018
▁greeks	-10.3018
55	-10.3041
01	-10.3041
▁swa	-10.3051
▁sad	-10.3055
ean	-10.307
▁hindu	-10.3074
▁mel	-10.3076
▁communism	-10.3078
▁kennedy	-10.3078
▁satellite	-10.3078
▁testicles	-10.3078
▁orientation	-10.3078
▁therapy	-10.3078
▁truth	-10.3078
▁fiction	-10.3079
▁400	-10.308
▁existence	-10.308
▁1967	-10.308
▁fewer	-10.308
▁distribution	-10.3081
▁supposed	-10.3082
▁viii	-10.3084
▁mineral	-10.3086
▁organism	-10.309
wick	-10.3091
▁tail	-10.3114
▁ruler	-10.3118
▁linked	-10.3118
▁mut	-10.312
▁stock	-10.313
88	-10.3132
▁stands	-10.314
▁views	-10.3148
▁functions	-10.3156
illa	-10.316
more	-10.3167
extremely	-10.3167
▁notable	-10.317
rian	-10.3174
▁styles	-10.3176
▁advance	-10.3184
35	-10.3191
▁newspapers	-10.3193
ack	-10.3205
▁steam	-10.3207
▁reflect	-10.3208
▁sequence	-10.3208
▁exercise	-10.3208
▁immigrants	-10.3208
▁increasing	-10.3208
▁pennsylvania	-10.3208
▁ohio	-10.3208
▁false	-10.3208
▁mistake	-10.3208
▁andrew	-10.3209
▁sparta	-10.3209
▁malaysia	-10.3209
▁proof	-10.3209
▁1949	-10.3209
▁parks	-10.3216
▁beaches	-10.3219
▁telescope	-10.3219
▁window	-10.3222
▁mobile	-10.3224
▁provides	-10.3226
col	-10.3226
▁breed	-10.3226
▁blues	-10.3232
▁starred	-10.3235
▁sharp	-10.3247
▁300	-10.3251
▁lies	-10.3252
worth	-10.3254
=	-10.3254
▁poll	-10.3258
▁kilometres	-10.326
▁sixth	-10.3267
▁movements	-10.3277
▁websites	-10.328
bit	-10.3282
▁metres	-10.3303
▁indonesia	-10.3317
▁drives	-10.332
▁twin	-10.3326
▁legend	-10.3338
▁dam	-10.3338
▁glucose	-10.3339
▁imperial	-10.3339
▁heritage	-10.3339
▁wavelength	-10.3339
▁trading	-10.334
▁planned	-10.334
▁scene	-10.3341
▁1963	-10.3341
tis	-10.3345
▁hawaiian	-10.3346
▁saud	-10.3347
sea	-10.3348
gin	-10.3352
ath	-10.3352
▁newspaper	-10.3354
▁online	-10.3359
▁den	-10.3361
22	-10.3372
air	-10.3382
▁printed	-10.3385
▁bach	-10.3389
▁35	-10.3391
bal	-10.3392
89	-10.3394
▁provided	-10.3395
lam	-10.3397
▁shared	-10.3398
▁references	-10.3399
75	-10.3409
▁master	-10.3413
ett	-10.3436
▁bed	-10.3441
.1	-10.3444
▁tra	-10.3448
lli	-10.3453
▁proper	-10.3462
▁listed	-10.3466
▁confederate	-10.3472
▁jersey	-10.3472
▁sydney	-10.3472
▁ukraine	-10.3472
▁sight	-10.3473
▁broad	-10.3473
▁failure	-10.3473
▁biological	-10.3473
▁xbox	-10.3474
▁hammer	-10.3474
▁baseball	-10.3474
▁visitors	-10.3475
▁shaped	-10.3486
▁news	-10.349
▁earthquake	-10.3491
▁actions	-10.3492
▁secondary	-10.3499
▁attended	-10.3523
▁del	-10.3531
▁economics	-10.3544
▁singles	-10.3546
▁ye	-10.3552
▁caus	-10.356
lus	-10.3561
ification	-10.3567
▁zoo	-10.3567
▁attend	-10.3572
▁crimes	-10.3578
▁path	-10.358
▁falls	-10.3583
nova	-10.3588
vol	-10.3589
▁celebrate	-10.3594
▁stra	-10.36
▁anna	-10.36
▁unusual	-10.3603
▁disagree	-10.3605
wing	-10.3606
▁argentina	-10.3608
▁beethoven	-10.3608
▁geometry	-10.3608
▁legislature	-10.3608
▁necessary	-10.3608
▁sulfur	-10.3608
▁understood	-10.3608
▁visual	-10.3608
▁marvel	-10.3608
▁applied	-10.3608
▁colorado	-10.3608
▁cousin	-10.3608
▁winds	-10.3608
▁internal	-10.3608
▁youth	-10.3608
ino	-10.361
▁binary	-10.361
▁gravitational	-10.3612
▁maintain	-10.3612
▁conduct	-10.3614
▁wait	-10.3616
▁violent	-10.362
▁organized	-10.3623
▁whales	-10.3627
▁tissue	-10.3629
▁protection	-10.3629
▁mosque	-10.3631
▁clock	-10.3633
83	-10.3634
▁grave	-10.3635
▁partner	-10.3639
▁feathers	-10.3641
▁vaccines	-10.3652
work	-10.3658
▁logic	-10.3672
▁tr	-10.3675
tr	-10.3678
hl	-10.3685
▁elephants	-10.3687
▁loud	-10.3689
▁lenin	-10.369
▁peru	-10.3692
▁cri	-10.3706
ants	-10.3709
▁lungs	-10.3711
▁ash	-10.3712
28	-10.3719
▁astronomers	-10.3725
tim	-10.3729
▁mozart	-10.3745
▁accurate	-10.3745
▁administration	-10.3745
▁algebra	-10.3745
▁approach	-10.3745
▁electromagnetic	-10.3745
▁animated	-10.3745
▁grammar	-10.3745
▁babies	-10.3745
▁strike	-10.3745
▁cheese	-10.3746
▁climb	-10.3746
▁wool	-10.3746
▁1941	-10.3746
▁moses	-10.3747
▁adaptation	-10.3747
68	-10.3749
▁plans	-10.3751
▁axis	-10.3754
▁gothic	-10.3758
▁johnson	-10.3759
▁cre	-10.3763
▁pattern	-10.377
▁attraction	-10.3776
how	-10.3776
▁extreme	-10.3788
▁images	-10.3789
▁completed	-10.3795
▁12,	-10.3801
▁64	-10.3804
▁developing	-10.3806
▁aim	-10.381
uc	-10.3816
92	-10.3826
86	-10.3828
▁throw	-10.3835
▁app	-10.3839
▁periodic	-10.384
tus	-10.3846
▁regional	-10.3858
ably	-10.3862
▁nav	-10.3876
▁sto	-10.3879
▁ceremony	-10.3884
▁chicken	-10.3884
▁harrison	-10.3884
▁annual	-10.3884
▁jamaica	-10.3884
▁storage	-10.3884
▁pepsi	-10.3884
▁ple	-10.3884
▁mission	-10.3884
▁waste	-10.3885
▁typical	-10.3885
▁debate	-10.3885
▁plot	-10.3887
▁1953	-10.3887
▁1947	-10.3887
_3	-10.3887
▁gre	-10.3888
▁tiger	-10.3888
▁asian	-10.389
▁unknown	-10.3894
nna	-10.3897
▁princess	-10.3905
▁divisions	-10.391
▁hiv	-10.3912
▁sales	-10.3917
▁williams	-10.3922
rus	-10.3927
▁headquarters	-10.3929
▁gone	-10.393
44	-10.3932
▁coastal	-10.3936
▁tests	-10.3946
▁closely	-10.3956
64	-10.3958
▁keeping	-10.3967
▁marked	-10.3971
▁draw	-10.3994
▁skills	-10.4012
▁arabia	-10.4014
▁absolute	-10.4024
▁feminism	-10.4024
▁hockey	-10.4024
▁industries	-10.4024
▁massachusetts	-10.4024
▁nominated	-10.4024
▁orgasm	-10.4024
▁responsible	-10.4024
▁rugby	-10.4024
▁taliban	-10.4024
▁lithium	-10.4024
▁ordinary	-10.4024
▁cardinal	-10.4024
▁basketball	-10.4025
▁goddess	-10.4025
▁colonial	-10.4025
▁background	-10.4025
▁worn	-10.4026
▁debt	-10.4026
▁digest	-10.4026
▁perfect	-10.4028
▁moment	-10.4036
▁zo	-10.4036
▁6,	-10.4038
burg	-10.4041
3,	-10.4045
▁fla	-10.4049
▁disk	-10.4053
nia	-10.4057
▁episode	-10.4058
billboard	-10.4069
word	-10.408
people	-10.4082
sexual	-10.4083
59	-10.4084
▁layers	-10.4092
▁chad	-10.41
98	-10.4102
▁fund	-10.4124
hand	-10.4134
▁understanding	-10.4134
▁31,	-10.4136
);	-10.4138
▁cure	-10.4138
▁90	-10.414
▁iv	-10.4155
▁values	-10.4157
she	-10.4158
▁luther	-10.416
▁uncle	-10.4164
▁hunt	-10.4165
bro	-10.4167
▁michelangelo	-10.4167
▁pharaoh	-10.4167
▁indigenous	-10.4167
▁triangle	-10.4167
▁vowel	-10.4167
▁wisconsin	-10.4167
▁sodium	-10.4167
▁naked	-10.4167
▁darwin	-10.4168
▁stephen	-10.4168
▁marvin	-10.4169
▁settlers	-10.4169
▁childhood	-10.4169
▁brick	-10.4169
▁mouse	-10.417
▁everywhere	-10.417
▁selection	-10.4171
▁northeast	-10.4174
▁resulted	-10.4187
put	-10.419
▁kant	-10.4193
▁soccer	-10.4194
▁hell	-10.4199
ches	-10.4202
▁consist	-10.4205
38	-10.4214
die	-10.4218
bed	-10.422
ability	-10.4224
▁engineers	-10.4225
▁download	-10.4226
ught	-10.4227
pet	-10.4229
free	-10.423
▁cli	-10.4234
▁breathe	-10.4236
▁stated	-10.4236
mun	-10.4241
gue	-10.4254
bc	-10.4255
▁rocket	-10.4258
▁worth	-10.4261
▁yu	-10.4263
▁explained	-10.4264
▁max	-10.4265
▁constitutional	-10.427
▁eritrea	-10.4274
cia	-10.4276
▁applications	-10.4277
▁aid	-10.428
▁gate	-10.4285
▁forward	-10.4286
▁earthquakes	-10.4292
▁costa	-10.4295
▁actual	-10.4298
▁sizes	-10.4302
▁humid	-10.431
▁threat	-10.4311
▁neighbor	-10.4312
▁pronoun	-10.4312
▁contact	-10.4312
▁struggle	-10.4312
▁timberlake	-10.4312
▁leather	-10.4312
▁narrow	-10.4312
▁cotton	-10.4312
▁spiritual	-10.4312
▁animation	-10.4312
▁crisis	-10.4312
▁dictatorship	-10.4313
▁panama	-10.4313
▁gift	-10.4313
▁task	-10.4315
▁1966	-10.4316
▁expression	-10.4322
▁earn	-10.4325
▁logo	-10.4325
▁followers	-10.4326
▁expected	-10.4326
▁(3	-10.4329
▁plains	-10.4329
▁yo	-10.4331
▁rat	-10.4358
▁cows	-10.4359
63	-10.4362
▁beer	-10.4364
51	-10.4372
▁directed	-10.4373
inter	-10.438
▁charged	-10.4386
type	-10.4387
▁gardens	-10.4391
aya	-10.4399
mino	-10.4403
▁decades	-10.4405
04	-10.4406
▁finish	-10.4409
▁mile	-10.4411
▁represented	-10.4416
▁14,	-10.4421
len	-10.4423
▁crown	-10.4432
▁dan	-10.4432
ister	-10.4433
take	-10.4454
britannica	-10.4459
▁complicated	-10.4459
▁criminal	-10.4459
▁decrease	-10.4459
▁kidney	-10.4459
▁mandarin	-10.4459
▁medication	-10.4459
▁quarter	-10.4459
▁trouble	-10.4459
▁flavor	-10.4459
▁1961	-10.4459
▁vocal	-10.4459
▁toronto	-10.4459
▁stress	-10.4459
▁spacecraft	-10.446
▁structures	-10.446
▁phase	-10.4461
▁galileo	-10.4462
▁approximately	-10.4463
gel	-10.4466
▁feeling	-10.4467
▁rap	-10.4467
bre	-10.4473
▁maps	-10.4476
▁greatly	-10.4476
▁organizations	-10.448
▁nude	-10.448
▁pl	-10.4481
▁overall	-10.4484
▁villages	-10.4484
▁45	-10.4498
▁copy	-10.4503
▁survived	-10.4503
▁bonds	-10.4507
49	-10.451
84	-10.4512
▁models	-10.452
▁ban	-10.4521
about	-10.4528
ula	-10.4532
▁romanian	-10.4537
▁signal	-10.4539
▁melt	-10.4554
ik	-10.4557
▁differently	-10.4561
06	-10.4561
eo	-10.4578
▁compare	-10.4578
dale	-10.458
▁phone	-10.4582
▁jump	-10.4584
▁divorce	-10.4585
?"	-10.4587
▁7,	-10.4599
▁rulers	-10.4605
▁10,	-10.4605
▁1948	-10.4608
▁inspired	-10.4608
▁manchester	-10.4608
▁armies	-10.461
▁relations	-10.4611
▁nick	-10.4616
▁150	-10.4623
▁hotel	-10.4628
▁plural	-10.4635
▁philippines	-10.4641
▁(17	-10.4643
▁popularity	-10.4645
ites	-10.4651
▁attempts	-10.4658
▁inner	-10.4659
▁decision	-10.466
nny	-10.4682
▁dialects	-10.4688
bus	-10.4696
▁sn	-10.4701
▁battles	-10.4702
▁drop	-10.4716
ita	-10.4717
tions	-10.4724
▁lithuania	-10.4727
▁hat	-10.4735
▁capture	-10.4736
▁bus	-10.4745
ele	-10.4749
god	-10.4752
duced	-10.4753
bl	-10.4754
▁dictator	-10.4759
▁alabama	-10.476
▁judaism	-10.476
▁monument	-10.476
▁thirteen	-10.476
▁chamber	-10.476
▁labor	-10.476
▁decline	-10.476
▁tongue	-10.476
▁golf	-10.4761
▁1962	-10.4762
▁dragon	-10.4763
▁regime	-10.4763
▁baltic	-10.4764
▁1918	-10.4765
▁municipalities	-10.4767
▁titles	-10.4767
▁leg	-10.4768
▁kong	-10.4769
▁essen	-10.477
▁isotopes	-10.477
▁messages	-10.477
▁everyday	-10.4772
▁interaction	-10.4778
▁grows	-10.478
▁teach	-10.4781
▁boot	-10.4784
love	-10.4792
dimensional	-10.4794
▁ranked	-10.4796
part	-10.4797
▁von	-10.4797
▁70	-10.4803
▁shoot	-10.4804
ella	-10.4807
▁sang	-10.4808
▁streets	-10.4812
▁decade	-10.4817
▁damaged	-10.4817
▁cloud	-10.4817
▁formation	-10.4822
▁egyptian	-10.4824
▁clubs	-10.4825
▁characteristics	-10.4829
▁23,	-10.483
largest	-10.4831
▁seeing	-10.4851
31	-10.4856
nie	-10.4857
▁bl	-10.4861
▁loved	-10.4877
▁distinct	-10.4905
▁rank	-10.4906
var	-10.491
▁1946	-10.4914
▁cylinder	-10.4914
▁impact	-10.4914
▁numeral	-10.4914
▁survey	-10.4914
▁czech	-10.4914
▁abbey	-10.4914
▁medium	-10.4914
▁worse	-10.4914
▁truck	-10.4914
▁settlement	-10.4915
▁frogs	-10.4916
▁kim	-10.4917
▁lens	-10.4918
▁corn	-10.4918
▁pink	-10.4922
▁crystal	-10.4926
1.	-10.4929
▁defence	-10.493
mann	-10.4933
hop	-10.4937
▁nutrients	-10.4944
▁coins	-10.4944
▁terr	-10.4947
▁continues	-10.4952
▁earned	-10.4953
▁—	-10.4953
ei	-10.4956
grad	-10.4958
▁coat	-10.4962
mcm	-10.4962
▁walt	-10.4966
▁grade	-10.497
▁museums	-10.4972
▁nest	-10.4972
speaking	-10.4985
script	-10.4985
▁mini	-10.4985
▁trained	-10.4995
▁inches	-10.4997
ms	-10.5005
▁remember	-10.5036
▁ants	-10.5038
▁statement	-10.5039
▁kit	-10.5041
▁par	-10.5048
organ	-10.505
▁tourist	-10.5061
tha	-10.5064
▁bahrain	-10.507
▁florence	-10.507
▁hemingway	-10.507
▁plasma	-10.507
▁populated	-10.507
▁quebec	-10.507
▁tournament	-10.507
▁victim	-10.507
▁cayce	-10.507
▁plague	-10.507
▁rural	-10.507
▁louisiana	-10.507
▁firm	-10.507
▁celebration	-10.5073
▁bor	-10.5073
▁1956	-10.5073
down	-10.5078
▁didn	-10.5078
▁cas	-10.5086
▁entirely	-10.5098
nor	-10.5108
lot	-10.5132
▁elephant	-10.5137
▁priest	-10.5137
ify	-10.5137
▁ride	-10.514
▁studios	-10.5141
▁30,	-10.5145
▁dinosaurs	-10.5145
▁drinking	-10.5161
lle	-10.5163
▁decisions	-10.5174
▁9,	-10.5197
▁individuals	-10.5198
▁cave	-10.5208
▁increases	-10.5212
rat	-10.5217
▁differ	-10.5226
▁behaviour	-10.5229
▁jordan	-10.5229
▁masturbation	-10.5229
▁membrane	-10.5229
▁metaphor	-10.5229
▁psychology	-10.5229
▁pizza	-10.5229
▁tunnel	-10.5229
▁ontario	-10.5229
▁croatia	-10.5229
▁celtic	-10.5229
▁dvd	-10.5229
▁smoke	-10.5229
▁eleven	-10.523
▁severe	-10.523
▁1954	-10.5231
▁blow	-10.5235
▁infinite	-10.5238
▁auto	-10.5239
▁sat	-10.5242
▁philip	-10.5244
▁apply	-10.5246
▁devil	-10.5247
▁grey	-10.5248
▁raw	-10.525
▁romantic	-10.5253
32	-10.5254
▁talks	-10.5257
fish	-10.5267
▁24,	-10.5269
▁counter	-10.5274
▁scholars	-10.5279
▁capitalism	-10.528
what	-10.5284
▁notice	-10.5292
58	-10.5295
▁follows	-10.5297
after	-10.5314
rich	-10.532
▁cru	-10.5321
▁plates	-10.5322
▁angle	-10.5334
▁victor	-10.5336
▁wins	-10.5341
▁express	-10.5343
▁dates	-10.5347
62	-10.5349
▁telling	-10.5358
▁carl	-10.5367
trop	-10.5369
▁sciences	-10.5373
▁determine	-10.5374
▁extinct	-10.5383
▁relationships	-10.5384
▁architect	-10.5386
▁employ	-10.5386
▁ip	-10.5387
▁rival	-10.5389
its	-10.539
▁controversial	-10.539
▁execution	-10.539
▁hurricane	-10.539
▁libraries	-10.539
▁vacuum	-10.539
▁vatican	-10.539
▁wolves	-10.539
▁pencil	-10.539
▁prophet	-10.539
▁mecca	-10.539
▁cornwall	-10.539
▁anchor	-10.5391
▁household	-10.5392
▁review	-10.5392
▁1933	-10.5393
aire	-10.5394
▁crash	-10.5394
▁harry	-10.5394
▁fox	-10.5399
▁stem	-10.54
▁lowest	-10.5402
▁interact	-10.5403
▁technical	-10.5405
▁victory	-10.5406
▁files	-10.5408
▁2001.	-10.5408
▁gein	-10.5409
▁massive	-10.541
▁hungarian	-10.5415
▁mp	-10.5423
▁previously	-10.5427
▁mr	-10.5429
lad	-10.5433
ature	-10.5438
cola	-10.5439
where	-10.5445
▁dome	-10.5454
▁sexually	-10.5456
▁burning	-10.5458
65	-10.5463
▁dialect	-10.5467
point	-10.547
▁predators	-10.5472
▁sim	-10.5483
▁insect	-10.5486
atic	-10.5489
▁mono	-10.5497
ura	-10.5502
ological	-10.5504
mps	-10.5513
▁define	-10.553
▁lip	-10.554
▁mate	-10.5547
▁renam	-10.5549
▁canton	-10.5551
▁rica	-10.5552
▁opponent	-10.5554
▁amsterdam	-10.5554
▁buddhism	-10.5554
▁dictionary	-10.5554
▁hollywood	-10.5554
▁memorial	-10.5554
▁powder	-10.5554
▁proposed	-10.5554
▁syllable	-10.5554
▁uranus	-10.5554
▁volcanic	-10.5554
▁translation	-10.5554
▁dylan	-10.5554
▁utah	-10.5554
▁fault	-10.5554
▁anime	-10.5555
▁occurred	-10.5556
▁balance	-10.5556
▁devon	-10.5556
▁drama	-10.5557
▁eruption	-10.5557
▁justice	-10.5563
▁robin	-10.5564
▁trace	-10.5566
▁battery	-10.5566
▁attached	-10.5566
▁translated	-10.5566
uv	-10.557
▁additional	-10.5571
▁saturday	-10.5572
▁distances	-10.5572
lav	-10.5577
▁none	-10.5591
▁bone	-10.5597
▁pap	-10.5602
▁remaining	-10.5604
▁rob	-10.5605
▁ir	-10.5607
▁29,	-10.5607
gle	-10.5619
▁sharks	-10.5621
lum	-10.5622
▁featur	-10.5625
▁apples	-10.5628
▁burned	-10.5628
ois	-10.5629
▁claims	-10.5631
▁alba	-10.5631
▁programme	-10.5633
▁--	-10.5634
style	-10.5635
▁enzyme	-10.5636
▁patient	-10.5637
▁patients	-10.5638
power	-10.5638
▁cartoon	-10.564
▁americas	-10.5648
but	-10.5652
ric	-10.5652
▁commission	-10.5657
▁;	-10.5659
▁weigh	-10.5664
▁pra	-10.5666
▁spy	-10.567
eck	-10.5679
▁meanings	-10.568
▁liquids	-10.5683
▁2005.	-10.5689
▁2009.	-10.5694
34	-10.5697
▁topics	-10.5701
▁format	-10.5709
▁historic	-10.5709
del	-10.5712
▁rapid	-10.5713
▁hip	-10.572
▁edinburgh	-10.5721
▁explanation	-10.5721
▁fundamental	-10.5721
▁labour	-10.5721
▁penalty	-10.5721
▁potassium	-10.5721
▁purple	-10.5721
▁traffic	-10.5721
▁ultraviolet	-10.5721
▁committee	-10.5721
▁nomination	-10.5721
▁statistics	-10.5721
▁switch	-10.5721
▁column	-10.5721
▁harvest	-10.5721
▁stretch	-10.5721
▁creative	-10.5721
▁mythology	-10.5721
▁rainfall	-10.5722
▁punishment	-10.5722
▁fungi	-10.5722
▁shift	-10.5722
▁knight	-10.5723
▁fleet	-10.5726
▁sunlight	-10.5726
▁birthday	-10.5726
▁bridges	-10.5731
▁succeeded	-10.5734
▁reality	-10.5739
▁observed	-10.5741
▁researchers	-10.5742
pen	-10.5742
▁socialism	-10.5743
▁proved	-10.5743
▁calling	-10.5746
▁armed	-10.5757
▁frame	-10.576
▁harm	-10.576
▁pronounced	-10.5763
▁rid	-10.5764
cher	-10.5767
▁broadcasting	-10.5775
zh	-10.5776
▁combine	-10.5783
▁painted	-10.5789
▁stones	-10.5804
national	-10.5812
▁roger	-10.5814
▁photon	-10.5817
ram	-10.583
▁drawing	-10.5849
▁happening	-10.5853
▁abortions	-10.5858
game	-10.5859
▁bombs	-10.5859
▁gal	-10.5875
▁owners	-10.588
bury	-10.5886
▁diabetes	-10.589
▁ecuador	-10.589
▁journey	-10.589
▁munich	-10.589
▁permission	-10.589
▁amazon	-10.589
▁description	-10.589
▁ethics	-10.589
▁oxford	-10.5891
▁besides	-10.5893
▁2022	-10.5894
▁trademark	-10.5894
▁cm	-10.5894
▁hong	-10.5897
▁pound	-10.5899
▁26,	-10.5903
▁bee	-10.5905
▁civilian	-10.5906
stein	-10.5908
▁adapted	-10.5914
▁tracks	-10.5915
▁suffering	-10.592
▁wiki	-10.592
▁filled	-10.5925
▁ill	-10.595
city	-10.5951
oma	-10.5956
▁vision	-10.5956
▁bombing	-10.5956
▁mongol	-10.5957
▁poems	-10.5959
ich	-10.5961
▁lions	-10.5962
▁lock	-10.5968
▁flying	-10.5968
shaped	-10.5977
great	-10.5978
▁texts	-10.5981
aries	-10.5983
▁scientist	-10.5986
▁reference	-10.5988
▁root	-10.5991
chu	-10.6002
▁signals	-10.6009
maker	-10.6009
▁col	-10.6009
▁pur	-10.6012
▁determin	-10.6018
▁22,	-10.6018
▁standards	-10.6019
▁graphics	-10.6021
ough	-10.6029
▁clocks	-10.6034
▁sheet	-10.6036
ule	-10.6036
▁divide	-10.6039
▁telescopes	-10.6048
▁usual	-10.6049
▁exact	-10.605
▁edit	-10.606
▁fan	-10.6061
▁swim	-10.6063
▁equipment	-10.6063
▁jefferson	-10.6063
▁lesbian	-10.6063
▁sabbath	-10.6063
▁vancouver	-10.6063
▁integrat	-10.6063
▁truman	-10.6063
▁otherwise	-10.6063
▁alaska	-10.6063
▁accent	-10.6063
▁angry	-10.6063
▁keyboard	-10.6064
▁lawyer	-10.6064
▁random	-10.6064
▁1952	-10.6065
▁1939	-10.6066
▁tallest	-10.6067
▁pigs	-10.607
▁plus	-10.607
▁terrorist	-10.607
▁roughly	-10.6074
▁positions	-10.6081
▁hindus	-10.6085
ace	-10.6085
▁offices	-10.6086
▁observer	-10.609
▁(4	-10.6097
▁shooting	-10.6101
kar	-10.6109
▁reed	-10.6112
▁processes	-10.6115
▁starch	-10.6115
▁traditionally	-10.6118
▁hor	-10.612
▁cooked	-10.612
▁offered	-10.6122
▁horn	-10.6122
ilia	-10.613
▁input	-10.6131
via	-10.6132
▁calculat	-10.614
▁pat	-10.615
far	-10.6155
give	-10.6157
▁meal	-10.6159
phone	-10.6159
hoe	-10.6168
▁losing	-10.6171
▁parent	-10.6172
▁paintings	-10.6173
▁founder	-10.6174
▁prefecture	-10.6174
▁fired	-10.6187
cel	-10.6188
▁deaths	-10.6194
▁via	-10.6195
▁quarks	-10.62
▁turtles	-10.62
▁tom	-10.6201
osis	-10.6202
▁electro	-10.6204
▁holding	-10.6205
";	-10.6205
cir	-10.6213
izing	-10.622
fire	-10.6228
lice	-10.623
▁advantage	-10.6238
▁communicate	-10.6238
▁conference	-10.6238
▁decimal	-10.6238
▁equator	-10.6238
▁intercourse	-10.6238
▁lyrics	-10.6238
▁policies	-10.6238
▁rommel	-10.6238
▁eagle	-10.6238
▁sample	-10.6238
▁embryo	-10.6238
▁compete	-10.6238
▁traits	-10.6238
▁resistance	-10.6239
▁danish	-10.624
▁1959	-10.6241
▁fill	-10.6242
▁lift	-10.6243
▁kick	-10.6247
▁container	-10.6248
zu	-10.625
▁romance	-10.6254
▁sahara	-10.6254
▁sing	-10.6267
mario	-10.6284
▁arm	-10.6286
▁21,	-10.6287
▁bits	-10.6295
▁experiences	-10.6298
▁votes	-10.6301
lay	-10.6315
main	-10.6317
▁25,	-10.6317
putting	-10.6322
▁bag	-10.6328
including	-10.6332
ora	-10.6335
cat	-10.6335
▁opinion	-10.6344
▁dollar	-10.6344
▁shark	-10.6347
▁cameras	-10.6351
▁poem	-10.6353
▁prove	-10.6356
▁colleges	-10.6358
▁tune	-10.6359
29	-10.6365
▁toward	-10.6369
▁hope	-10.637
wer	-10.6383
%)	-10.6392
▁wealth	-10.6401
graph	-10.6409
▁rus	-10.6411
▁coup	-10.6413
▁las	-10.6415
▁bolivia	-10.6417
▁cambodia	-10.6417
▁celsius	-10.6417
▁fantasy	-10.6417
▁intelligence	-10.6417
▁margaret	-10.6417
▁norwegian	-10.6417
▁practical	-10.6417
▁taylor	-10.6417
▁chloride	-10.6417
▁rebellion	-10.6417
▁smell	-10.6417
▁silk	-10.6417
▁vapor	-10.6417
▁bruce	-10.6417
▁kenya	-10.6417
ghost	-10.6417
▁glands	-10.6417
▁caught	-10.6418
▁mormon	-10.6418
▁1936	-10.6418
▁honey	-10.6419
▁index	-10.6419
▁plateau	-10.6419
▁marx	-10.6421
▁minority	-10.6421
boy	-10.6422
▁guest	-10.6422
▁gross	-10.6423
▁unix	-10.6423
▁executed	-10.6425
▁jail	-10.6426
▁rhythm	-10.6428
▁retired	-10.6429
ox	-10.6432
▁promised	-10.644
▁mild	-10.6444
▁regularly	-10.6445
▁winning	-10.6449
▁dig	-10.645
some	-10.6455
una	-10.6459
▁fashion	-10.646
ae	-10.647
▁suggest	-10.6475
▁tel	-10.6478
▁seventh	-10.648
▁catholics	-10.6485
las	-10.6485
▁vertebrates	-10.6489
300	-10.6492
▁wo	-10.6493
▁dense	-10.6493
▁nose	-10.6503
bru	-10.6504
▁medicines	-10.6508
▁ready	-10.6515
bad	-10.6515
▁hunter	-10.6516
3,000	-10.6517
high	-10.6519
tric	-10.6524
▁sets	-10.6524
▁germanic	-10.6527
▁goals	-10.6535
▁tribe	-10.6535
▁mode	-10.6544
▁bern	-10.6547
▁standing	-10.6548
▁homes	-10.6551
position	-10.6553
▁bang	-10.6554
52	-10.6566
mond	-10.6567
gram	-10.6571
▁spell	-10.6571
▁drum	-10.6575
agn	-10.6578
onym	-10.6579
▁customer	-10.6583
▁rec	-10.6591
▁sentences	-10.6592
▁1,000	-10.6592
▁belarus	-10.6596
▁meteor	-10.6598
▁beijing	-10.6598
▁concentration	-10.6598
▁jerusalem	-10.6598
▁kubrick	-10.6598
▁sausage	-10.6598
▁ukrainian	-10.6598
▁zimbabwe	-10.6598
▁snake	-10.6598
▁shoes	-10.6599
▁reproduction	-10.6599
▁trump	-10.6599
▁danger	-10.6599
derived	-10.6599
▁anthem	-10.66
▁westminster	-10.66
▁slope	-10.6601
▁1958	-10.6601
▁1942	-10.6601
▁elder	-10.6604
▁booth	-10.6605
▁renaissance	-10.6607
▁somalia	-10.6608
▁domain	-10.6609
▁liter	-10.6614
▁everton	-10.6616
▁update	-10.6618
▁communists	-10.6619
_	-10.6625
▁relie	-10.6629
▁guitarist	-10.663
▁continents	-10.663
▁officers	-10.6636
▁2008.	-10.6636
tag	-10.6641
▁lion	-10.6641
▁melting	-10.6643
54	-10.6661
▁calls	-10.6664
▁interesting	-10.6669
-20	-10.6675
▁13,	-10.6679
pot	-10.6682
orn	-10.6684
▁sur	-10.6687
▁2004.	-10.6693
▁gro	-10.6694
carbon	-10.6699
black	-10.6699
▁strongly	-10.6699
count	-10.6701
when	-10.6702
selling	-10.6702
▁carrying	-10.6703
▁travell	-10.6707
▁corner	-10.6719
▁jean	-10.6723
▁flu	-10.673
sol	-10.6731
▁por	-10.6732
▁pets	-10.6738
ima	-10.6742
▁patterns	-10.6749
▁finger	-10.6749
▁cape	-10.6758
▁promise	-10.676
▁dies	-10.6765
▁myth	-10.677
▁advertising	-10.6784
▁athletic	-10.6784
▁bonsai	-10.6784
▁exponent	-10.6784
▁firefox	-10.6784
▁hobbes	-10.6784
▁identify	-10.6784
▁rainbow	-10.6784
▁vegetarian	-10.6784
▁wikipedia	-10.6784
▁feminist	-10.6784
▁google	-10.6784
▁afraid	-10.6784
▁affair	-10.6784
▁dropped	-10.6784
▁holland	-10.6784
▁latvia	-10.6784
▁banned	-10.6784
▁amphibians	-10.6785
▁wilson	-10.6785
▁diverse	-10.6785
▁federation	-10.6786
▁classified	-10.6786
▁blindness	-10.6787
▁1917	-10.6788
▁emergency	-10.679
▁restaurants	-10.6792
▁operations	-10.6793
▁habitat	-10.6793
▁confirmed	-10.6794
▁properly	-10.6803
very	-10.6814
▁crew	-10.6823
▁beef	-10.6828
ini	-10.6831
metric	-10.684
2,	-10.6867
▁sons	-10.687
▁genetics	-10.6879
▁seed	-10.6879
▁lets	-10.688
▁homer	-10.6881
night	-10.6883
his	-10.6887
aging	-10.6887
ock	-10.6893
exp	-10.6895
trans	-10.6899
▁vaccine	-10.6911
▁vehicle	-10.6911
▁weapon	-10.6912
▁rooms	-10.6917
▁engineer	-10.6919
▁stops	-10.6923
▁courts	-10.6924
▁8,	-10.6927
▁ms	-10.6928
oh	-10.6934
wn	-10.6938
▁steve	-10.6943
▁dispute	-10.6948
▁periods	-10.695
▁pointed	-10.6955
▁sisters	-10.6966
▁alzheimer	-10.6972
▁barcelona	-10.6972
▁bicycle	-10.6972
▁buddhist	-10.6972
▁cannabis	-10.6972
▁ferdinand	-10.6972
▁frodo	-10.6972
▁measuring	-10.6972
▁poverty	-10.6972
▁residents	-10.6972
▁societies	-10.6972
▁supplies	-10.6972
▁swedish	-10.6972
▁swiss	-10.6972
▁vampire	-10.6972
▁1905	-10.6972
▁latter	-10.6972
▁sudan	-10.6972
▁obama	-10.6973
▁rebel	-10.6973
▁friday	-10.6973
▁isaac	-10.6973
▁committed	-10.6974
▁categories	-10.6974
▁greenhouse	-10.6974
burn	-10.6974
▁pagan	-10.6975
run	-10.6977
▁acted	-10.698
▁rico	-10.6983
▁agents	-10.6984
▁classic	-10.6984
▁marxist	-10.6984
▁rail	-10.6986
▁expanded	-10.6998
▁pol	-10.6999
76	-10.7002
▁oat	-10.7002
▁cow	-10.7003
▁maria	-10.7007
▁shops	-10.701
▁dur	-10.7012
▁demon	-10.7015
▁pea	-10.7018
▁drinks	-10.7022
▁leads	-10.7022
▁improved	-10.7022
▁stages	-10.7034
4,000	-10.7037
▁milky	-10.7038
▁malay	-10.7044
▁angels	-10.705
▁cuban	-10.706
▁supporting	-10.706
▁badly	-10.7061
▁queens	-10.7063
▁driver	-10.7063
▁ono	-10.7068
nglo	-10.7069
▁serfs	-10.7073
▁figures	-10.7074
number	-10.708
▁cro	-10.708
mother	-10.7093
▁thor	-10.7095
right	-10.7096
▁festivals	-10.7099
▁bowl	-10.7105
box	-10.7105
▁adjective	-10.7106
▁breaking	-10.7107
▁neuro	-10.7117
▁fri	-10.7148
sky	-10.7152
▁observations	-10.7153
▁/	-10.7155
long	-10.7156
▁rh	-10.7161
late	-10.7163
▁advertise	-10.7165
▁cholera	-10.7165
▁destruction	-10.7165
▁guilty	-10.7165
▁respond	-10.7165
▁thirty	-10.7165
▁trojan	-10.7165
▁cuisine	-10.7165
▁explosion	-10.7165
▁madrid	-10.7165
▁servant	-10.7165
▁warfare	-10.7165
▁audio	-10.7165
▁karl	-10.7165
▁iowa	-10.7165
▁bow	-10.7166
▁contest	-10.7166
▁minh	-10.7167
▁samoa	-10.7168
▁varies	-10.7168
▁peaceful	-10.7169
▁mendel	-10.7169
▁meets	-10.717
saxon	-10.717
▁anymore	-10.7171
rou	-10.7173
big	-10.7175
▁lisa	-10.7176
▁revealed	-10.7183
▁teachings	-10.7183
▁rna	-10.7183
▁arrested	-10.7188
▁measures	-10.719
▁opposed	-10.7191
▁ft	-10.7195
▁tip	-10.7195
▁tin	-10.7196
▁resigned	-10.7197
▁salamanders	-10.7197
duction	-10.72
▁towers	-10.7204
án	-10.7206
▁pitch	-10.7207
▁sphere	-10.7222
:00	-10.7232
fo	-10.7232
phil	-10.7232
▁determined	-10.7234
nne	-10.7234
▁eric	-10.7252
▁writings	-10.7253
▁seal	-10.7262
ddle	-10.7267
wake	-10.7274
▁2013.	-10.7279
▁harbor	-10.7285
▁ranges	-10.7286
▁suffer	-10.729
uff	-10.7295
_4	-10.73
bol	-10.7302
▁feelings	-10.7304
▁alloy	-10.7307
▁dimensions	-10.7309
▁(16	-10.731
▁episodes	-10.7314
ink	-10.7319
▁install	-10.7325
▁orders	-10.7334
▁sony	-10.7335
▁(10	-10.7336
▁fix	-10.734
▁commit	-10.736
▁acceleration	-10.7361
▁agricultural	-10.7361
▁arkansas	-10.7361
▁concrete	-10.7361
▁diagnosed	-10.7361
▁laboratory	-10.7361
▁mechanical	-10.7361
▁numerous	-10.7361
▁penguin	-10.7361
▁impossible	-10.7361
▁laozi	-10.7361
▁nelson	-10.7361
▁sacred	-10.7361
▁stroke	-10.7361
▁bottle	-10.7361
▁daniel	-10.7361
▁allende	-10.7361
▁trust	-10.7361
▁depth	-10.7361
▁genre	-10.7362
▁afterwards	-10.7362
▁derby	-10.7362
▁ussr	-10.7363
▁momentum	-10.7364
▁ruling	-10.7365
▁leadership	-10.7365
▁injury	-10.7366
▁passage	-10.7366
▁controller	-10.7372
▁tar	-10.7373
▁pairs	-10.7375
▁teenager	-10.7378
action	-10.7385
▁hide	-10.7387
▁profit	-10.7389
▁alter	-10.739
▁carol	-10.7391
▁lifetime	-10.7391
▁suffered	-10.7397
▁titan	-10.7399
▁remembered	-10.7407
▁officials	-10.741
08	-10.7411
▁ingredients	-10.7414
▁kha	-10.7415
▁bees	-10.7419
▁limits	-10.7422
▁printing	-10.7425
▁enjoyed	-10.7427
▁pushed	-10.7433
▁collected	-10.7439
tel	-10.7446
body	-10.7448
▁orbits	-10.7459
▁enzymes	-10.7461
real	-10.7472
▁novels	-10.7472
world	-10.7476
▁departments	-10.7477
band	-10.7481
south	-10.7498
▁continu	-10.7499
though	-10.7499
iz	-10.7501
▁epi	-10.7505
▁disorders	-10.7507
cess	-10.7509
▁breast	-10.7511
▁practices	-10.7514
▁athletes	-10.7517
roll	-10.7518
▁soldier	-10.7518
ways	-10.7524
pul	-10.7525
▁components	-10.7533
▁dar	-10.754
▁quick	-10.7548
▁cheap	-10.7549
▁horizon	-10.756
▁academic	-10.7561
▁chopsticks	-10.7561
▁encyclopedia	-10.7561
▁extension	-10.7561
▁legacy	-10.7561
▁pronunciation	-10.7561
▁venezuela	-10.7561
▁vladimir	-10.7561
▁detroit	-10.7561
▁register	-10.7561
▁respectively	-10.7561
▁swimming	-10.7561
▁analysis	-10.7561
▁estonia	-10.7561
▁voting	-10.7561
▁alliance	-10.7561
ue	-10.7562
▁importance	-10.7562
▁criticism	-10.7562
▁1943	-10.7564
▁diesel	-10.7565
▁norman	-10.7566
▁jim	-10.757
▁inherited	-10.7578
▁mines	-10.758
▁operate	-10.758
▁realized	-10.7585
▁documents	-10.7585
eng	-10.7586
range	-10.7589
▁probe	-10.7595
▁institutions	-10.7595
▁33	-10.7598
▁pill	-10.7599
room	-10.7602
▁knows	-10.7605
▁95	-10.7606
▁comets	-10.7616
▁lamp	-10.7618
▁ruin	-10.7619
gam	-10.7621
▁charges	-10.7622
▁tooth	-10.7629
▁steps	-10.7629
▁chips	-10.7629
▁writes	-10.7632
▁mao	-10.7634
▁bid	-10.7635
gate	-10.764
cast	-10.7643
▁macedonia	-10.7645
▁prefectures	-10.7648
▁tam	-10.7654
iest	-10.7657
▁warmer	-10.766
▁helping	-10.7667
▁exception	-10.7671
▁physicists	-10.7673
class	-10.7679
white	-10.768
father	-10.7685
▁pale	-10.7686
▁affects	-10.7689
german	-10.7695
zy	-10.7695
▁mathematician	-10.7718
▁select	-10.7725
rib	-10.7726
▁launch	-10.7729
▁invit	-10.7731
▁details	-10.7732
▁factor	-10.7735
▁forming	-10.7739
▁argue	-10.7742
bird	-10.7743
▁51	-10.7757
gio	-10.7758
gnostic	-10.776
▁christopher	-10.7765
▁corporation	-10.7765
▁distinguish	-10.7765
▁libertarian	-10.7765
▁petroleum	-10.7765
▁submarine	-10.7765
▁sequel	-10.7765
▁trunk	-10.7765
▁disaster	-10.7765
▁eurasia	-10.7765
▁serving	-10.7765
▁essential	-10.7765
▁overthrow	-10.7765
▁orleans	-10.7765
▁strict	-10.7765
▁agency	-10.7765
▁gospel	-10.7765
▁hollow	-10.7765
▁genus	-10.7765
▁gdp	-10.7765
▁smart	-10.7765
▁prague	-10.7765
▁pluto	-10.7765
▁creator	-10.7766
▁drummer	-10.7766
▁landscape	-10.7766
▁washing	-10.7768
▁1928	-10.7768
scribe	-10.7768
▁management	-10.7769
▁percentage	-10.777
▁fastest	-10.7771
▁lemon	-10.7773
▁chest	-10.7776
▁greenland	-10.7778
▁hired	-10.7779
▁capitalist	-10.7781
▁starr	-10.7786
▁eighth	-10.7788
▁argued	-10.7789
▁governed	-10.7794
▁wing	-10.7794
▁aztecs	-10.7795
▁historically	-10.7797
▁shore	-10.7798
▁storm	-10.7799
▁basin	-10.7802
▁atheist	-10.7812
even	-10.7817
gla	-10.7822
▁rough	-10.7823
▁saved	-10.7829
▁corr	-10.7832
▁facts	-10.7835
▁breaks	-10.7846
bling	-10.7859
hard	-10.7872
lute	-10.7887
▁bce	-10.7894
41	-10.7899
▁aged	-10.7904
▁naturally	-10.7908
▁28,	-10.7908
ller	-10.7912
▁critics	-10.7914
enne	-10.7919
▁joint	-10.792
key	-10.7925
▁pray	-10.7926
▁originat	-10.7932
▁reproduce	-10.7934
▁repeat	-10.7937
▁shop	-10.7937
▁generate	-10.7949
▁tank	-10.7951
▁possibl	-10.7958
▁27,	-10.7961
term	-10.7964
quin	-10.7964
hra	-10.7969
borough	-10.7969
▁progress	-10.797
▁equivalent	-10.7973
▁identified	-10.7973
▁kyoto	-10.7973
▁maximum	-10.7973
▁occupation	-10.7973
▁swallow	-10.7973
▁tunisia	-10.7973
▁wimbledon	-10.7973
▁empty	-10.7973
▁heterosexual	-10.7973
▁purchase	-10.7973
▁nancy	-10.7973
▁uefa	-10.7973
▁shield	-10.7973
▁loyal	-10.7973
▁bavaria	-10.7973
▁railroad	-10.7973
▁bankruptcy	-10.7973
▁opposition	-10.7974
▁neighborhood	-10.7974
▁interface	-10.7974
▁rubber	-10.7974
▁turkish	-10.7974
▁crush	-10.7975
▁graphite	-10.7975
▁patent	-10.7975
▁atheism	-10.7976
▁franklin	-10.7976
matic	-10.7976
▁1922	-10.7976
▁1955	-10.7977
▁politicians	-10.7977
▁yorkshire	-10.7977
▁milan	-10.7978
▁comment	-10.7978
▁1919	-10.7979
▁ancestry	-10.7979
▁nemo	-10.798
▁neighbour	-10.7983
▁frequently	-10.7984
▁dirt	-10.7984
▁1890	-10.7984
▁germ	-10.7985
pod	-10.7985
▁personality	-10.7988
▁producing	-10.7991
▁behave	-10.7992
▁setting	-10.7993
▁matches	-10.7994
▁butter	-10.7996
▁conductor	-10.7998
▁kent	-10.8003
▁airports	-10.8009
▁measurements	-10.801
▁selected	-10.8012
▁pokémon	-10.8014
▁tense	-10.8026
▁performing	-10.8037
ility	-10.8043
-1	-10.8046
02	-10.805
▁successfully	-10.8053
▁ox	-10.8057
▁prices	-10.8059
ular	-10.8071
▁walking	-10.8072
▁cartoons	-10.8076
▁beans	-10.8081
▁earl	-10.8089
▁comet	-10.8093
▁angles	-10.81
two	-10.8101
second	-10.8101
▁vessels	-10.8112
keep	-10.8114
▁sail	-10.812
ew	-10.8131
▁48	-10.8131
▁democrat	-10.8142
▁institution	-10.8149
▁hormone	-10.815
▁vegetable	-10.815
▁cloth	-10.8156
▁collapse	-10.8162
ban	-10.8167
▁potter	-10.8175
▁bou	-10.8176
story	-10.8183
lock	-10.8183
▁sovereign	-10.8184
▁diagnosis	-10.8186
▁düsseldorf	-10.8186
▁eisenhower	-10.8186
▁expansion	-10.8186
▁graduated	-10.8186
▁kuwait	-10.8186
▁nevada	-10.8186
▁platform	-10.8186
▁pornography	-10.8186
▁reptiles	-10.8186
▁widespread	-10.8186
▁assistant	-10.8186
▁fourteen	-10.8186
▁sector	-10.8186
▁comedian	-10.8186
▁inventor	-10.8186
▁composition	-10.8186
▁shock	-10.8186
▁tennis	-10.8187
▁1957	-10.819
▁1937	-10.819
▁anywhere	-10.8192
▁batman	-10.8192
▁officer	-10.8193
▁coastline	-10.8194
▁domini	-10.8197
mble	-10.8199
▁farther	-10.8199
▁1600	-10.8199
▁autonomous	-10.8202
▁concerts	-10.8207
rang	-10.821
▁diamonds	-10.8212
▁1500	-10.8212
▁presented	-10.8212
▁achieved	-10.8217
▁authors	-10.8231
▁environmental	-10.8231
bir	-10.8232
hen	-10.8235
▁polar	-10.8238
they	-10.824
▁breeding	-10.8242
▁newly	-10.8251
▁marks	-10.8253
▁coin	-10.8261
▁hatch	-10.8268
▁neo	-10.8269
▁bet	-10.8274
▁voyage	-10.8292
hot	-10.8295
":	-10.8309
▁reache	-10.8327
test	-10.8327
person	-10.8327
lude	-10.833
▁shak	-10.8332
▁kingdoms	-10.8334
▁poles	-10.834
santa	-10.8344
▁sega	-10.8346
▁worker	-10.8349
▁summers	-10.8356
▁deposit	-10.8357
▁extend	-10.8367
▁adopt	-10.8368
▁aztec	-10.8371
▁der	-10.8371
▁citizen	-10.8372
▁whale	-10.8372
▁passengers	-10.8373
come	-10.8377
▁output	-10.8378
▁chip	-10.8385
hur	-10.8385
▁johann	-10.8394
pop	-10.8395
pass	-10.8398
▁chemist	-10.8401
▁brooklyn	-10.8403
▁clapton	-10.8403
▁jaguar	-10.8403
▁patrick	-10.8403
▁shakespeare	-10.8403
▁tennessee	-10.8403
▁activist	-10.8403
▁chapter	-10.8403
▁heavier	-10.8403
▁salvador	-10.8403
▁atlanta	-10.8403
▁pepper	-10.8403
▁lewis	-10.8403
▁chalk	-10.8403
▁drain	-10.8403
▁madison	-10.8403
▁microscope	-10.8403
▁integer	-10.8404
▁context	-10.8404
▁analog	-10.8404
▁signature	-10.8404
▁fetus	-10.8404
▁horizontal	-10.8404
▁pilot	-10.8405
▁respiration	-10.8405
▁nails	-10.8405
▁monday	-10.8406
ht	-10.8406
▁watt	-10.8407
▁trick	-10.841
▁prior	-10.841
▁mustang	-10.8411
▁pump	-10.8411
▁exile	-10.8412
▁camps	-10.8413
▁gang	-10.8415
▁revolutionary	-10.8415
▁nerves	-10.8424
▁nile	-10.8432
▁traveling	-10.8435
▁turk	-10.8437
▁steven	-10.844
▁tanks	-10.8447
▁songwriter	-10.845
▁riding	-10.845
▁teachers	-10.8455
hang	-10.8456
▁sti	-10.8459
▁experienced	-10.8481
▁doesn	-10.8482
▁infections	-10.8487
7,	-10.8492
▁dolphins	-10.8514
ira	-10.8523
▁gather	-10.8527
mont	-10.8532
▁aspects	-10.8537
▁experimental	-10.8538
▁deserts	-10.8538
sometimes	-10.8541
first	-10.8541
tended	-10.8542
▁definitions	-10.8544
▁egyptians	-10.8544
fall	-10.8561
▁treatments	-10.8566
▁testing	-10.8568
homo	-10.8576
▁concern	-10.8589
▁slo	-10.8589
▁ido	-10.8591
▁diamond	-10.8598
▁banana	-10.8599
rill	-10.86
▁dissolve	-10.8601
▁mammal	-10.8602
▁freeze	-10.8612
▁(5	-10.8616
stock	-10.8617
▁olive	-10.8618
▁cabinet	-10.8625
▁calculus	-10.8625
▁douglas	-10.8625
▁gradually	-10.8625
▁harbour	-10.8625
▁heavily	-10.8625
▁kentucky	-10.8625
▁kilogram	-10.8625
▁oxidation	-10.8625
▁preserve	-10.8625
▁ulcer	-10.8625
▁diversity	-10.8625
▁beauty	-10.8625
▁guild	-10.8626
▁belize	-10.8626
▁serfdom	-10.8626
▁descent	-10.8626
▁thames	-10.8626
▁fraction	-10.8626
▁occasionally	-10.8626
▁talent	-10.8626
▁mega	-10.8627
▁bisexual	-10.8627
▁biography	-10.8627
▁hamlet	-10.8627
▁polymer	-10.8628
▁loose	-10.8628
▁cider	-10.8628
▁sushi	-10.8628
▁package	-10.8629
▁domesticated	-10.8629
▁motown	-10.8629
▁bros	-10.863
▁straw	-10.8631
▁trail	-10.8631
▁1910	-10.8635
▁strait	-10.8635
▁cutting	-10.8636
▁accused	-10.8643
▁reforms	-10.8654
▁khan	-10.8654
▁icon	-10.8659
▁links	-10.8661
▁designs	-10.8669
▁emotional	-10.8669
▁candle	-10.8673
▁clearly	-10.8676
table	-10.8689
later	-10.8693
▁pin	-10.8696
▁flame	-10.87
▁myths	-10.8705
▁educational	-10.8707
▁reduced	-10.8718
▁emotions	-10.8729
▁bases	-10.873
▁forever	-10.8762
▁shares	-10.8763
vision	-10.8768
good	-10.8768
▁sale	-10.8775
▁load	-10.8778
lord	-10.8779
▁daughters	-10.8785
▁airplanes	-10.8798
ient	-10.8808
may	-10.8829
▁nerve	-10.8831
▁ancestors	-10.8833
▁jan	-10.8833
▁achieve	-10.8834
▁notation	-10.8837
▁batter	-10.8841
▁curve	-10.8842
▁crop	-10.8843
▁favor	-10.8851
▁blacksmith	-10.8853
▁complications	-10.8853
▁decoration	-10.8853
▁dedicated	-10.8853
▁demographics	-10.8853
▁doubt	-10.8853
▁fifteen	-10.8853
▁hobbit	-10.8853
▁leicester	-10.8853
▁participate	-10.8853
▁resolution	-10.8853
▁temporary	-10.8853
▁dominant	-10.8853
▁uterus	-10.8853
▁repair	-10.8853
▁distant	-10.8853
▁copied	-10.8853
▁inflation	-10.8853
▁digits	-10.8853
▁interview	-10.8853
▁pad	-10.8857
▁mature	-10.8857
▁hospitals	-10.8857
▁homosexuality	-10.8858
▁1921	-10.8858
▁1912	-10.8858
▁witnesses	-10.886
▁wore	-10.8861
imp	-10.8861
▁transition	-10.8861
▁autumn	-10.8866
▁injured	-10.8866
▁100,000	-10.8868
▁meetings	-10.887
▁rush	-10.8871
▁proton	-10.8871
▁mau	-10.8872
ski	-10.8874
▁walter	-10.8876
▁breathing	-10.8876
▁infected	-10.8885
▁pri	-10.8886
▁html	-10.8887
▁zones	-10.8895
pm	-10.8895
▁fran	-10.8903
▁tur	-10.8903
▁planes	-10.8917
▁hearing	-10.892
▁rub	-10.8925
▁joe	-10.8929
case	-10.8929
▁critical	-10.8935
▁fred	-10.8941
print	-10.8943
▁guy	-10.8955
sburg	-10.8959
▁mess	-10.8961
▁indiana	-10.8961
▁38	-10.8963
▁seek	-10.8973
▁dancer	-10.8979
36	-10.8991
▁readings	-10.8995
signed	-10.8999
▁benefits	-10.8999
▁landed	-10.9002
etic	-10.9002
▁techniques	-10.9005
▁pupils	-10.9011
▁painter	-10.9011
▁wilde	-10.9012
▁creates	-10.9017
master	-10.9023
▁160	-10.9029
▁43	-10.9037
▁gr	-10.9039
▁hate	-10.9042
▁efforts	-10.9047
bat	-10.9048
▁astronom	-10.905
tell	-10.906
▁isotope	-10.907
ette	-10.9071
▁brief	-10.9071
▁representative	-10.9072
▁belgian	-10.9085
▁connecticut	-10.9085
▁dakota	-10.9085
▁gershwin	-10.9085
▁influential	-10.9085
▁irrigation	-10.9085
▁precipitation	-10.9085
▁recreation	-10.9085
▁tectonic	-10.9085
▁vishnu	-10.9085
▁bilbo	-10.9085
▁driving	-10.9085
▁holmes	-10.9085
▁shadow	-10.9085
▁relax	-10.9085
▁milton	-10.9085
▁moose	-10.9085
▁automobile	-10.9085
▁housing	-10.9085
▁deliver	-10.9086
▁shopping	-10.9086
▁multiplication	-10.9086
▁garfield	-10.9087
▁slang	-10.9088
▁carries	-10.9092
▁elementary	-10.9093
▁apartment	-10.9093
▁promote	-10.9093
▁nobody	-10.9094
▁laden	-10.9095
▁cakes	-10.9096
▁wax	-10.9097
▁nuclei	-10.9097
▁option	-10.9098
▁constructed	-10.9101
▁800	-10.9102
▁youngest	-10.9103
▁fictional	-10.9105
tta	-10.9105
▁editor	-10.9105
▁pedal	-10.9106
▁brad	-10.911
▁drawn	-10.9111
▁principal	-10.9117
▁wal	-10.9118
▁cam	-10.912
▁spam	-10.912
pel	-10.913
▁simpler	-10.9146
▁winters	-10.9147
▁cable	-10.9156
▁lava	-10.9169
cci	-10.9169
onia	-10.917
▁gray	-10.9172
north	-10.9174
▁suggests	-10.9177
▁titled	-10.9177
▁dollars	-10.9181
▁merc	-10.9184
▁jam	-10.9185
▁colder	-10.9191
▁whereas	-10.9192
▁creatures	-10.9192
▁hay	-10.9203
▁item	-10.9209
▁knowing	-10.9211
▁jaw	-10.9237
chen	-10.9237
direct	-10.9238
ison	-10.9239
third	-10.9239
general	-10.9239
▁fuels	-10.9249
▁logical	-10.9254
vy	-10.9261
gun	-10.9265
▁discover	-10.9272
▁falling	-10.9273
▁mina	-10.9284
▁tissues	-10.9285
▁recover	-10.9288
loo	-10.9289
dec	-10.9295
▁gui	-10.9299
▁powered	-10.93
▁initial	-10.931
▁tan	-10.9313
▁restaurant	-10.9313
ional	-10.9317
▁connections	-10.9318
▁faces	-10.9319
▁aboriginal	-10.9323
▁birmingham	-10.9323
▁conquest	-10.9323
▁conservation	-10.9323
▁coordinate	-10.9323
▁frozen	-10.9323
▁leopard	-10.9323
▁ottawa	-10.9323
▁platypus	-10.9323
▁samurai	-10.9323
▁vaccination	-10.9323
▁honour	-10.9323
▁uniform	-10.9323
▁alfred	-10.9323
▁error	-10.9323
▁venice	-10.9323
▁comfort	-10.9323
▁freezing	-10.9324
▁drunk	-10.9324
▁cambridge	-10.9324
▁cake	-10.9324
▁seoul	-10.9324
▁radioactive	-10.9325
▁adjust	-10.9325
▁continuous	-10.9325
▁excit	-10.9325
▁shirt	-10.9325
▁1932	-10.9327
▁interpretation	-10.9327
▁email	-10.9327
▁indicate	-10.933
▁suddenly	-10.933
berries	-10.9331
▁pool	-10.9332
▁extinction	-10.9334
ida	-10.9337
▁recognize	-10.9338
▁prepared	-10.9345
▁easter	-10.9346
▁courses	-10.9347
▁collapsed	-10.935
jun	-10.9354
▁countryside	-10.9357
▁phil	-10.9357
▁sheep	-10.936
▁pig	-10.9372
mail	-10.9374
▁supporters	-10.9378
▁herbivores	-10.9383
▁adam	-10.9384
▁breasts	-10.9384
▁dish	-10.9387
▁reduc	-10.9387
▁highway	-10.9393
idae	-10.9396
eous	-10.9397
say	-10.9401
self	-10.9401
▁austrian	-10.9411
▁ear	-10.9423
▁speaker	-10.9437
mill	-10.9447
▁mike	-10.9451
relatively	-10.9456
▁fed	-10.9456
▁bullets	-10.9461
human	-10.9468
lyn	-10.947
fold	-10.9472
european	-10.9482
chemical	-10.9483
formula	-10.9483
▁dun	-10.9484
level	-10.9485
▁chromosomes	-10.949
usually	-10.949
change	-10.949
▁34	-10.9497
▁tele	-10.9505
▁gil	-10.9517
▁metro	-10.9521
ava	-10.9552
ille	-10.9561
▁frog	-10.9564
▁relation	-10.9565
▁charts	-10.9566
rough	-10.9567
▁abdomen	-10.9567
▁anniversary	-10.9567
▁caterpillar	-10.9567
▁cholesterol	-10.9567
▁cleveland	-10.9567
▁cognitive	-10.9567
▁cologne	-10.9567
▁confederacy	-10.9567
▁cyprus	-10.9567
▁danube	-10.9567
▁gandalf	-10.9567
▁gorbachev	-10.9567
▁hoboken	-10.9567
▁infrastructure	-10.9567
▁manufacturing	-10.9567
▁nervous	-10.9567
▁prominent	-10.9567
▁slovakia	-10.9567
▁theoretical	-10.9567
▁parallel	-10.9567
▁scandal	-10.9567
▁segment	-10.9567
▁unesco	-10.9567
▁worst	-10.9567
▁algeria	-10.9567
▁decay	-10.9567
▁gnu	-10.9567
▁basilica	-10.9567
▁quiet	-10.9567
▁fusion	-10.9568
▁presley	-10.9568
▁facing	-10.9568
▁contribute	-10.9568
▁chapel	-10.9568
threw	-10.9568
▁terrorism	-10.9569
▁harold	-10.9569
▁obey	-10.957
▁planning	-10.957
▁arrow	-10.957
▁danny	-10.957
▁hardware	-10.9572
▁flies	-10.9572
▁confused	-10.9572
▁ipod	-10.9573
▁cube	-10.9579
▁processing	-10.9579
▁criticized	-10.958
hawk	-10.958
▁transfer	-10.9582
▁maryland	-10.9582
▁1860	-10.9583
▁discussion	-10.9585
▁crowd	-10.9588
▁surrendered	-10.9588
▁recommended	-10.9593
▁minute	-10.9595
▁(6	-10.9597
▁bananas	-10.9598
3)	-10.9602
▁principles	-10.9605
▁slower	-10.9611
▁projects	-10.9618
tom	-10.9621
fried	-10.9622
▁java	-10.9625
genesis	-10.9628
▁seats	-10.9631
▁simon	-10.9633
▁dice	-10.9642
ogen	-10.9647
▁attempted	-10.9651
▁ratio	-10.966
▁carey	-10.9662
▁opinions	-10.9668
▁trap	-10.9675
open	-10.9677
nar	-10.9678
▁maine	-10.9709
▁priests	-10.9713
evolutionary	-10.9715
fr	-10.9715
▁champions	-10.9725
▁isles	-10.9728
depend	-10.9732
century	-10.9732
three	-10.9733
▁contained	-10.9739
▁heir	-10.9747
face	-10.975
▁mud	-10.976
▁discuss	-10.9763
▁sar	-10.9767
▁attractions	-10.9774
▁nat	-10.9777
▁resign	-10.9781
gree	-10.9784
▁photos	-10.9784
▁doors	-10.9787
▁cole	-10.98
▁52	-10.9803
▁barbados	-10.9817
▁budget	-10.9817
▁caffeine	-10.9817
▁capacity	-10.9817
▁chelsea	-10.9817
▁controversy	-10.9817
▁desktop	-10.9817
▁dublin	-10.9817
▁infinity	-10.9817
▁minnesota	-10.9817
▁nowadays	-10.9817
▁plymouth	-10.9817
▁quantity	-10.9817
▁valuable	-10.9817
▁exposure	-10.9817
▁hidden	-10.9817
▁paradox	-10.9817
▁tobacco	-10.9817
▁altitude	-10.9817
▁avenue	-10.9817
▁bureau	-10.9817
fensive	-10.9818
▁marshall	-10.9818
▁desire	-10.9818
▁albania	-10.9819
▁variation	-10.9819
▁bowie	-10.982
▁prefer	-10.982
▁poker	-10.9821
▁acne	-10.9821
▁swing	-10.9821
▁hugh	-10.9821
▁specifically	-10.9822
▁sitting	-10.9822
▁winner	-10.9823
▁1924	-10.9823
▁dominat	-10.9825
polis	-10.9826
▁herself	-10.9826
▁blame	-10.9826
▁dishes	-10.9828
▁ears	-10.9828
▁johnny	-10.9829
▁progressive	-10.983
▁bias	-10.9833
▁cheaper	-10.9835
▁boiling	-10.9837
▁alan	-10.9839
▁encouraged	-10.984
▁brass	-10.9842
▁eve	-10.9843
▁coca	-10.9844
▁killer	-10.9851
▁statues	-10.9862
▁directions	-10.9865
▁wider	-10.9865
▁arc	-10.9867
▁matt	-10.9868
▁howard	-10.9871
▁mathematicians	-10.9875
▁oceanic	-10.9879
pac	-10.988
mass	-10.9887
path	-10.9896
▁legally	-10.9899
uck	-10.9899
▁dye	-10.99
▁moss	-10.9902
▁counting	-10.9909
▁monte	-10.9911
lim	-10.9911
▁counted	-10.9915
▁600	-10.9917
▁biologists	-10.9919
cell	-10.992
▁bare	-10.9924
▁lighter	-10.9925
ddy	-10.9926
▁41	-10.9933
▁mad	-10.9939
▁...	-10.994
▁drawings	-10.994
▁photons	-10.9942
▁blu	-10.9942
▁edo	-10.9944
0%	-10.9951
▁statements	-10.9974
▁geographical	-10.9977
▁commander	-10.9989
gging	-10.9999
▁jenn	-11.0008
▁tony	-11.0013
▁(15	-11.0016
rock	-11.0021
away	-11.0033
▁adapt	-11.0033
▁conquer	-11.0038
▁govern	-11.0041
▁magazines	-11.0047
▁pipe	-11.0052
gged	-11.0064
mona	-11.0065
▁circuits	-11.0065
▁medici	-11.0071
▁import	-11.0073
▁anatomy	-11.0074
▁archbishop	-11.0074
▁arranged	-11.0074
▁cheetah	-11.0074
▁coolidge	-11.0074
▁demonstration	-11.0074
▁dessert	-11.0074
▁diplomat	-11.0074
▁endangered	-11.0074
▁gambling	-11.0074
▁guatemala	-11.0074
▁immunity	-11.0074
▁knife	-11.0074
▁leipzig	-11.0074
▁madonna	-11.0074
▁montreal	-11.0074
▁photosynthesis	-11.0074
▁platinum	-11.0074
▁preparation	-11.0074
▁propaganda	-11.0074
▁psychologist	-11.0074
▁puppet	-11.0074
▁skyscraper	-11.0074
▁thermometer	-11.0074
▁liberty	-11.0074
▁monkees	-11.0074
▁surprise	-11.0074
▁1903	-11.0074
▁pianist	-11.0074
▁zeus	-11.0074
▁spider	-11.0074
▁overseas	-11.0074
▁borrow	-11.0075
▁fibre	-11.0075
▁fellow	-11.0076
▁rapper	-11.0076
▁patron	-11.0076
▁leaf	-11.0077
▁keynes	-11.0077
▁1938	-11.0078
▁bound	-11.0078
▁stuff	-11.0078
▁humidity	-11.0078
▁palm	-11.0078
▁rising	-11.0079
▁vista	-11.0079
▁75	-11.008
▁90%	-11.008
▁1911	-11.0081
▁1865	-11.0081
▁downtown	-11.0081
▁bun	-11.0081
▁circuit	-11.0082
▁magma	-11.0082
▁diego	-11.0084
▁oven	-11.0088
▁lenses	-11.009
istan	-11.0091
▁vast	-11.0093
▁connection	-11.0094
▁chat	-11.0095
▁lying	-11.0098
▁usage	-11.0103
▁yoga	-11.0103
▁lie	-11.0106
▁promoted	-11.0112
▁wooden	-11.0113
▁accounts	-11.0113
roman	-11.0114
▁latest	-11.0118
▁tasmania	-11.0122
▁10%	-11.0128
▁craft	-11.0129
▁calculate	-11.0141
kra	-11.0154
▁fee	-11.0161
▁portion	-11.0167
▁wil	-11.0171
▁mall	-11.0182
▁invade	-11.0194
▁covering	-11.0204
there	-11.0208
▁epic	-11.0224
-18	-11.0232
▁joke	-11.0247
electric	-11.0252
▁phones	-11.0255
▁expand	-11.0266
gender	-11.0269
turn	-11.0271
▁condoms	-11.0287
▁observation	-11.0288
hip	-11.0296
▁twins	-11.031
▁encourage	-11.0313
▁prepare	-11.0313
▁adventures	-11.0315
▁virgin	-11.0322
-2	-11.0325
▁pipes	-11.0329
▁hyper	-11.033
▁variations	-11.0335
inu	-11.0337
▁vilnius	-11.0337
▁advice	-11.0337
▁bolshevik	-11.0337
▁circular	-11.0337
▁exploit	-11.0337
▁external	-11.0337
▁imaginary	-11.0337
▁motorcycle	-11.0337
▁mozambique	-11.0337
▁oregon	-11.0337
▁phenomena	-11.0337
▁puberty	-11.0337
▁smooth	-11.0337
▁varieties	-11.0337
▁lawrence	-11.0337
▁vegas	-11.0337
▁jehovah	-11.0337
▁oxidiz	-11.0337
▁duchy	-11.0337
▁infectious	-11.0337
▁hawking	-11.0337
▁reverse	-11.0337
▁rational	-11.0337
▁exposed	-11.0337
▁rescue	-11.0338
▁troy	-11.0338
▁trek	-11.0338
▁flour	-11.0338
▁mtv	-11.0339
▁radius	-11.0339
▁nbc	-11.0339
▁northeastern	-11.0339
▁franz	-11.034
▁1923	-11.0342
▁shall	-11.0346
▁estate	-11.0347
▁carefully	-11.0348
▁fever	-11.0348
bot	-11.0349
▁parliamentary	-11.0349
▁equality	-11.0351
▁lightning	-11.0356
▁cbs	-11.0357
▁ioc	-11.0358
▁120	-11.0364
▁wolf	-11.0369
▁educated	-11.0372
▁addresses	-11.0373
▁charter	-11.0373
▁passes	-11.0382
▁democrats	-11.0384
▁programmer	-11.0397
bundes	-11.0405
grand	-11.0415
▁sung	-11.0421
▁360	-11.0425
▁correspond	-11.0426
▁meta	-11.0434
▁polo	-11.0448
▁murdered	-11.0451
latin	-11.0455
gotten	-11.0457
obe	-11.0463
▁clo	-11.0477
▁mul	-11.0479
▁passing	-11.0494
bia	-11.0501
▁gall	-11.0503
6,000	-11.0511
▁55	-11.0517
meaning	-11.0522
kan	-11.0531
▁existing	-11.0536
making	-11.0538
green	-11.0542
itation	-11.0544
▁chase	-11.0546
▁tested	-11.0551
post	-11.0582
▁arrive	-11.0583
▁(9	-11.0601
▁scott	-11.0606
▁obsessive	-11.0607
▁butterflies	-11.0607
▁category	-11.0607
▁fertile	-11.0607
▁hydroxide	-11.0607
▁probability	-11.0607
▁quantities	-11.0607
▁rebuilt	-11.0607
▁zurich	-11.0607
▁cardiff	-11.0607
▁horror	-11.0607
▁multiply	-11.0607
▁remix	-11.0607
▁autistic	-11.0607
▁dinner	-11.0607
▁dancing	-11.0607
▁vertical	-11.0607
▁racial	-11.0607
▁saxony	-11.0607
▁sensor	-11.0608
compulsi	-11.0608
▁favorite	-11.0609
▁boundary	-11.0609
▁discoveries	-11.0609
▁batteries	-11.0609
▁inuit	-11.0609
▁cornish	-11.061
psycho	-11.061
▁ostriches	-11.061
▁finance	-11.061
▁duties	-11.061
▁rocky	-11.061
▁fifa	-11.061
▁poisonous	-11.061
▁click	-11.061
▁1951	-11.0611
▁delta	-11.0613
▁underwater	-11.0616
▁1859	-11.0616
▁1898	-11.0616
▁debut	-11.0616
▁putin	-11.0617
▁mccartney	-11.0618
▁castro	-11.0618
▁everest	-11.0622
▁consumer	-11.0625
▁buses	-11.0627
▁ancestor	-11.063
▁adventure	-11.0631
▁neutron	-11.0632
▁cord	-11.0636
▁skill	-11.0637
hair	-11.0639
▁mentioned	-11.064
edge	-11.064
▁heated	-11.0646
▁buffy	-11.0646
▁extended	-11.0654
▁nato	-11.0658
contra	-11.0662
▁2,000	-11.0666
▁storms	-11.0668
▁practiced	-11.068
▁spending	-11.069
▁adjectives	-11.0691
▁referr	-11.0695
▁spears	-11.0696
▁mm	-11.0705
▁separately	-11.0706
rio	-11.0716
gli	-11.0722
cellular	-11.0728
code	-11.0736
▁44	-11.0737
▁65	-11.075
▁coloured	-11.0752
▁missiles	-11.0775
▁fra	-11.0787
neu	-11.0796
piece	-11.08
cap	-11.0806
charge	-11.0807
bridge	-11.0807
▁spreading	-11.0831
▁leo	-11.0839
▁introduc	-11.0848
▁rio	-11.085
▁ideal	-11.0856
▁frequent	-11.0871
hill	-11.0873
▁magnet	-11.0881
▁otto	-11.0882
worm	-11.0885
▁assassination	-11.0885
▁astronaut	-11.0885
▁chancellor	-11.0885
▁disappear	-11.0885
▁extensive	-11.0885
▁friedrich	-11.0885
▁glasgow	-11.0885
▁lebanon	-11.0885
▁mechanism	-11.0885
▁mirror	-11.0885
▁offspring	-11.0885
▁pleasure	-11.0885
▁primarily	-11.0885
▁python	-11.0885
▁shanghai	-11.0885
▁tuberculosis	-11.0885
▁wilhelm	-11.0885
▁winnipeg	-11.0885
▁1848	-11.0885
▁ammonia	-11.0885
▁butterfly	-11.0885
▁temperate	-11.0885
ambigu	-11.0885
▁1861	-11.0885
▁presence	-11.0885
▁anthropology	-11.0885
▁blair	-11.0885
▁comparison	-11.0886
▁database	-11.0886
▁davis	-11.0886
▁neurons	-11.0887
▁monks	-11.0887
▁client	-11.0888
▁tape	-11.0889
▁aviv	-11.0891
▁finishe	-11.0892
▁potatoes	-11.0894
▁volt	-11.0895
▁iranian	-11.0895
▁deaf	-11.0897
▁runner	-11.0898
▁forty	-11.09
▁hippo	-11.0904
▁invest	-11.0906
▁pottery	-11.0906
▁manner	-11.0909
▁artistic	-11.0913
▁10,000	-11.0915
▁constantly	-11.0927
▁arabian	-11.0928
▁noticed	-11.0932
hold	-11.0932
▁repeated	-11.0934
▁successor	-11.0948
▁cab	-11.0953
▁throwing	-11.0954
▁carbohydrates	-11.0954
▁exceptions	-11.0956
▁alloys	-11.0964
▁bend	-11.0968
▁tang	-11.0971
▁ethiopian	-11.098
▁provid	-11.0981
▁fingers	-11.0985
▁faced	-11.0993
lob	-11.1011
▁nationalist	-11.1016
▁fibers	-11.1028
voyager	-11.1029
▁seemed	-11.1041
▁topic	-11.1045
rum	-11.105
prim	-11.1057
▁wise	-11.1057
▁gills	-11.1059
▁processor	-11.1066
▁crossing	-11.1076
sphere	-11.1085
blue	-11.1086
copy	-11.1086
related	-11.1087
russian	-11.109
▁prisoners	-11.1092
;/	-11.1097
mac	-11.1106
▁pint	-11.1111
▁37	-11.1113
▁eth	-11.1121
just	-11.1126
▁rituals	-11.1132
▁suburbs	-11.1132
▁reject	-11.1134
▁1.0	-11.1154
▁somali	-11.1156
nucle	-11.116
▁witness	-11.1161
▁winners	-11.1169
univers	-11.117
▁basket	-11.117
▁acronym	-11.1171
▁arithmetic	-11.1171
▁clarinet	-11.1171
▁destination	-11.1171
▁elevation	-11.1171
▁holocaust	-11.1171
▁implement	-11.1171
▁lieutenant	-11.1171
▁namibia	-11.1171
▁neutrino	-11.1171
▁nightclub	-11.1171
▁obvious	-11.1171
▁psychiatri	-11.1171
▁synthesis	-11.1171
▁terrestrial	-11.1171
▁welfare	-11.1171
▁$5	-11.1171
▁clause	-11.1171
▁complain	-11.1171
▁fahrenheit	-11.1171
▁finnish	-11.1171
▁genital	-11.1171
▁julius	-11.1171
▁simpson	-11.1171
▁merchant	-11.1171
▁naples	-11.1171
▁spiral	-11.1171
▁baked	-11.1171
▁shortened	-11.1171
▁jesse	-11.1171
▁racing	-11.1171
▁trigger	-11.1171
▁mood	-11.1171
▁boston	-11.1171
▁resistant	-11.1172
▁adverb	-11.1172
▁elsewhere	-11.1172
▁richmond	-11.1172
▁wildlife	-11.1173
▁aaron	-11.1174
▁1929	-11.1174
▁consistent	-11.1174
▁1934	-11.1174
▁80%	-11.1175
▁nuts	-11.1176
▁litre	-11.1176
▁tension	-11.1176
▁pork	-11.118
▁delay	-11.118
▁alongside	-11.118
▁yard	-11.1181
▁macos	-11.1182
▁mask	-11.1182
▁larvae	-11.1184
▁symphony	-11.1184
▁coach	-11.1185
▁approved	-11.1186
▁superman	-11.1192
▁photo	-11.1192
▁diary	-11.1193
▁illnesses	-11.1194
▁nice	-11.1194
++	-11.1195
▁swan	-11.1197
▁noise	-11.1198
▁convicted	-11.1199
▁arches	-11.12
▁regulat	-11.1203
▁proto	-11.1208
▁pyramid	-11.1209
▁ritual	-11.1209
▁suburb	-11.121
▁passenger	-11.121
▁component	-11.121
▁notably	-11.1234
▁expressed	-11.1236
iness	-11.1236
▁tab	-11.1248
▁cooper	-11.1254
▁combin	-11.1273
▁fled	-11.129
▁cia	-11.1299
_5	-11.1302
list	-11.1302
read	-11.1315
▁pit	-11.1321
▁franco	-11.1324
▁(7	-11.1326
▁tap	-11.1337
▁attacking	-11.1356
▁asteroids	-11.1364
▁experts	-11.1364
▁pest	-11.1376
election	-11.1378
▁estimates	-11.1379
claim	-11.138
group	-11.138
especially	-11.138
final	-11.138
▁lac	-11.1395
hail	-11.1416
▁pyramids	-11.1425
▁explore	-11.1427
▁persia	-11.1441
▁fail	-11.1449
▁intersex	-11.146
▁establish	-11.1461
▁enforce	-11.1462
▁amphibia	-11.1463
▁virtual	-11.1465
qaeda	-11.1465
▁abstract	-11.1465
▁aragon	-11.1465
▁evaporation	-11.1465
▁expedition	-11.1465
▁identical	-11.1465
▁messenger	-11.1465
▁montgomery	-11.1465
▁observatory	-11.1465
▁palestine	-11.1465
▁populous	-11.1465
▁prefix	-11.1465
▁primitive	-11.1465
▁quartz	-11.1465
▁residence	-11.1465
▁savanna	-11.1465
▁surviving	-11.1465
▁wyoming	-11.1465
▁zürich	-11.1465
▁arsenal	-11.1465
▁schedule	-11.1465
▁fifty	-11.1465
▁idaho	-11.1465
▁request	-11.1465
▁adolf	-11.1465
▁rotation	-11.1465
▁vinci	-11.1465
▁ghana	-11.1465
▁innocent	-11.1465
▁width	-11.1465
▁melbourne	-11.1465
▁ninth	-11.1465
▁erect	-11.1466
▁odd	-11.1466
▁highlands	-11.1466
brook	-11.1467
▁investment	-11.1467
▁chairman	-11.1467
▁authorities	-11.1468
▁hiding	-11.1468
▁1908	-11.1468
▁quote	-11.1468
▁hindi	-11.1468
▁robot	-11.1469
▁stuck	-11.147
▁everybody	-11.147
▁marxism	-11.147
▁1925	-11.1472
▁feast	-11.1472
7,000	-11.1472
▁1914	-11.1473
▁reformation	-11.1475
▁detail	-11.148
▁nebraska	-11.1482
▁20%	-11.1482
▁reactive	-11.1483
▁imm	-11.1483
▁bron	-11.1485
▁strongest	-11.1486
▁efficient	-11.1487
▁wealthy	-11.1492
▁dating	-11.1494
▁tram	-11.15
▁rejected	-11.1502
▁somewhat	-11.1505
fil	-11.1512
▁effort	-11.1513
▁manga	-11.1523
gran	-11.1528
▁paulo	-11.1529
▁astronomer	-11.1532
▁publication	-11.154
▁friendly	-11.1544
▁vii	-11.1547
▁36	-11.1558
_7	-11.1559
▁geographic	-11.1577
tron	-11.158
gger	-11.1585
▁gut	-11.1587
▁gap	-11.1588
invent	-11.1595
▁mail	-11.1598
isation	-11.1616
active	-11.1617
rent	-11.1627
▁occasions	-11.1632
▁jon	-11.1648
▁watched	-11.1656
▁sonic	-11.1656
▁interpret	-11.1666
last	-11.1673
▁hub	-11.1676
elected	-11.1681
correct	-11.1683
culture	-11.1683
division	-11.1685
ela	-11.1688
four	-11.1702
color	-11.1709
▁nasa	-11.1722
▁arrest	-11.1732
▁wound	-11.1732
▁46	-11.1733
▁journal	-11.1751
dynamic	-11.1766
▁advent	-11.1767
▁entertain	-11.1767
▁arizona	-11.1768
▁bonaparte	-11.1768
▁botswana	-11.1768
▁byzantine	-11.1768
▁chronic	-11.1768
▁discrimination	-11.1768
▁hampshire	-11.1768
▁helsinki	-11.1768
▁intelligent	-11.1768
▁legislative	-11.1768
▁magnesium	-11.1768
▁mickey	-11.1768
▁millennium	-11.1768
▁philosophical	-11.1768
▁springsteen	-11.1768
▁stimulat	-11.1768
▁sulfide	-11.1768
▁thailand	-11.1768
▁treasure	-11.1768
▁unemployment	-11.1768
▁neither	-11.1768
▁baroque	-11.1768
▁modified	-11.1768
▁sheffield	-11.1768
▁corinth	-11.1768
▁threatened	-11.1768
▁miami	-11.1768
▁contrast	-11.1768
▁ladder	-11.1768
▁metabolism	-11.1768
▁ecology	-11.1768
▁stood	-11.1768
▁radar	-11.1768
▁commandments	-11.1768
▁donald	-11.1768
▁kerry	-11.1768
▁ignore	-11.1768
▁austen	-11.1768
▁sculpture	-11.1768
▁fellowship	-11.1769
▁creek	-11.1769
▁inheritance	-11.1769
▁grandfather	-11.1769
▁jimmy	-11.1769
▁obtain	-11.1769
▁oscar	-11.1771
▁roast	-11.1772
▁portray	-11.1772
▁pierre	-11.1772
▁indoor	-11.1772
▁ferment	-11.1774
▁elector	-11.1775
▁1889	-11.1779
▁1896	-11.178
▁corps	-11.178
▁luck	-11.1781
▁kids	-11.1784
▁duck	-11.1786
▁briefly	-11.1786
▁1870	-11.1787
▁30,000	-11.1792
▁joey	-11.1794
▁stripes	-11.1796
▁mention	-11.18
▁thrown	-11.1802
▁fairly	-11.1808
▁bent	-11.1827
▁condom	-11.1831
▁escaped	-11.1832
ubi	-11.1833
▁issued	-11.1833
fra	-11.1837
▁jumping	-11.1838
▁freed	-11.1842
▁hunted	-11.1846
▁calculated	-11.186
▁poisoning	-11.1861
rik	-11.1863
▁offering	-11.1867
actor	-11.1867
▁owls	-11.1876
under	-11.1876
▁dover	-11.1883
▁poe	-11.1891
▁tau	-11.1908
true	-11.1931
stead	-11.1945
▁geo	-11.1951
▁sara	-11.1955
▁warming	-11.1962
▁dealing	-11.1978
eight	-11.1985
▁rolling	-11.1993
little	-11.1995
social	-11.1996
▁turning	-11.1996
foot	-11.1997
▁hart	-11.2005
order	-11.2025
▁carbonate	-11.2043
▁gum	-11.2048
▁translate	-11.2057
▁potato	-11.2071
▁manufacture	-11.2079
sanskrit	-11.208
württemberg	-11.208
▁abolished	-11.208
▁armstrong	-11.208
▁bamboo	-11.208
▁bhutan	-11.208
▁circumference	-11.208
▁diarrhea	-11.208
▁dwarves	-11.208
▁flexible	-11.208
▁maharashtra	-11.208
▁matthew	-11.208
▁monasteries	-11.208
▁phoenician	-11.208
▁pneumonia	-11.208
▁rectangle	-11.208
▁throat	-11.208
▁vocabulary	-11.208
▁fission	-11.208
▁happiness	-11.208
▁reputation	-11.208
▁stanley	-11.208
▁commune	-11.208
▁ticket	-11.208
▁gellar	-11.208
▁seattle	-11.208
▁lonely	-11.208
▁screw	-11.208
▁appeal	-11.208
▁varied	-11.208
▁merged	-11.208
▁descendants	-11.208
▁flesh	-11.2081
▁orlando	-11.2081
▁thread	-11.2081
▁edgar	-11.2081
▁vikings	-11.2081
▁cinema	-11.2082
▁insult	-11.2082
▁citizenship	-11.2082
name	-11.2082
▁villa	-11.2083
▁yeast	-11.2083
▁warsaw	-11.2083
▁southeastern	-11.2084
▁geneva	-11.2084
▁1935	-11.2086
▁replacement	-11.2086
▁crack	-11.2087
▁dante	-11.2087
▁capable	-11.2088
▁charity	-11.2088
▁basically	-11.2089
▁philadelphia	-11.209
▁plum	-11.209
▁disneyland	-11.2091
▁engaged	-11.2094
▁restored	-11.2095
▁jong	-11.2099
▁scandinavian	-11.21
▁regulation	-11.2103
heim	-11.2103
▁publishing	-11.2108
▁additionally	-11.2113
▁oceania	-11.2115
pple	-11.2116
▁genera	-11.2121
▁somewhere	-11.2122
▁discussed	-11.2126
▁ridge	-11.2129
▁begun	-11.213
▁49	-11.2139
media	-11.2143
▁athlete	-11.2149
▁quark	-11.2149
▁turtle	-11.2149
▁instruction	-11.2149
▁rating	-11.218
▁sink	-11.2186
▁tha	-11.2197
▁thatcher	-11.2201
▁clan	-11.2201
▁chin	-11.2202
often	-11.2206
▁stat	-11.221
▁101	-11.221
▁cone	-11.2213
▁flam	-11.2229
mount	-11.2232
8,000	-11.2234
luc	-11.2237
▁neil	-11.2259
▁marsh	-11.2267
▁similarly	-11.23
november	-11.2318
united	-11.2318
▁needle	-11.2327
asia	-11.2329
title	-11.2356
nam	-11.236
▁transform	-11.2365
gia	-11.2369
▁steal	-11.2369
▁believ	-11.2377
▁performer	-11.2377
▁archaeolog	-11.2386
tv	-11.2395
▁colon	-11.2397
improv	-11.24
▁bahamas	-11.2403
▁baptist	-11.2403
▁centimetre	-11.2403
▁explode	-11.2403
▁investigation	-11.2403
▁kazakhstan	-11.2403
▁kernel	-11.2403
▁köhler	-11.2403
▁lgbt	-11.2403
▁marsupial	-11.2403
▁nutrition	-11.2403
▁resurrection	-11.2403
▁smoking	-11.2403
▁subtropical	-11.2403
▁synagogue	-11.2403
▁tadpoles	-11.2403
▁thursday	-11.2403
▁uranium	-11.2403
▁alpha	-11.2403
▁cactus	-11.2403
▁insurance	-11.2403
▁refuge	-11.2403
▁boleyn	-11.2403
▁ounce	-11.2403
▁depict	-11.2403
▁punch	-11.2403
▁welcome	-11.2403
▁zebra	-11.2403
▁istanbul	-11.2403
▁russell	-11.2403
▁argon	-11.2403
▁pioneer	-11.2403
▁avatar	-11.2403
▁wedding	-11.2403
▁massacre	-11.2403
▁revolt	-11.2403
▁crusade	-11.2403
▁akbar	-11.2403
▁torture	-11.2403
▁naming	-11.2404
▁blade	-11.2404
▁kimchi	-11.2404
▁yoshi	-11.2404
▁siege	-11.2404
▁shut	-11.2404
▁guess	-11.2404
▁cruise	-11.2405
lysis	-11.2405
▁harmful	-11.2405
▁cry	-11.2405
▁missing	-11.2405
sub	-11.2406
▁devote	-11.2406
▁artwork	-11.2407
▁juice	-11.2409
stadt	-11.241
▁womb	-11.241
▁apparently	-11.2411
▁pride	-11.2411
▁grassland	-11.2411
▁hillary	-11.2411
▁crater	-11.2412
▁chair	-11.2413
▁365	-11.2413
▁tires	-11.2413
▁glue	-11.2415
▁pollen	-11.2416
▁informal	-11.2416
▁possession	-11.2418
▁lessons	-11.2422
▁initially	-11.2422
▁chilean	-11.2428
▁köppen	-11.243
▁catholicism	-11.2433
▁moist	-11.2438
▁somebody	-11.2438
▁pala	-11.2439
▁alberta	-11.2442
▁rican	-11.2448
▁calm	-11.2455
▁graphic	-11.2456
bah	-11.2456
▁sailed	-11.2459
▁undergo	-11.2466
ido	-11.2466
▁prussian	-11.2467
▁tyr	-11.247
▁corona	-11.2473
heart	-11.2476
▁airplane	-11.2482
▁application	-11.2483
▁historian	-11.2483
▁ballet	-11.2485
▁lung	-11.2493
▁publisher	-11.2495
him	-11.2502
▁soup	-11.2522
▁stab	-11.2527
▁tonga	-11.2532
gard	-11.2537
▁breath	-11.2544
▁(13	-11.2547
▁sav	-11.2549
▁hoped	-11.255
70%	-11.2553
▁1.5	-11.2561
▁cooler	-11.2563
ographic	-11.2575
▁rent	-11.2592
▁visiting	-11.2605
large	-11.2606
ín	-11.2616
▁ska	-11.2617
▁$2	-11.2626
▁sunni	-11.2645
standing	-11.2647
pronounced	-11.2651
october	-11.2651
found	-11.2676
▁wage	-11.2683
▁elect	-11.2686
née	-11.2694
hour	-11.2694
▁refus	-11.2704
jan	-11.2709
▁whit	-11.271
▁pie	-11.2712
▁gravitation	-11.2726
▁careful	-11.2729
▁amendment	-11.2736
▁assault	-11.2736
▁conclusion	-11.2736
▁decorated	-11.2736
▁exclusive	-11.2736
▁feudal	-11.2736
▁franchise	-11.2736
▁heisenberg	-11.2736
▁hussein	-11.2736
▁junction	-11.2736
▁kelvin	-11.2736
▁madagascar	-11.2736
▁magnitude	-11.2736
▁matilda	-11.2736
▁mcdonald	-11.2736
▁mussolini	-11.2736
▁psychological	-11.2736
▁recognition	-11.2736
▁saxophone	-11.2736
▁subsequent	-11.2736
▁tenochtitlan	-11.2736
▁yield	-11.2736
▁bulgaria	-11.2736
▁ipswich	-11.2736
▁liberation	-11.2736
▁migration	-11.2736
▁violet	-11.2736
volving	-11.2736
▁$3	-11.2736
▁barbara	-11.2736
▁osaka	-11.2736
▁phillip	-11.2736
▁senior	-11.2736
▁sixteen	-11.2736
▁sponsor	-11.2736
▁falcon	-11.2736
▁hudson	-11.2736
▁investigate	-11.2736
▁smallpox	-11.2736
▁resort	-11.2736
▁slovenia	-11.2736
▁dairy	-11.2736
▁employees	-11.2736
▁frisian	-11.2736
▁boundaries	-11.2737
▁backwards	-11.2737
▁breakfast	-11.2737
▁edison	-11.2737
▁hubble	-11.2737
▁parasite	-11.2737
▁moderate	-11.2737
▁instant	-11.2737
▁orphan	-11.2737
sperm	-11.2738
▁introduction	-11.2738
▁trend	-11.2738
▁infant	-11.2738
titut	-11.2738
▁shelley	-11.2739
omb	-11.2739
▁dying	-11.2739
▁wright	-11.2739
▁compression	-11.2739
weimar	-11.2739
▁achievement	-11.274
▁funny	-11.274
▁geology	-11.274
▁bronx	-11.2741
▁fermentation	-11.2741
▁valid	-11.2742
▁hospitalized	-11.2743
▁1901	-11.2743
▁baker	-11.2743
▁goat	-11.2745
▁planck	-11.2745
▁permit	-11.2747
▁1790	-11.2748
▁malta	-11.2749
▁dimension	-11.275
▁richest	-11.2751
▁norse	-11.2753
ception	-11.2754
▁molecul	-11.2754
▁1821	-11.2754
▁viet	-11.2754
▁journalist	-11.2755
▁whatever	-11.2756
oul	-11.2758
▁buren	-11.2759
▁1%	-11.2762
▁reward	-11.2762
▁alcoholic	-11.2762
▁surg	-11.2762
▁1850	-11.2771
▁qur	-11.2774
▁expanding	-11.278
▁verse	-11.2784
▁warning	-11.2785
▁correctly	-11.2787
▁toads	-11.279
owned	-11.2798
▁ranking	-11.2816
▁scored	-11.282
▁vik	-11.2834
▁flooding	-11.2838
▁joan	-11.2843
▁loan	-11.2843
▁feeding	-11.2847
poly	-11.2869
▁difficulty	-11.2872
▁54	-11.2884
▁tide	-11.2891
▁walked	-11.2908
tology	-11.2919
▁maybe	-11.2934
▁shoulder	-11.2947
rite	-11.2959
▁2.0	-11.2976
▁fisher	-11.2977
▁patch	-11.2991
▁nun	-11.2991
capital	-11.2996
front	-11.2996
half	-11.2996
john	-11.2998
weight	-11.2999
scale	-11.3003
itch	-11.3004
▁stu	-11.301
atch	-11.3016
titanic	-11.3021
wall	-11.3022
plant	-11.3028
party	-11.304
▁recommend	-11.3045
▁teenage	-11.3052
▁lime	-11.3056
▁critic	-11.3056
▁larva	-11.3078
anne	-11.3079
▁archimedes	-11.3081
▁arrangement	-11.3081
▁arrival	-11.3081
▁capitol	-11.3081
▁contribution	-11.3081
▁crocodiles	-11.3081
▁default	-11.3081
▁frankfurt	-11.3081
▁leibniz	-11.3081
▁luxembourg	-11.3081
▁negotiat	-11.3081
▁nephew	-11.3081
▁odysseus	-11.3081
▁skeleton	-11.3081
▁slavic	-11.3081
▁sleeves	-11.3081
▁thompson	-11.3081
▁transmission	-11.3081
▁trillion	-11.3081
▁wednesday	-11.3081
▁incident	-11.3081
▁intensity	-11.3081
▁murray	-11.3081
▁tahiti	-11.3081
▁methane	-11.3081
▁acquire	-11.3081
▁sauron	-11.3081
▁attitude	-11.3081
▁pearl	-11.3081
▁proportion	-11.3081
▁wisdom	-11.3081
▁copland	-11.3081
▁gallery	-11.3081
▁flopp	-11.3081
▁juliet	-11.3081
▁famine	-11.3081
▁abbreviation	-11.3081
▁veins	-11.3081
▁insulin	-11.3081
▁angola	-11.3081
▁isolated	-11.3081
▁linda	-11.3081
▁warrior	-11.3082
▁governorates	-11.3082
▁meteorites	-11.3082
▁radical	-11.3082
▁afford	-11.3082
precious	-11.3082
▁inverse	-11.3082
▁supernatural	-11.3082
▁generator	-11.3082
▁shelter	-11.3082
▁manual	-11.3083
▁dried	-11.3084
▁wives	-11.3084
▁birthplace	-11.3085
▁michelle	-11.3085
▁denver	-11.3085
▁stopping	-11.3088
▁tough	-11.3088
▁extract	-11.3088
▁requirement	-11.3089
▁vibration	-11.3094
▁duty	-11.3095
▁organised	-11.3096
unstable	-11.3096
▁baba	-11.3098
▁60%	-11.3101
▁1899	-11.3104
▁portable	-11.3106
▁gallon	-11.3106
▁700	-11.3107
▁laid	-11.3111
▁punished	-11.3111
▁brit	-11.3112
▁danes	-11.3113
▁andorra	-11.3115
▁stamp	-11.3116
▁mating	-11.3118
▁dissolved	-11.3119
▁divine	-11.3119
▁helpful	-11.312
bur	-11.3121
▁busy	-11.3122
ika	-11.3125
▁thanks	-11.3135
▁pile	-11.3135
▁sailing	-11.3137
▁turing	-11.314
▁humanity	-11.3143
▁installed	-11.3146
▁grid	-11.3151
▁peach	-11.3157
▁estimate	-11.3158
lux	-11.3159
▁nicknamed	-11.3159
▁advisor	-11.3165
▁crowned	-11.3169
named	-11.3196
▁darker	-11.3199
cock	-11.3201
▁granted	-11.3205
▁juan	-11.3213
▁pitcher	-11.3215
tsu	-11.3216
▁cleaning	-11.3225
▁metre	-11.3227
▁masses	-11.3233
▁hence	-11.3234
▁crude	-11.3236
▁disco	-11.3263
▁(12	-11.3271
▁reporter	-11.3283
▁helen	-11.3289
▁170	-11.329
▁eva	-11.3297
▁dev	-11.3298
▁kg	-11.3302
kill	-11.3326
icular	-11.3341
▁guan	-11.3343
▁israeli	-11.3345
natural	-11.3352
cultural	-11.3353
release	-11.3353
▁pier	-11.3357
sound	-11.3357
music	-11.336
▁jar	-11.3369
jack	-11.3374
wide	-11.3379
race	-11.3387
mega	-11.3393
▁denis	-11.3394
anarch	-11.3399
▁jay	-11.34
▁touche	-11.3405
▁armenia	-11.3409
▁realize	-11.3424
hms	-11.3431
▁abandoned	-11.3438
▁aberdeen	-11.3438
▁agencies	-11.3438
▁ambassador	-11.3438
▁approval	-11.3438
▁commerce	-11.3438
▁cosmology	-11.3438
▁cretaceous	-11.3438
▁cromwell	-11.3438
▁encyclopaedia	-11.3438
▁entrance	-11.3438
▁examination	-11.3438
▁excellent	-11.3438
▁facilities	-11.3438
▁gfdl	-11.3438
▁mascot	-11.3438
▁matrices	-11.3438
▁olympia	-11.3438
▁physician	-11.3438
▁qualities	-11.3438
▁relegated	-11.3438
▁syndrome	-11.3438
▁veteran	-11.3438
▁volunteer	-11.3438
releasing	-11.3438
▁arguing	-11.3438
▁consonant	-11.3438
▁peasants	-11.3438
▁precise	-11.3438
▁gnome	-11.3438
▁monroe	-11.3438
▁portsmouth	-11.3438
▁shrine	-11.3438
▁granite	-11.3438
▁cocoa	-11.3438
▁monaco	-11.3438
▁filter	-11.3438
▁rifle	-11.3438
▁basque	-11.3438
▁bengal	-11.3438
▁clark	-11.3439
▁incorporated	-11.3439
▁protocol	-11.3439
▁singular	-11.3439
bacter	-11.3439
▁truly	-11.3439
▁kitchen	-11.3439
▁discipline	-11.3439
cyclo	-11.3439
▁mediawiki	-11.3439
▁flew	-11.3439
▁hamburg	-11.3439
▁metallic	-11.3439
▁galicia	-11.344
▁haiti	-11.3441
▁mainstream	-11.3441
▁distribut	-11.3441
▁exam	-11.3443
▁1906	-11.3443
▁sagan	-11.3446
▁graham	-11.3446
▁weekend	-11.3446
▁tonnes	-11.3447
–17	-11.3448
▁preferred	-11.3449
▁attractive	-11.3451
▁aunt	-11.3451
▁1888	-11.3452
▁mountainous	-11.3452
▁inhabited	-11.3454
▁boom	-11.3454
▁200,000	-11.3455
▁1867	-11.3455
▁enterprise	-11.3456
▁upright	-11.3456
went	-11.3456
▁promotion	-11.3459
▁descended	-11.3459
▁marie	-11.3459
▁spacetime	-11.3459
ocene	-11.3461
happi	-11.3462
▁rick	-11.3462
▁1840	-11.3462
▁1700	-11.3462
▁developers	-11.3463
▁oak	-11.3465
▁dys	-11.3467
▁haile	-11.3471
▁stealing	-11.3476
▁curved	-11.3476
▁passion	-11.3477
▁detailed	-11.3483
▁safely	-11.3488
▁specialized	-11.3488
road	-11.35
ía	-11.3525
▁boss	-11.3526
crypt	-11.3528
▁50,000	-11.3531
bob	-11.3533
▁equally	-11.3551
▁chromosome	-11.3554
▁pupil	-11.3554
vir	-11.3554
▁interpreter	-11.3555
▁pressed	-11.3562
▁gardening	-11.3565
▁tract	-11.3571
▁receiver	-11.358
▁chris	-11.3587
utter	-11.3615
▁dated	-11.3617
▁shooter	-11.3618
ducted	-11.3657
▁0.0	-11.366
▁sul	-11.3661
▁tale	-11.3703
view	-11.3712
▁jet	-11.3717
cant	-11.3718
▁advis	-11.372
mouth	-11.3724
british	-11.3724
science	-11.3724
living	-11.3724
officially	-11.3733
bill	-11.376
,400	-11.3762
upper	-11.3765
▁convict	-11.3772
▁provinc	-11.3784
9,000	-11.3784
▁settle	-11.3787
▁transferr	-11.3789
▁brew	-11.3801
_6	-11.3803
▁compress	-11.3805
▁afghan	-11.3808
celebrity	-11.3809
pulmonary	-11.3809
▁abilities	-11.3809
▁algorithm	-11.3809
▁archipelago	-11.3809
▁budapest	-11.3809
▁ceremonies	-11.3809
▁combustion	-11.3809
▁consequence	-11.3809
▁czechoslovakia	-11.3809
▁describing	-11.3809
▁frederick	-11.3809
▁gerald	-11.3809
▁immigration	-11.3809
▁imprisoned	-11.3809
▁labrador	-11.3809
▁shinkansen	-11.3809
▁solstice	-11.3809
▁tanzania	-11.3809
▁taxonomy	-11.3809
▁wizard	-11.3809
▁zamenhof	-11.3809
▁automatically	-11.3809
▁demonstrate	-11.3809
▁ejaculate	-11.3809
▁sacrament	-11.3809
▁silicon	-11.3809
▁spontaneous	-11.3809
▁junior	-11.3809
▁pudding	-11.3809
▁tuesday	-11.3809
▁surgeon	-11.3809
▁rhode	-11.3809
▁kinetic	-11.3809
▁omaha	-11.3809
solving	-11.3809
▁sauce	-11.3809
▁cairo	-11.3809
▁session	-11.3809
encyclop	-11.3809
▁steep	-11.3809
▁pulse	-11.3809
▁oradea	-11.3809
▁ensure	-11.3809
▁elvis	-11.3809
▁goethe	-11.3809
▁transmit	-11.3809
▁laugh	-11.381
temper	-11.381
▁ethical	-11.381
pseud	-11.3811
▁shutter	-11.3812
▁marino	-11.3812
▁unfortunately	-11.3813
leigh	-11.3814
▁mosquitoes	-11.3815
▁1926	-11.3816
▁halfway	-11.3818
▁quito	-11.3818
▁1913	-11.3818
▁marlin	-11.3819
▁1915	-11.3819
▁gaul	-11.3821
▁unified	-11.3825
▁mathers	-11.3825
▁johannes	-11.3825
larry	-11.3827
▁steering	-11.3827
▁dependent	-11.3829
▁1880	-11.383
▁indies	-11.3831
▁brian	-11.3832
wich	-11.3833
▁lineup	-11.3835
▁sexuality	-11.3836
▁alex	-11.3836
▁businessman	-11.3836
▁hotter	-11.384
▁distributed	-11.3847
▁saving	-11.3848
mba	-11.385
▁recovered	-11.3866
▁seriously	-11.3869
▁kre	-11.3871
▁teen	-11.3877
▁raid	-11.3881
drums	-11.3882
kilo	-11.3883
escu	-11.3903
round	-11.3911
▁proven	-11.3911
president	-11.3928
▁tech	-11.3929
earth	-11.393
▁picked	-11.3937
▁expert	-11.3938
▁asteroid	-11.3938
▁technique	-11.3938
▁vessel	-11.3939
▁mik	-11.3953
▁shine	-11.3964
chem	-11.3968
▁dave	-11.3972
▁pretend	-11.3975
▁roc	-11.3993
bass	-11.3993
▁parr	-11.4005
▁publish	-11.4013
▁prisoner	-11.4016
▁mere	-11.4021
rage	-11.4024
rolling	-11.4036
▁$10	-11.404
suitable	-11.4051
▁emil	-11.406
▁scholar	-11.407
removing	-11.4076
▁rider	-11.4095
written	-11.4108
▁crow	-11.4112
walk	-11.4113
bank	-11.4134
▁expect	-11.4157
▁reveal	-11.4157
▁possess	-11.4174
▁impress	-11.4175
base	-11.4178
kov	-11.4179
bach	-11.418
home	-11.4189
▁shah	-11.4191
ibility	-11.4193
jurassic	-11.4193
▁aramaic	-11.4193
▁australasia	-11.4193
▁clusters	-11.4193
▁denomination	-11.4193
▁ejaculation	-11.4193
▁enlightenment	-11.4193
▁exploration	-11.4193
▁frequencies	-11.4193
▁literacy	-11.4193
▁lorentz	-11.4193
▁louvre	-11.4193
▁ludwig	-11.4193
▁manuscript	-11.4193
▁mushroom	-11.4193
▁outbreak	-11.4193
▁scurvy	-11.4193
▁sensitive	-11.4193
▁synthetic	-11.4193
▁tchaikovsky	-11.4193
▁telugu	-11.4193
▁unpopular	-11.4193
▁canterbury	-11.4193
▁coalition	-11.4193
▁delaware	-11.4193
▁emirate	-11.4193
▁phoebe	-11.4193
▁shrub	-11.4193
▁trotsky	-11.4193
▁1895	-11.4193
▁pocket	-11.4193
▁summary	-11.4193
▁monitor	-11.4193
▁nauru	-11.4193
▁nevertheless	-11.4193
▁fabric	-11.4193
▁interior	-11.4193
▁pigeon	-11.4193
▁spark	-11.4193
▁trevi	-11.4193
▁twist	-11.4193
▁cubic	-11.4193
▁polynesia	-11.4193
▁condense	-11.4193
▁motto	-11.4193
▁balkan	-11.4194
▁hanging	-11.4194
▁meanwhile	-11.4194
imagine	-11.4194
▁costume	-11.4194
▁greenwich	-11.4194
▁archaeologists	-11.4195
▁ivory	-11.4195
▁excess	-11.4195
▁alexandria	-11.4195
▁pawn	-11.4195
▁israelites	-11.4196
▁fiji	-11.4196
▁humor	-11.4197
▁theorem	-11.4197
▁seafood	-11.4197
▁1902	-11.4197
▁emmy	-11.4197
▁friendship	-11.4198
▁ryan	-11.4199
▁choir	-11.4199
▁1931	-11.4199
▁1904	-11.4199
▁prostate	-11.4199
▁hoover	-11.42
▁1907	-11.42
▁texture	-11.42
▁maize	-11.42
▁barker	-11.4201
▁observe	-11.4201
▁harsh	-11.4202
▁hook	-11.4202
▁1841	-11.4202
▁smiley	-11.4202
▁dislike	-11.4203
▁crawl	-11.4203
▁examine	-11.4203
▁1862	-11.4205
▁waterfall	-11.4205
franc	-11.4206
▁1863	-11.4206
▁expo	-11.4207
▁1868	-11.4207
▁ferry	-11.4208
▁retain	-11.421
▁barley	-11.4212
▁archaeology	-11.4213
▁campus	-11.4213
▁1812	-11.4214
▁forcing	-11.4217
▁lever	-11.4218
▁succession	-11.422
viral	-11.4221
▁annex	-11.4221
▁congo	-11.4222
▁tribute	-11.4223
▁explored	-11.4225
▁builders	-11.4236
▁transformed	-11.4237
▁marco	-11.4238
▁wounded	-11.424
benz	-11.4247
▁operated	-11.4248
▁dick	-11.4249
▁focuses	-11.4256
▁augustus	-11.4257
▁concerned	-11.4257
▁luci	-11.4258
▁formally	-11.4273
▁ross	-11.4274
▁triple	-11.43
▁lithuanian	-11.4301
▁lp	-11.4315
_9	-11.4317
▁tag	-11.4324
2,000	-11.4327
▁champion	-11.4338
▁benefit	-11.4338
▁radi	-11.4368
angel	-11.4408
uku	-11.4453
▁lover	-11.4463
eppen	-11.4477
▁alto	-11.4483
▁penn	-11.4497
songwriter	-11.4507
language	-11.4508
august	-11.4508
blood	-11.4508
child	-11.4509
▁pm	-11.4518
guard	-11.4522
▁maha	-11.4522
▁pitt	-11.453
hole	-11.4541
▁float	-11.4559
▁habit	-11.4575
▁superhero	-11.4583
have	-11.4584
abbreviat	-11.4593
aggressive	-11.4593
▁bolívar	-11.4593
▁brandenburg	-11.4593
▁bubbles	-11.4593
▁camouflage	-11.4593
▁ceremonial	-11.4593
▁compiler	-11.4593
▁confucianism	-11.4593
▁confusion	-11.4593
▁dictionaries	-11.4593
▁epidemic	-11.4593
▁gabriel	-11.4593
▁gandhi	-11.4593
▁lloyd	-11.4593
▁manitoba	-11.4593
▁multiplied	-11.4593
▁nicholas	-11.4593
▁nickelodeon	-11.4593
▁pandemic	-11.4593
▁peloponnese	-11.4593
▁percussion	-11.4593
▁pittsburgh	-11.4593
▁prehistoric	-11.4593
▁psychedeli	-11.4593
▁taipei	-11.4593
▁twentieth	-11.4593
▁uruguay	-11.4593
▁applies	-11.4593
▁boycott	-11.4593
▁charlotte	-11.4593
▁ernest	-11.4593
▁invisible	-11.4593
▁sociology	-11.4593
▁statistical	-11.4593
▁suffix	-11.4593
▁virtue	-11.4593
▁webpage	-11.4593
▁1846	-11.4593
▁convince	-11.4593
▁gollum	-11.4593
▁infrared	-11.4593
▁seventeen	-11.4593
▁compact	-11.4593
▁portrait	-11.4593
▁sensation	-11.4593
▁watson	-11.4593
▁diagram	-11.4593
▁pretty	-11.4593
▁draft	-11.4593
▁prospero	-11.4593
▁eighteen	-11.4593
▁1871	-11.4593
▁jacob	-11.4593
▁whist	-11.4593
▁scots	-11.4593
▁siberia	-11.4594
▁montana	-11.4594
▁intense	-11.4594
▁prc	-11.4594
▁thunder	-11.4594
▁initiat	-11.4595
▁maternal	-11.4595
▁drew	-11.4595
▁pipeline	-11.4595
▁tsar	-11.4595
▁sultan	-11.4595
▁circulation	-11.4595
▁evans	-11.4595
▁separation	-11.4596
▁corruption	-11.4596
legation	-11.4596
▁tibet	-11.4596
http	-11.4596
▁cult	-11.4598
▁morris	-11.4599
▁1776	-11.46
tail	-11.4601
▁sufi	-11.4602
▁foul	-11.4605
▁kcal	-11.4605
sonic	-11.4605
▁sync	-11.4606
▁bitter	-11.4606
▁oval	-11.4606
▁silt	-11.4606
▁churchill	-11.4606
▁coll	-11.4608
▁lifestyle	-11.4609
▁assumed	-11.461
▁rope	-11.4611
▁withdraw	-11.4617
▁1814	-11.4619
▁oppose	-11.4622
ár	-11.4623
▁europa	-11.4633
▁20,000	-11.4633
ibn	-11.4633
automatic	-11.4634
▁mice	-11.4638
▁boxes	-11.4644
watch	-11.4645
▁disputed	-11.4645
▁certifi	-11.4656
▁linear	-11.466
▁iraqi	-11.4685
▁clot	-11.4702
▁miller	-11.4715
▁bite	-11.4728
▁intention	-11.475
▁typ	-11.4751
▁missile	-11.4755
▁aspect	-11.4756
▁loa	-11.4805
▁sq	-11.487
▁81	-11.4901
▁mast	-11.4902
craft	-11.492
function	-11.4924
because	-11.4925
fight	-11.4925
region	-11.4927
planet	-11.493
write	-11.4934
polar	-11.4935
except	-11.4937
▁princip	-11.4942
▁brave	-11.4943
nico	-11.496
flow	-11.496
▁gill	-11.4962
▁punish	-11.4971
▁inherit	-11.4973
▁surrender	-11.4973
▁ranch	-11.4975
▁scandinavia	-11.4983
▁quit	-11.4992
▁tropic	-11.4999
▁brush	-11.5
▁specialize	-11.5003
▁capita	-11.5003
treat	-11.5005
▁500,000	-11.5009
corporate	-11.5009
voluntary	-11.501
▁administrator	-11.501
▁anatolia	-11.501
▁apartheid	-11.501
▁benedict	-11.501
▁brisbane	-11.501
▁brittany	-11.501
▁burgundy	-11.501
▁carpenter	-11.501
▁cartridge	-11.501
▁contemporary	-11.501
▁cycling	-11.501
▁descartes	-11.501
▁dwight	-11.501
▁ecosystem	-11.501
▁eiffel	-11.501
▁explosive	-11.501
▁falkland	-11.501
▁garibaldi	-11.501
▁grocery	-11.501
▁harpsichord	-11.501
▁hedgehog	-11.501
▁intellectual	-11.501
▁jewellery	-11.501
▁latitude	-11.501
▁macintosh	-11.501
▁masculine	-11.501
▁nahuatl	-11.501
▁procedure	-11.501
▁reproductive	-11.501
▁rosalyn	-11.501
▁selassie	-11.501
▁seymour	-11.501
▁shogun	-11.501
▁skull	-11.501
▁soundtrack	-11.501
▁suspect	-11.501
▁territorial	-11.501
▁transparent	-11.501
▁tuvalu	-11.501
▁underneath	-11.501
▁worried	-11.501
▁dundee	-11.501
▁newcastle	-11.501
▁belfast	-11.501
▁casual	-11.501
▁luigi	-11.501
▁mystery	-11.501
▁starvation	-11.501
▁variant	-11.501
▁cobain	-11.501
▁jungle	-11.501
▁landlocked	-11.501
▁slayer	-11.501
▁plaque	-11.501
westphalia	-11.501
▁vault	-11.501
mmanuel	-11.501
▁nineteenth	-11.501
▁superior	-11.501
▁afternoon	-11.501
▁sufism	-11.501
▁scoring	-11.501
▁aquatic	-11.501
▁auction	-11.501
▁feces	-11.501
▁fortress	-11.501
▁monopoly	-11.501
▁staple	-11.501
scular	-11.5011
▁cereal	-11.5011
▁ginger	-11.5011
ophilia	-11.5011
▁freshwater	-11.5011
▁maxwell	-11.5011
▁unhappy	-11.5012
▁babylonian	-11.5012
▁yourself	-11.5012
▁riots	-11.5012
▁literally	-11.5012
▁beetle	-11.5012
▁transit	-11.5013
▁cubs	-11.5013
▁digging	-11.5013
▁springfield	-11.5014
▁psp	-11.5015
▁revival	-11.5015
▁transformation	-11.5015
▁flock	-11.5015
▁bulb	-11.5016
▁40%	-11.5019
▁mansion	-11.5019
▁50%	-11.502
▁resist	-11.502
▁1876	-11.502
▁trent	-11.5021
▁1801	-11.5026
▁outcome	-11.5026
▁1879	-11.5026
▁restricted	-11.5026
▁gear	-11.5028
kami	-11.5029
▁klan	-11.5029
▁1830	-11.5036
▁eris	-11.5038
▁hume	-11.5039
▁leno	-11.5039
▁kiss	-11.5039
▁foreigners	-11.5042
verb	-11.5045
▁floating	-11.5046
▁rapidly	-11.5046
▁modest	-11.505
▁specialty	-11.5052
▁acidic	-11.5053
corp	-11.5053
▁cargo	-11.5054
▁3000	-11.5054
tches	-11.5055
▁objective	-11.5057
▁fallen	-11.5058
▁indus	-11.507
▁speeches	-11.5077
▁gathered	-11.508
▁surf	-11.5085
▁symbolic	-11.5089
▁baden	-11.5091
tana	-11.5111
▁witch	-11.5124
▁pushe	-11.5125
▁rape	-11.5137
gye	-11.5139
▁relate	-11.5153
▁cookie	-11.5164
cross	-11.5179
▁lou	-11.5182
early	-11.519
▁shar	-11.5191
▁pine	-11.5195
▁vibrate	-11.525
▁dj	-11.5259
▁mongolia	-11.5274
maid	-11.5275
▁teache	-11.5304
▁seiz	-11.533
▁replac	-11.5349
member	-11.5355
▁pose	-11.5355
food	-11.5355
pokémon	-11.5359
communist	-11.5359
distance	-11.536
guitar	-11.536
muslim	-11.536
woman	-11.536
soft	-11.5375
small	-11.5379
space	-11.5387
aryan	-11.5405
▁succeed	-11.5408
▁tara	-11.5425
▁assembl	-11.5433
▁sculpt	-11.5444
immediate	-11.5444
constellation	-11.5445
▁afrikaans	-11.5445
▁aguilera	-11.5445
▁anglican	-11.5445
▁compilation	-11.5445
▁condemned	-11.5445
▁constantinople	-11.5445
▁dragonflies	-11.5445
▁eleanor	-11.5445
▁feminine	-11.5445
▁genocide	-11.5445
▁gorillas	-11.5445
▁grunge	-11.5445
▁habsburg	-11.5445
▁hereditary	-11.5445
▁humanitarian	-11.5445
▁liberia	-11.5445
▁lymphocyte	-11.5445
▁minimum	-11.5445
▁miscarriage	-11.5445
▁retirement	-11.5445
▁survival	-11.5445
▁ventricle	-11.5445
▁amateur	-11.5445
▁aphrodite	-11.5445
▁commemorat	-11.5445
▁dharma	-11.5445
▁dresden	-11.5445
▁economist	-11.5445
▁pinochet	-11.5445
▁refrigerator	-11.5445
▁turbine	-11.5445
▁1795	-11.5445
▁handheld	-11.5445
▁scatter	-11.5445
▁sherlock	-11.5445
▁abdul	-11.5445
▁recipe	-11.5445
▁shinto	-11.5445
▁electrolyte	-11.5445
▁arteries	-11.5445
▁martian	-11.5445
▁narrat	-11.5445
▁antonio	-11.5445
▁sponge	-11.5445
▁cancelled	-11.5445
▁uprising	-11.5445
▁medina	-11.5445
▁balloon	-11.5445
▁comedies	-11.5445
▁carved	-11.5445
▁ankara	-11.5445
▁limestone	-11.5445
▁transplant	-11.5445
▁combat	-11.5445
▁reincarnation	-11.5445
▁stolen	-11.5446
▁injuries	-11.5446
▁shallow	-11.5446
▁admitted	-11.5446
tommy	-11.5446
▁inauguration	-11.5446
▁terror	-11.5447
▁midnight	-11.5447
▁socks	-11.5449
_10	-11.545
▁athena	-11.545
▁retail	-11.545
▁burial	-11.5451
▁organize	-11.5451
▁brun	-11.5452
▁disagreement	-11.5452
▁sharia	-11.5452
▁stability	-11.5453
▁1927	-11.5454
▁quran	-11.5455
▁treaties	-11.5455
▁blackmore	-11.5455
minster	-11.5457
▁boil	-11.5459
▁95%	-11.5459
raising	-11.5461
▁pupa	-11.5462
▁grace	-11.5463
▁barber	-11.5463
▁erupted	-11.5463
▁bonn	-11.5465
▁recognised	-11.5466
▁oath	-11.5466
▁armor	-11.5467
▁diver	-11.5469
▁coldest	-11.5472
▁payment	-11.5473
▁till	-11.5474
menstrua	-11.5476
▁densely	-11.548
▁armenian	-11.548
▁lutheran	-11.5481
▁heroes	-11.5482
▁representation	-11.5482
▁ruby	-11.5484
▁warren	-11.5485
▁barry	-11.5487
▁safer	-11.5487
▁perfectly	-11.5489
collective	-11.5505
▁kane	-11.5505
▁hire	-11.5518
▁indonesian	-11.552
▁geological	-11.5527
▁pace	-11.5533
itude	-11.5533
coding	-11.5537
▁eritrean	-11.556
▁jade	-11.5608
▁commissioner	-11.5616
▁occasion	-11.5642
▁physicist	-11.5645
residential	-11.565
▁steppe	-11.5671
▁350	-11.5697
▁leon	-11.5732
wald	-11.574
link	-11.5766
▁oppos	-11.5802
istence	-11.5803
soccer	-11.5814
hungary	-11.5814
particle	-11.5814
screen	-11.5814
famous	-11.5814
▁ssr	-11.5815
those	-11.5815
lived	-11.5816
ground	-11.5817
around	-11.5832
,700	-11.5839
▁accus	-11.5867
▁approve	-11.5875
▁declare	-11.5875
corn	-11.5877
▁favour	-11.5897
▁alkali	-11.5897
▁occupy	-11.5899
▁unsuccessful	-11.5899
bratwurst	-11.5899
fantastic	-11.5899
ficiency	-11.5899
▁abundant	-11.5899
▁antibodies	-11.5899
▁aquitaine	-11.5899
▁aristocrat	-11.5899
▁baltimore	-11.5899
▁bristol	-11.5899
▁buffalo	-11.5899
▁certificate	-11.5899
▁competitive	-11.5899
▁dialogue	-11.5899
▁dividing	-11.5899
▁dynasties	-11.5899
▁economies	-11.5899
▁elliptical	-11.5899
▁fertilizer	-11.5899
▁furniture	-11.5899
▁gregory	-11.5899
▁hiroshima	-11.5899
▁irregular	-11.5899
▁jewelry	-11.5899
▁katrina	-11.5899
▁manslaughter	-11.5899
▁ministry	-11.5899
▁morocco	-11.5899
▁necessarily	-11.5899
▁opportunity	-11.5899
▁pythagorean	-11.5899
▁saskatchewan	-11.5899
▁tajikistan	-11.5899
▁thessaloniki	-11.5899
▁tolkien	-11.5899
▁trigonometr	-11.5899
▁versailles	-11.5899
▁wichita	-11.5899
▁winfrey	-11.5899
▁attorney	-11.5899
▁brahman	-11.5899
▁companion	-11.5899
▁gamecube	-11.5899
▁removal	-11.5899
▁saigon	-11.5899
▁chlorine	-11.5899
▁defect	-11.5899
▁monkeys	-11.5899
▁essex	-11.5899
▁jerry	-11.5899
▁algae	-11.5899
▁lawsuit	-11.5899
▁haydn	-11.5899
▁oriental	-11.5899
▁vomit	-11.5899
▁antenna	-11.5899
▁secure	-11.5899
▁sweat	-11.5899
▁barrel	-11.5899
▁kirk	-11.5899
▁fortune	-11.5899
▁partially	-11.5899
▁sopron	-11.5899
▁trench	-11.5899
▁essay	-11.5899
▁bosnia	-11.59
▁physiology	-11.59
▁topeka	-11.59
renewable	-11.59
▁lucas	-11.59
▁inject	-11.59
▁indigo	-11.59
nineteen	-11.59
▁compass	-11.59
▁crazy	-11.59
▁intestine	-11.59
▁municipality	-11.5901
▁cardboard	-11.5901
▁denied	-11.5901
▁plantations	-11.5901
▁lanka	-11.5901
▁kevin	-11.5902
▁wallace	-11.5902
▁minorities	-11.5902
▁infantry	-11.5903
▁pigment	-11.5904
▁occurring	-11.5904
▁operator	-11.5905
▁jeff	-11.5905
▁betting	-11.5905
▁addiction	-11.5906
▁fool	-11.5906
▁rhineland	-11.5908
▁attribute	-11.5909
▁moore	-11.5909
▁stack	-11.5909
▁anderson	-11.5909
▁sickness	-11.591
▁1916	-11.5911
▁tuba	-11.5912
feld	-11.5913
▁1858	-11.5913
▁vital	-11.5914
▁brazilian	-11.5915
▁1864	-11.5915
▁repel	-11.5915
▁healing	-11.5916
▁oslo	-11.5916
▁gdr	-11.5916
▁plent	-11.5917
▁subway	-11.592
▁traders	-11.5924
▁rover	-11.5924
▁samu	-11.5926
▁seine	-11.5928
▁+1	-11.5932
loaded	-11.5949
▁graphical	-11.5963
▁bile	-11.5969
▁crab	-11.5971
hacker	-11.5984
▁contraction	-11.601
▁pond	-11.6011
0.1	-11.6058
▁bike	-11.6093
▁socio	-11.611
▁invad	-11.6122
▁nik	-11.6122
▁serf	-11.6144
50,000	-11.615
operation	-11.6188
odor	-11.6203
▁rash	-11.6228
▁gag	-11.6232
▁tear	-11.6265
plural	-11.629
japanese	-11.629
january	-11.629
video	-11.629
brother	-11.6296
virus	-11.6304
▁surround	-11.6305
march	-11.6318
migrated	-11.6335
▁atmospher	-11.6343
product	-11.6349
▁emergenc	-11.6359
▁sudden	-11.6361
▁flee	-11.6365
▁busie	-11.6371
▁alexandr	-11.6373
▁pursu	-11.6375
▁accelerate	-11.6375
▁alliteration	-11.6375
▁claude	-11.6375
▁confederation	-11.6375
▁constituent	-11.6375
▁copernicus	-11.6375
▁coventry	-11.6375
▁derivative	-11.6375
▁genghis	-11.6375
▁glastonbury	-11.6375
▁gutenberg	-11.6375
▁halloween	-11.6375
▁hepatitis	-11.6375
▁hippopotamus	-11.6375
▁judicial	-11.6375
▁knives	-11.6375
▁legitimate	-11.6375
▁mumbai	-11.6375
▁nesmith	-11.6375
▁nirvana	-11.6375
▁patriarch	-11.6375
▁peugeot	-11.6375
▁playwright	-11.6375
▁reindeer	-11.6375
▁revenue	-11.6375
▁scrotum	-11.6375
▁segregation	-11.6375
▁smurf	-11.6375
▁strategy	-11.6375
▁suicidal	-11.6375
▁supplied	-11.6375
▁enhance	-11.6375
▁igneous	-11.6375
▁intervention	-11.6375
▁jargon	-11.6375
▁piedmont	-11.6375
▁pistol	-11.6375
▁rabbit	-11.6375
▁salvation	-11.6375
▁botany	-11.6375
▁clinical	-11.6375
▁disciple	-11.6375
▁knock	-11.6375
▁shingles	-11.6375
▁sicily	-11.6375
▁bloom	-11.6375
▁remake	-11.6375
▁restoration	-11.6375
▁racism	-11.6375
▁ideology	-11.6375
▁regain	-11.6375
▁farthest	-11.6375
▁fungus	-11.6375
▁tudor	-11.6375
▁rodents	-11.6376
▁simplified	-11.6376
▁ulster	-11.6376
▁lunch	-11.6376
▁watershed	-11.6376
▁catalan	-11.6376
▁restrictions	-11.6376
▁linus	-11.6376
▁trauma	-11.6376
▁minus	-11.6376
▁pathogen	-11.6376
▁pluck	-11.6376
▁consul	-11.6376
▁remind	-11.6376
▁jolie	-11.6376
▁receptors	-11.6376
cfb	-11.6376
▁resembl	-11.6376
▁petersburg	-11.6377
▁guiana	-11.6377
▁utc	-11.6377
maritime	-11.6377
▁captiv	-11.6378
▁tripoli	-11.6378
▁rotate	-11.6378
▁alkaline	-11.6378
▁cheney	-11.6378
▁kelly	-11.6378
▁responsibility	-11.6378
▁perception	-11.6379
▁sitcom	-11.6379
▁summit	-11.6379
deutsch	-11.6379
▁robber	-11.6379
▁impos	-11.638
oriented	-11.6381
cardiac	-11.6381
▁1200	-11.6382
▁marble	-11.6382
▁blast	-11.6382
▁tamil	-11.6382
▁1492	-11.6383
▁belarusian	-11.6383
▁collaboration	-11.6383
▁toilet	-11.6384
▁gallen	-11.6385
▁monty	-11.6386
▁1789	-11.6387
▁iphone	-11.6388
▁diana	-11.639
▁1066	-11.639
▁membership	-11.6391
▁slim	-11.6392
▁rangers	-11.6392
▁1892	-11.6392
▁crest	-11.6396
▁1885	-11.6397
▁motorway	-11.6402
▁1815	-11.6406
▁brighton	-11.6407
▁burst	-11.641
▁1820	-11.6415
odore	-11.642
▁freezer	-11.6426
dark	-11.643
logical	-11.6442
▁nash	-11.6449
▁bench	-11.645
▁ioniz	-11.6489
▁aeg	-11.6513
donkey	-11.6518
▁$20	-11.6536
▁samba	-11.6562
dental	-11.662
▁dolphin	-11.6621
▁predator	-11.6621
▁resource	-11.6622
▁fiber	-11.6648
▁uncertain	-11.6732
300,000	-11.6742
public	-11.6785
fruit	-11.679
finding	-11.679
physical	-11.679
government	-11.679
special	-11.679
april	-11.6791
short	-11.6792
wiki	-11.6795
▁rebuild	-11.6798
_8	-11.6803
▁900	-11.6821
▁appoint	-11.684
▁consume	-11.6843
▁attach	-11.6844
▁sami	-11.6851
▁recognise	-11.6851
▁announce	-11.6852
▁criticize	-11.6852
▁architectur	-11.6861
▁retir	-11.6866
▁glaci	-11.6871
▁corrupt	-11.6872
▁michel	-11.6872
▁inaugura	-11.6873
▁suv	-11.6873
filipino	-11.6875
privilege	-11.6875
▁achilles	-11.6875
▁anxiety	-11.6875
▁apprentice	-11.6875
▁aquarium	-11.6875
▁aragorn	-11.6875
▁arnhem	-11.6875
▁biodiversity	-11.6875
▁brussels	-11.6875
▁composing	-11.6875
▁configur	-11.6875
▁confucius	-11.6875
▁contradict	-11.6875
▁degeneres	-11.6875
▁doctrine	-11.6875
▁edmonton	-11.6875
▁eliminat	-11.6875
▁embedded	-11.6875
▁erosion	-11.6875
▁guarantee	-11.6875
▁inspiration	-11.6875
▁jubilee	-11.6875
▁lesotho	-11.6875
▁marijuana	-11.6875
▁masturbate	-11.6875
▁mesopotamia	-11.6875
▁monastery	-11.6875
▁occurrence	-11.6875
▁possibility	-11.6875
▁profanity	-11.6875
▁qualified	-11.6875
▁secular	-11.6875
▁squeez	-11.6875
▁stuttgart	-11.6875
▁sutherland	-11.6875
▁tattoo	-11.6875
▁tributaries	-11.6875
palatinate	-11.6875
▁lecture	-11.6875
▁cassini	-11.6875
▁gaelic	-11.6875
▁houston	-11.6875
▁surrey	-11.6875
▁choosing	-11.6875
▁ebola	-11.6875
▁freak	-11.6875
▁licence	-11.6875
▁dementia	-11.6875
▁gasoline	-11.6875
▁kidman	-11.6875
▁polygon	-11.6875
▁sierra	-11.6875
▁mankind	-11.6875
▁firearm	-11.6875
▁flanders	-11.6875
▁creole	-11.6875
▁auckland	-11.6875
▁blank	-11.6875
▁archaea	-11.6875
▁ovum	-11.6875
▁barrier	-11.6875
▁lorenz	-11.6875
▁spores	-11.6876
piracy	-11.6876
▁toyota	-11.6876
▁aksum	-11.6876
▁improving	-11.6876
▁reef	-11.6876
▁violate	-11.6876
▁overdose	-11.6876
▁toxins	-11.6876
▁galactic	-11.6876
▁dickens	-11.6876
▁urine	-11.6876
▁framework	-11.6876
▁dozen	-11.6876
▁armour	-11.6877
▁colonized	-11.6877
▁trapped	-11.6877
▁inertia	-11.6878
▁tanner	-11.6878
▁nicola	-11.6878
▁tribal	-11.6878
▁broadway	-11.6878
▁subtraction	-11.6878
▁url	-11.6878
▁andreas	-11.6879
▁comparative	-11.6879
▁sovereignty	-11.6879
▁blend	-11.688
▁accidentally	-11.688
▁oboe	-11.6881
▁glaciers	-11.6881
▁strand	-11.6881
chlori	-11.6882
▁retreat	-11.6882
▁alien	-11.6882
▁documentary	-11.6883
▁prix	-11.6884
▁admit	-11.6885
▁jedi	-11.6886
▁1836	-11.6886
▁quest	-11.6886
▁monarchies	-11.6886
▁merry	-11.6887
▁brushes	-11.6887
▁overview	-11.6887
▁superheroes	-11.6888
▁grandson	-11.6888
▁cement	-11.6888
employed	-11.6889
▁1854	-11.6889
▁voters	-11.6889
▁sharon	-11.6889
▁macau	-11.689
▁elite	-11.689
▁tablets	-11.6891
▁1884	-11.6892
▁30%	-11.6892
▁1886	-11.6893
▁oliver	-11.6894
▁1400	-11.6895
▁1894	-11.6896
▁difficulties	-11.6896
▁impression	-11.6899
winning	-11.6905
▁distinction	-11.6905
▁laura	-11.6907
▁1,0	-11.694
egg	-11.6946
▁novelist	-11.6957
▁spade	-11.6958
▁flora	-11.6977
▁drown	-11.701
still	-11.704
ovich	-11.7125
borg	-11.7142
▁dinosaur	-11.7148
lactic	-11.7169
evita	-11.7171
family	-11.7199
▁sacrifice	-11.7264
official	-11.7302
present	-11.7312
girl	-11.7316
economic	-11.7317
negative	-11.7317
yellow	-11.7317
system	-11.7317
february	-11.7317
energy	-11.7317
modern	-11.7317
origin	-11.7317
punk	-11.7324
shore	-11.7326
finger	-11.7328
boot	-11.7335
▁construct	-11.7361
frame	-11.7363
▁accord	-11.7368
▁execute	-11.7378
▁respirat	-11.7398
ggy	-11.74
aerobic	-11.7402
quisition	-11.7402
▁aerospace	-11.7402
▁amundsen	-11.7402
▁appropriate	-11.7402
▁benjamin	-11.7402
▁bismarck	-11.7402
▁bratislava	-11.7402
▁burundi	-11.7402
▁cervix	-11.7402
▁chelmsford	-11.7402
▁consumption	-11.7402
▁conversation	-11.7402
▁cultivated	-11.7402
▁democracies	-11.7402
▁etymology	-11.7402
▁exploring	-11.7402
▁fascist	-11.7402
▁fertilization	-11.7402
▁firefighters	-11.7402
▁fountain	-11.7402
▁hobbies	-11.7402
▁hungry	-11.7402
▁hypothesis	-11.7402
▁illustrate	-11.7402
▁infringement	-11.7402
▁metamorphosis	-11.7402
▁monsoon	-11.7402
▁predecessor	-11.7402
▁primates	-11.7402
▁privacy	-11.7402
▁ptolemy	-11.7402
▁resolve	-11.7402
▁screwtape	-11.7402
▁senegal	-11.7402
▁sikkim	-11.7402
▁stockhausen	-11.7402
▁subspecies	-11.7402
▁supplement	-11.7402
▁technologies	-11.7402
▁testosterone	-11.7402
▁ultimately	-11.7402
▁vaccinated	-11.7402
▁yeovil	-11.7402
osaurus	-11.7402
▁atlantis	-11.7402
▁buckingham	-11.7402
▁café	-11.7402
▁calgary	-11.7402
▁computing	-11.7402
▁dhabi	-11.7402
▁friction	-11.7402
▁friesland	-11.7402
▁genome	-11.7402
▁katherine	-11.7402
▁nobility	-11.7402
▁smash	-11.7402
cosmological	-11.7402
▁bachelor	-11.7402
▁elastic	-11.7402
▁pixar	-11.7402
▁prairie	-11.7402
▁sediment	-11.7402
▁violation	-11.7402
▁woodwind	-11.7402
▁harmony	-11.7402
▁landslide	-11.7402
▁sumerian	-11.7402
▁dijon	-11.7402
▁silent	-11.7402
▁dudley	-11.7402
▁extent	-11.7402
▁1803	-11.7402
▁disabled	-11.7402
▁gambia	-11.7402
▁preaching	-11.7402
eolithic	-11.7402
▁1891	-11.7402
▁frost	-11.7402
▁bleach	-11.7402
▁metaphysics	-11.7402
▁canberra	-11.7402
▁kyiv	-11.7402
▁restore	-11.7402
▁biochemistry	-11.7402
▁covid	-11.7402
▁nebula	-11.7402
▁ultra	-11.7402
bounty	-11.7402
▁monsters	-11.7402
bourne	-11.7402
▁bueno	-11.7402
▁optics	-11.7402
▁entry	-11.7402
▁spectr	-11.7402
▁lowlands	-11.7403
▁mantle	-11.7403
▁arcade	-11.7403
▁veto	-11.7403
▁clerk	-11.7403
▁apostle	-11.7403
▁cnn	-11.7403
▁casino	-11.7403
▁praised	-11.7403
▁henson	-11.7403
▁closing	-11.7403
▁moresnet	-11.7404
▁voa	-11.7404
▁thermal	-11.7404
▁transsexual	-11.7404
▁saliva	-11.7404
▁pardon	-11.7404
▁dawn	-11.7405
▁gibb	-11.7405
▁arose	-11.7405
▁ongoing	-11.7405
▁toledo	-11.7405
▁solomon	-11.7405
▁ellen	-11.7406
▁bernard	-11.7407
▁exhibition	-11.7407
▁pursuit	-11.7407
▁linguistic	-11.7407
▁legendary	-11.7409
▁gillan	-11.7409
▁gentle	-11.7409
▁galilei	-11.7409
▁queensland	-11.741
▁onwards	-11.7411
▁ipv	-11.7411
▁involvement	-11.7413
▁unclear	-11.7414
▁1783	-11.7415
▁cataly	-11.7415
▁pune	-11.7416
▁semitic	-11.7416
▁1797	-11.7417
▁farmland	-11.7418
▁static	-11.742
▁glam	-11.742
▁1875	-11.7421
harmonic	-11.7422
▁1878	-11.7423
_22	-11.7423
▁glow	-11.7424
▁suggestion	-11.7452
▁jacket	-11.7494
▁emotion	-11.7592
fast	-11.7652
ocean	-11.7664
▁creature	-11.7703
▁characteristic	-11.771
▁relat	-11.7725
▁separat	-11.7867
stream	-11.7868
evolution	-11.7871
html	-11.7871
hungarian	-11.7872
wheel	-11.7872
chief	-11.7872
district	-11.7872
private	-11.7872
writing	-11.7872
wrote	-11.7872
equal	-11.7872
arabic	-11.7872
school	-11.7872
growing	-11.7872
▁cease	-11.7876
common	-11.7876
▁complet	-11.7888
storm	-11.7889
legal	-11.7895
genetic	-11.7923
▁engage	-11.7933
▁antarctic	-11.7943
▁mosquito	-11.7947
▁addict	-11.795
▁dispos	-11.7952
▁ancestr	-11.7955
plasmodium	-11.7957
▁admiral	-11.7957
▁altogether	-11.7957
▁aluminum	-11.7957
▁anthony	-11.7957
▁appreciate	-11.7957
▁archduke	-11.7957
▁artillery	-11.7957
▁assassinated	-11.7957
▁bauxite	-11.7957
▁berkeley	-11.7957
▁celebrities	-11.7957
▁competitor	-11.7957
▁contraception	-11.7957
▁cyanide	-11.7957
▁embassy	-11.7957
▁emphasis	-11.7957
▁equinox	-11.7957
▁eswatini	-11.7957
▁eukaryote	-11.7957
▁footwear	-11.7957
▁giovanni	-11.7957
▁harvard	-11.7957
▁helicopter	-11.7957
▁herodotus	-11.7957
▁intermediate	-11.7957
▁irrational	-11.7957
▁jewels	-11.7957
▁monotheistic	-11.7957
▁mozilla	-11.7957
▁pancrea	-11.7957
▁paradigm	-11.7957
▁pilgrimage	-11.7957
▁pompey	-11.7957
▁prohibit	-11.7957
▁quartet	-11.7957
▁redshift	-11.7957
▁santiago	-11.7957
▁spielberg	-11.7957
▁stonehenge	-11.7957
▁suppress	-11.7957
▁tendency	-11.7957
▁thanksgiving	-11.7957
▁vulnerable	-11.7957
▁zappa	-11.7957
▁laptop	-11.7957
▁lymph	-11.7957
▁parody	-11.7957
▁peanut	-11.7957
▁revenge	-11.7957
▁theatrical	-11.7957
▁trilogy	-11.7957
▁trophy	-11.7957
▁nomadic	-11.7957
▁puzzle	-11.7957
▁struck	-11.7957
▁encounter	-11.7957
▁paradise	-11.7957
moldova	-11.7957
▁meditation	-11.7957
▁remote	-11.7957
▁cerebr	-11.7957
▁drought	-11.7957
▁paige	-11.7957
▁pinyin	-11.7957
▁widow	-11.7957
▁worry	-11.7957
dormant	-11.7957
thimble	-11.7957
▁connery	-11.7957
▁mercedes	-11.7957
▁stanton	-11.7957
▁enslave	-11.7957
▁gamma	-11.7957
▁rpg	-11.7957
▁rumors	-11.7957
▁scheme	-11.7957
▁heinrich	-11.7957
▁sustain	-11.7957
▁sacked	-11.7957
▁tolerance	-11.7957
▁conifer	-11.7957
▁slavs	-11.7957
▁celts	-11.7957
▁josé	-11.7958
▁drake	-11.7958
▁johannesburg	-11.7958
▁pedro	-11.7958
▁scones	-11.7958
▁telegraph	-11.7958
▁boost	-11.7958
▁retrieve	-11.7958
▁colonization	-11.7958
▁wellington	-11.7958
▁heredity	-11.7958
▁spike	-11.7959
▁heinz	-11.7959
▁fraud	-11.7959
stellar	-11.7959
▁knee	-11.7959
▁doroth	-11.7959
▁warships	-11.7959
▁curtain	-11.7959
▁oromo	-11.7959
▁fidel	-11.796
▁manufacturers	-11.796
▁ocd	-11.796
▁uncommon	-11.7961
▁dynamics	-11.7961
▁lampard	-11.7962
▁worms	-11.7962
▁enforcement	-11.7962
▁tumor	-11.7962
▁retina	-11.7962
▁cocaine	-11.7962
▁opium	-11.7962
▁hanover	-11.7963
▁faithful	-11.7963
▁wonderful	-11.7963
▁principality	-11.7963
▁colonel	-11.7963
▁rowling	-11.7964
merging	-11.7965
▁1536	-11.7966
▁carlos	-11.7966
▁rivalry	-11.7967
▁concertos	-11.7967
▁invaders	-11.7967
▁dough	-11.7969
▁bubo	-11.7969
▁agnostics	-11.797
▁grams	-11.797
▁baking	-11.7971
bayern	-11.7976
scape	-11.7977
ritz	-11.7998
▁emigrat	-11.8005
▁drove	-11.8012
running	-11.8024
▁drag	-11.8092
observable	-11.8151
lunar	-11.8194
faust	-11.8216
bearing	-11.8255
▁georg	-11.8321
▁2.5	-11.8381
▁plac	-11.8391
▁recogniz	-11.8414
ridge	-11.8458
buffy	-11.846
profit	-11.846
object	-11.846
french	-11.8461
simple	-11.8461
hydro	-11.8461
summer	-11.8461
control	-11.8461
brown	-11.8461
normal	-11.8463
classical	-11.8464
someone	-11.8465
office	-11.8468
toxic	-11.8501
ennis	-11.8507
▁assume	-11.8522
▁apparent	-11.8531
▁approximate	-11.8531
▁exhibit	-11.854
▁autonom	-11.8544
amyloid	-11.8545
gaddafi	-11.8545
▁antipsychotic	-11.8545
▁antiquity	-11.8545
▁autobiography	-11.8545
▁baghdad	-11.8545
▁biblical	-11.8545
▁brilliant	-11.8545
▁catalonia	-11.8545
▁commuter	-11.8545
▁compulsory	-11.8545
▁congregation	-11.8545
▁corrosion	-11.8545
▁diplomacy	-11.8545
▁disabilities	-11.8545
▁emission	-11.8545
▁erfurt	-11.8545
▁escaping	-11.8545
▁evaporate	-11.8545
▁familiar	-11.8545
▁floyd	-11.8545
▁grandparents	-11.8545
▁guernsey	-11.8545
▁hispaniola	-11.8545
▁imagination	-11.8545
▁interrupt	-11.8545
▁invertebrate	-11.8545
▁messiah	-11.8545
▁metallurgy	-11.8545
▁miracle	-11.8545
▁miranda	-11.8545
▁navigation	-11.8545
▁ocarina	-11.8545
▁quechua	-11.8545
▁reinforce	-11.8545
▁rudolf	-11.8545
▁sebastian	-11.8545
▁siddharth	-11.8545
▁smelt	-11.8545
▁subcontinent	-11.8545
▁survivor	-11.8545
▁tortoise	-11.8545
▁tragedy	-11.8545
▁vulgar	-11.8545
▁wolfgang	-11.8545
▁wollstonecraft	-11.8545
apocrypha	-11.8545
▁additive	-11.8545
▁cottage	-11.8545
▁midfielder	-11.8545
▁moksha	-11.8545
▁ozone	-11.8545
▁perceive	-11.8545
▁pippin	-11.8545
▁recruit	-11.8545
▁ziggy	-11.8545
▁hybrid	-11.8545
▁lisbon	-11.8545
▁castrated	-11.8545
▁celesti	-11.8545
▁endemic	-11.8545
▁hobby	-11.8545
▁statute	-11.8545
▁striking	-11.8545
▁beneath	-11.8545
▁comprise	-11.8545
▁trinity	-11.8545
▁dolenz	-11.8545
▁hunger	-11.8545
▁fonda	-11.8545
▁decree	-11.8545
▁petition	-11.8545
▁vacation	-11.8545
▁acknowledge	-11.8546
▁vasari	-11.8546
▁clever	-11.8546
▁hispanic	-11.8546
▁niece	-11.8546
▁prepositions	-11.8546
▁optical	-11.8546
▁1881	-11.8546
▁worshipped	-11.8546
referendum	-11.8546
▁deacon	-11.8546
▁crucifi	-11.8546
▁honest	-11.8546
▁abroad	-11.8546
▁geometric	-11.8546
▁spouse	-11.8546
▁bundle	-11.8546
▁foreskin	-11.8546
▁parishes	-11.8546
▁limitations	-11.8546
▁stuart	-11.8546
▁canopy	-11.8546
▁refine	-11.8546
▁basil	-11.8546
▁gilbert	-11.8546
▁bounce	-11.8547
▁doyle	-11.8547
▁pension	-11.8547
▁scarcity	-11.8547
▁consciousness	-11.8547
holstein	-11.8547
▁vermont	-11.8547
▁edwin	-11.8548
▁colonists	-11.8548
▁bugs	-11.8548
▁canaan	-11.8548
▁partnership	-11.8548
▁blond	-11.8549
▁voltage	-11.8549
▁vanilla	-11.8549
▁ballroom	-11.8549
romanesque	-11.8549
▁transmitter	-11.8549
▁castile	-11.855
▁babylon	-11.855
▁charities	-11.855
▁fuji	-11.855
▁establishment	-11.855
▁shiny	-11.8551
▁nordic	-11.8551
threatening	-11.8551
▁serial	-11.8552
▁pierce	-11.8552
▁thinner	-11.8553
▁font	-11.8553
▁blanc	-11.8554
▁sahel	-11.8556
▁canyon	-11.8556
▁silicate	-11.8562
▁susan	-11.8581
▁salmon	-11.8583
▁insert	-11.8595
▁denote	-11.8604
▁rené	-11.8622
governing	-11.863
mutual	-11.8633
close	-11.8748
fancy	-11.8782
▁observ	-11.8806
▁faint	-11.8836
morphi	-11.8851
▁vertebrate	-11.8916
▁kilometre	-11.8917
▁kilometer	-11.8917
▁biologist	-11.8921
▁receiv	-11.8951
▁injur	-11.8969
detective	-11.9026
eastern	-11.9073
length	-11.9085
respect	-11.9085
spirit	-11.9085
linux	-11.9085
religious	-11.9085
september	-11.9086
soviet	-11.9086
changing	-11.9086
dutch	-11.9086
support	-11.9086
before	-11.9086
royal	-11.9086
period	-11.9087
1995	-11.9088
▁infect	-11.9131
▁descend	-11.9133
▁confirm	-11.9134
▁galile	-11.9154
▁organise	-11.9155
▁leonard	-11.9162
▁predominant	-11.917
electromagnetism	-11.917
odyssey	-11.917
▁accompanie	-11.917
▁adelaide	-11.917
▁albinism	-11.917
▁arawak	-11.917
▁assumption	-11.917
▁auxiliar	-11.917
▁avocado	-11.917
▁bangladesh	-11.917
▁botanical	-11.917
▁carnivores	-11.917
▁cemetery	-11.917
▁coconut	-11.917
▁constitute	-11.917
▁conversion	-11.917
▁cosmic	-11.917
▁cuckoo	-11.917
▁cytokine	-11.917
▁destructive	-11.917
▁diocese	-11.917
▁eskimo	-11.917
▁estuary	-11.917
▁etruscan	-11.917
▁exhaust	-11.917
▁exodus	-11.917
▁fertilise	-11.917
▁fossey	-11.917
▁frighten	-11.917
▁gigabyte	-11.917
▁hygiene	-11.917
▁immunization	-11.917
▁jennifer	-11.917
▁karnataka	-11.917
▁kutcher	-11.917
▁paraguay	-11.917
▁pomerania	-11.917
▁pradesh	-11.917
▁prescription	-11.917
▁rectangular	-11.917
▁revelation	-11.917
▁ritchie	-11.917
▁romulus	-11.917
▁screenwriter	-11.917
▁strategic	-11.917
▁structural	-11.917
▁synesthesia	-11.917
▁syracuse	-11.917
▁systole	-11.917
▁transylvania	-11.917
▁treasury	-11.917
▁vegetation	-11.917
▁volapük	-11.917
▁yiddish	-11.917
▁yokohama	-11.917
▁yugoslavia	-11.917
▁analyze	-11.917
▁capturing	-11.917
▁cryptography	-11.917
▁excavat	-11.917
▁helmet	-11.917
▁mecklenburg	-11.917
▁microwave	-11.917
▁militant	-11.917
▁sunshine	-11.917
▁swear	-11.917
▁yahoo	-11.917
▁anarchists	-11.917
▁asbestos	-11.917
▁devotion	-11.917
▁dismiss	-11.917
▁ferrari	-11.917
▁joseon	-11.917
▁lifeboat	-11.917
▁lyndon	-11.917
▁unfair	-11.917
triassic	-11.917
▁herschel	-11.917
▁philosophies	-11.917
▁revised	-11.917
▁seminary	-11.917
▁terminology	-11.917
▁tulsa	-11.917
▁ecological	-11.917
▁vincent	-11.917
▁anarchism	-11.917
▁deputy	-11.917
▁taoism	-11.917
▁drift	-11.917
▁dualism	-11.917
▁inequality	-11.917
▁clump	-11.917
▁xenon	-11.9171
▁cacti	-11.9171
▁exeter	-11.9171
▁scalar	-11.9171
▁dentist	-11.9171
▁saxe	-11.9171
état	-11.9171
▁indicator	-11.9171
thriller	-11.9171
▁debian	-11.9171
▁gustav	-11.9171
▁pulp	-11.9171
▁manila	-11.9171
▁carving	-11.9171
▁harass	-11.9171
▁inorganic	-11.9171
voked	-11.9171
▁evaluat	-11.9171
www	-11.9171
▁pedophiles	-11.9171
wrapped	-11.9171
▁nominal	-11.9171
▁austro	-11.9172
implicit	-11.9172
▁clockwork	-11.9172
▁girlfriend	-11.9172
▁owen	-11.9172
▁preference	-11.9172
facade	-11.9172
oprah	-11.9172
▁rebelled	-11.9173
▁upwards	-11.9173
▁chuck	-11.9173
▁nitrate	-11.9173
▁ellis	-11.9173
▁fishermen	-11.9173
▁feedback	-11.9173
▁breakdown	-11.9174
▁glory	-11.9174
▁favourite	-11.9174
▁disability	-11.9174
▁acres	-11.9175
▁hague	-11.9175
▁banner	-11.9175
▁calves	-11.9175
▁shining	-11.9175
▁burrow	-11.9175
▁delhi	-11.9175
▁silly	-11.9176
martial	-11.9177
scope	-11.9177
▁leonid	-11.9184
angular	-11.9185
▁pathway	-11.9187
▁pollinat	-11.92
▁dodge	-11.9205
▁torch	-11.9217
▁bohemia	-11.9268
kreis	-11.9283
1980	-11.9297
▁scrap	-11.936
gatherers	-11.9367
▁overlap	-11.939
"1"	-11.9393
draw	-11.9728
america	-11.9729
molecul	-11.9751
minute	-11.9751
mobile	-11.9752
perfect	-11.9752
hindu	-11.9752
generation	-11.9752
wonder	-11.9752
symbol	-11.9752
catholic	-11.9752
female	-11.9752
washington	-11.9752
computer	-11.9752
australia	-11.9752
women	-11.9752
spoken	-11.9752
again	-11.9753
league	-11.9753
text	-11.9756
▁settl	-11.9805
▁steer	-11.9809
▁suppose	-11.9813
▁swor	-11.9815
▁silica	-11.9818
▁whil	-11.9819
▁smile	-11.9821
▁linguist	-11.983
▁subtract	-11.9833
▁municipal	-11.9834
▁conscious	-11.9835
▁bankrupt	-11.9836
▁kidnap	-11.9837
microscopic	-11.9837
falciparum	-11.9837
sufficient	-11.9837
▁beryllium	-11.9837
▁claudius	-11.9837
▁communion	-11.9837
▁confidence	-11.9837
▁confusing	-11.9837
▁cortés	-11.9837
▁covalent	-11.9837
▁creativity	-11.9837
▁cytoplasm	-11.9837
▁declining	-11.9837
▁forbidden	-11.9837
▁fulfill	-11.9837
▁gautama	-11.9837
▁grabowski	-11.9837
▁honolulu	-11.9837
▁honshu	-11.9837
▁hyaena	-11.9837
▁jurisdiction	-11.9837
▁legislation	-11.9837
▁leopold	-11.9837
▁liechtenstein	-11.9837
▁lumpur	-11.9837
▁machiavelli	-11.9837
▁milwaukee	-11.9837
▁mistress	-11.9837
▁nicaragua	-11.9837
▁pornographic	-11.9837
▁proposal	-11.9837
▁raffles	-11.9837
▁significance	-11.9837
▁stewart	-11.9837
▁stockholm	-11.9837
▁subdivid	-11.9837
▁symphonies	-11.9837
▁vultures	-11.9837
▁yanukovych	-11.9837
▁zoroastrianism	-11.9837
▁aesthetic	-11.9837
▁bacterium	-11.9837
▁clergy	-11.9837
▁comoros	-11.9837
▁exponentiation	-11.9837
▁khrushchev	-11.9837
▁nicholson	-11.9837
▁nominee	-11.9837
▁sunderland	-11.9837
▁surgeries	-11.9837
argyle	-11.9837
▁chapman	-11.9837
▁collision	-11.9837
▁compulsions	-11.9837
▁ethanol	-11.9837
▁ovaries	-11.9837
▁reflex	-11.9837
▁saruman	-11.9837
▁shuttle	-11.9837
▁taunton	-11.9837
▁watterson	-11.9837
▁kidnapped	-11.9837
critique	-11.9837
▁apollo	-11.9837
amylase	-11.9837
▁charlie	-11.9837
▁waffle	-11.9837
▁bafta	-11.9837
▁plaza	-11.9837
▁freebsd	-11.9837
▁deviation	-11.9837
▁baader	-11.9837
▁steroid	-11.9837
▁propell	-11.9837
▁arnold	-11.9837
▁kkk	-11.9837
▁salami	-11.9837
▁mordor	-11.9837
▁junta	-11.9837
▁1872	-11.9837
▁bombay	-11.9837
▁nectar	-11.9837
▁blessed	-11.9837
▁steady	-11.9837
▁choreograph	-11.9837
unwanted	-11.9837
▁refract	-11.9837
▁clyde	-11.9838
▁ornament	-11.9838
▁electrolysis	-11.9838
://	-11.9838
▁susie	-11.9838
▁indirectly	-11.9838
▁masterpiece	-11.9838
▁consulship	-11.9838
▁chrys	-11.9838
▁neighbourhood	-11.9838
▁sandwich	-11.9838
▁altman	-11.9838
▁ugly	-11.9839
▁bedroom	-11.9839
▁conrad	-11.9839
▁carrier	-11.9839
▁collins	-11.9839
▁paragraph	-11.9839
intensive	-11.9839
▁edible	-11.984
▁assyria	-11.984
▁collide	-11.9841
peptic	-11.9841
▁orchid	-11.9842
▁moult	-11.9844
italics	-11.9847
donnell	-11.9851
▁faroe	-11.9851
▁cauda	-11.9851
ethyl	-11.9854
▁sigm	-11.9856
▁weave	-11.9943
▁damag	-12.0122
▁macedon	-12.0249
▁owl	-12.0297
▁netherland	-12.0299
stral	-12.0313
▁nitr	-12.0341
▁feather	-12.0372
▁tasman	-12.0417
establish	-12.0465
wolf	-12.0466
defense	-12.0466
popeye	-12.0466
record	-12.0466
protect	-12.0466
december	-12.0467
captain	-12.0467
prince	-12.0468
sweet	-12.0468
colour	-12.0469
▁profession	-12.0483
▁educat	-12.0511
▁maun	-12.0526
residency	-12.0549
aternal	-12.0549
neptun	-12.0551
▁shrink	-12.0551
▁argentine	-12.0551
▁elevator	-12.0551
▁epiphany	-12.0551
▁giraffe	-12.0551
▁reggae	-12.0551
▁tokelau	-12.0551
commutative	-12.0551
fertilized	-12.0551
persuaded	-12.0551
possibilities	-12.0551
▁abolition	-12.0551
▁accomplish	-12.0551
▁admission	-12.0551
▁aperture	-12.0551
▁appalachian	-12.0551
▁assessment	-12.0551
▁astrophysics	-12.0551
▁bangkok	-12.0551
▁boromir	-12.0551
▁browsing	-12.0551
▁byzantium	-12.0551
▁cellulose	-12.0551
▁ceramic	-12.0551
▁colchester	-12.0551
▁compatible	-12.0551
▁copyleft	-12.0551
▁depressed	-12.0551
▁devastated	-12.0551
▁diabetics	-12.0551
▁diaphragm	-12.0551
▁dissolution	-12.0551
▁easiest	-12.0551
▁eccentric	-12.0551
▁edmund	-12.0551
▁emphysema	-12.0551
▁empress	-12.0551
▁eurozone	-12.0551
▁evangelical	-12.0551
▁expelled	-12.0551
▁furnace	-12.0551
▁griffith	-12.0551
▁hallucinations	-12.0551
▁indochina	-12.0551
▁jakarta	-12.0551
▁jonathan	-12.0551
▁lancaster	-12.0551
▁liberated	-12.0551
▁mandrake	-12.0551
▁marathon	-12.0551
▁mestizo	-12.0551
▁northumberland	-12.0551
▁numerical	-12.0551
▁opportunities	-12.0551
▁papyrus	-12.0551
▁proprietary	-12.0551
▁reconstruction	-12.0551
▁recycled	-12.0551
▁replication	-12.0551
▁scissors	-12.0551
▁scream	-12.0551
▁strategies	-12.0551
▁sulfate	-12.0551
▁swahili	-12.0551
▁syntax	-12.0551
▁torvalds	-12.0551
▁transliterat	-12.0551
▁tributary	-12.0551
▁tucumán	-12.0551
▁vanuatu	-12.0551
▁wolsey	-12.0551
▁wormwood	-12.0551
▁yogurt	-12.0551
▁childbirth	-12.0551
▁consort	-12.0551
▁covenant	-12.0551
▁galleries	-12.0551
▁goryeo	-12.0551
▁hazard	-12.0551
▁leisure	-12.0551
▁maidstone	-12.0551
▁proletariat	-12.0551
▁registr	-12.0551
▁constance	-12.0551
▁duvall	-12.0551
▁manifest	-12.0551
▁miguel	-12.0551
▁silence	-12.0551
▁syrup	-12.0551
▁wagner	-12.0551
▁courage	-12.0551
▁therapist	-12.0551
▁wwii	-12.0551
▁athenian	-12.0551
▁hewitt	-12.0551
▁scotia	-12.0551
▁preparing	-12.0551
▁janeiro	-12.0551
▁garlic	-12.0551
▁lumber	-12.0551
▁margot	-12.0551
▁stereo	-12.0551
▁corrode	-12.0551
▁inspect	-12.0551
▁oahu	-12.0551
▁senshi	-12.0551
▁exceed	-12.0551
▁gordon	-12.0551
▁disguise	-12.0551
▁truce	-12.0551
▁abnormal	-12.0552
▁pelvi	-12.0552
▁tallinn	-12.0552
▁flint	-12.0552
▁beverage	-12.0552
▁fireworks	-12.0552
▁cathars	-12.0552
▁scratch	-12.0552
▁codice	-12.0552
▁truro	-12.0552
fleisch	-12.0552
▁derives	-12.0552
▁coincide	-12.0552
▁circulatory	-12.0552
▁interference	-12.0552
▁manuel	-12.0552
▁floss	-12.0552
triumph	-12.0552
▁surname	-12.0552
▁abbot	-12.0552
▁zeno	-12.0552
leslie	-12.0552
▁toppings	-12.0552
▁differentiation	-12.0552
▁taboo	-12.0552
▁rubbed	-12.0552
▁isthmus	-12.0553
krypto	-12.0553
▁mourn	-12.0553
▁1/3	-12.0555
▁urina	-12.0559
ldest	-12.0567
▁1/2	-12.0569
building	-12.0579
certainty	-12.0581
woj	-12.0584
▁crisp	-12.0589
cumbe	-12.0597
ceased	-12.0665
▁designat	-12.0911
▁definite	-12.0969
▁organiz	-12.0986
frei	-12.1002
▁spear	-12.1066
▁headquarter	-12.1067
▁promot	-12.1136
▁disturb	-12.1192
▁urge	-12.1204
friends	-12.1234
divine	-12.1234
breaking	-12.1235
saturday	-12.1235
defence	-12.1235
typical	-12.1235
murder	-12.1236
christian	-12.1236
secret	-12.1236
different	-12.1236
italian	-12.1236
street	-12.1239
operative	-12.1259
▁glori	-12.1319
▁magnify	-12.1321
symmetry	-12.1321
▁accuracy	-12.1321
▁advocate	-12.1321
▁anthrax	-12.1321
▁baptized	-12.1321
▁bessarabia	-12.1321
▁bryophyte	-12.1321
▁buchanan	-12.1321
▁cascade	-12.1321
▁caucasus	-12.1321
▁cavalry	-12.1321
▁cheddar	-12.1321
▁chennai	-12.1321
▁clitoris	-12.1321
▁condensation	-12.1321
▁conservatism	-12.1321
▁conservato	-12.1321
▁criteria	-12.1321
▁custody	-12.1321
▁deciduous	-12.1321
▁disrupt	-12.1321
▁dramatically	-12.1321
▁eclipse	-12.1321
▁equivalence	-12.1321
▁flavour	-12.1321
▁grandchildren	-12.1321
▁groningen	-12.1321
▁illustration	-12.1321
▁illustrator	-12.1321
▁immunology	-12.1321
▁inhibitors	-12.1321
▁kinematics	-12.1321
▁lebanese	-12.1321
▁mauritania	-12.1321
▁medulla	-12.1321
▁microprocessor	-12.1321
▁millimeter	-12.1321
▁misérables	-12.1321
▁nagasaki	-12.1321
▁omnivores	-12.1321
▁pilgrims	-12.1321
▁quantitative	-12.1321
▁rivendell	-12.1321
▁rohirrim	-12.1321
▁schubert	-12.1321
▁semiconductor	-12.1321
▁simultaneously	-12.1321
▁spherical	-12.1321
▁squash	-12.1321
▁stevie	-12.1321
▁suffolk	-12.1321
▁supremacy	-12.1321
▁thermodynamics	-12.1321
▁thuringia	-12.1321
▁tomatoes	-12.1321
▁torpedo	-12.1321
▁treason	-12.1321
▁unconscious	-12.1321
▁unhealthy	-12.1321
▁volkswagen	-12.1321
▁zeppelin	-12.1321
▁zygote	-12.1321
▁andromeda	-12.1321
▁cathode	-12.1321
▁delegate	-12.1321
▁distress	-12.1321
▁mazda	-12.1321
▁mugabe	-12.1321
▁multiplayer	-12.1321
▁nanometers	-12.1321
▁tundra	-12.1321
▁vapour	-12.1321
▁withdrew	-12.1321
▁accessories	-12.1321
▁counsel	-12.1321
▁disgust	-12.1321
▁kepler	-12.1321
▁nonmetal	-12.1321
▁perimeter	-12.1321
▁snoop	-12.1321
▁tumour	-12.1321
▁cleves	-12.1321
▁harvey	-12.1321
▁malleable	-12.1321
▁mosaic	-12.1321
▁thorax	-12.1321
▁asimov	-12.1321
▁dallas	-12.1321
▁gauge	-12.1321
▁openbsd	-12.1321
▁outlook	-12.1321
▁sneak	-12.1321
▁sunflower	-12.1321
integral	-12.1321
▁dragonfly	-12.1321
▁rigid	-12.1321
▁venue	-12.1321
▁lagoon	-12.1321
▁terrain	-12.1321
▁rubbing	-12.1321
▁ceiling	-12.1321
▁1791	-12.1321
▁genius	-12.1321
▁droplets	-12.1321
▁spoil	-12.1321
▁histories	-12.1321
▁hotspot	-12.1321
▁gordy	-12.1321
▁mersey	-12.1321
▁(1996)	-12.1321
▁wagon	-12.1321
▁basalt	-12.1321
▁congesti	-12.1321
▁corsica	-12.1321
▁ibm	-12.1321
▁groove	-12.1321
▁antoine	-12.1321
▁confine	-12.1321
▁acclaim	-12.1321
▁artery	-12.1322
▁personnel	-12.1322
▁revolve	-12.1322
maurice	-12.1322
hawai	-12.1322
▁oriole	-12.1323
petrol	-12.1324
▁wicca	-12.1325
macrop	-12.1326
krona	-12.1327
camellia	-12.1329
xander	-12.1333
euclidean	-12.1338
metamorph	-12.1359
modal	-12.138
cursor	-12.1404
moving	-12.1501
strous	-12.1531
justified	-12.1634
▁vibrat	-12.1652
devil	-12.1746
alphabetical	-12.1854
▁symptom	-12.1901
russia	-12.2048
happy	-12.2065
double	-12.2069
electron	-12.2069
positive	-12.2069
physics	-12.2069
gothic	-12.2069
gravity	-12.2069
emperor	-12.2069
“	-12.2069
information	-12.2069
between	-12.2069
english	-12.2069
slavery	-12.2069
major	-12.2069
complete	-12.207
church	-12.207
effect	-12.208
▁erupt	-12.2099
▁inhabit	-12.2117
▁collaborat	-12.214
▁federat	-12.2153
▁anthrop	-12.2153
▁interfere	-12.2154
▁consolidat	-12.2154
▁schleswig	-12.2154
▁suffrage	-12.2154
caucasian	-12.2154
cholesterolemia	-12.2154
cleopatra	-12.2154
fortepiano	-12.2154
identifies	-12.2154
satisfied	-12.2154
segregated	-12.2154
▁amplitude	-12.2154
▁amusement	-12.2154
▁antwerp	-12.2154
▁artifacts	-12.2154
▁biographies	-12.2154
▁casserole	-12.2154
▁cigarette	-12.2154
▁convenience	-12.2154
▁cyrillic	-12.2154
▁diaspora	-12.2154
▁disadvantage	-12.2154
▁embassies	-12.2154
▁enormous	-12.2154
▁epidemiology	-12.2154
▁excluded	-12.2154
▁gloucester	-12.2154
▁goalkeeper	-12.2154
▁grammatical	-12.2154
▁identities	-12.2154
▁incarnation	-12.2154
▁inferior	-12.2154
▁kashmir	-12.2154
▁krishna	-12.2154
▁lancashire	-12.2154
▁lantern	-12.2154
▁luftwaffe	-12.2154
▁mandriva	-12.2154
▁mechanist	-12.2154
▁monotremes	-12.2154
▁monoxide	-12.2154
▁morissette	-12.2154
▁norfolk	-12.2154
▁octet	-12.2154
▁oppression	-12.2154
▁parodies	-12.2154
▁patricia	-12.2154
▁pesticides	-12.2154
▁prosecute	-12.2154
▁punjab	-12.2154
▁purchasing	-12.2154
▁rutherford	-12.2154
▁sagendorf	-12.2154
▁salzburg	-12.2154
▁stephanie	-12.2154
▁sublimation	-12.2154
▁substantial	-12.2154
▁syllogism	-12.2154
▁synthesize	-12.2154
▁temporarily	-12.2154
▁tottenham	-12.2154
▁vandalism	-12.2154
▁velvet	-12.2154
semitism	-12.2154
▁anthropologists	-12.2154
▁compatibility	-12.2154
▁heaviest	-12.2154
▁jealous	-12.2154
▁kinsey	-12.2154
▁memoir	-12.2154
▁myanmar	-12.2154
▁nonetheless	-12.2154
▁remarkable	-12.2154
▁reznor	-12.2154
▁stardust	-12.2154
▁substrate	-12.2154
▁sussex	-12.2154
▁valentine	-12.2154
▁alligator	-12.2154
▁lactose	-12.2154
▁menstruation	-12.2154
▁substitute	-12.2154
▁enamel	-12.2154
▁fierce	-12.2154
▁mughal	-12.2154
▁pixel	-12.2154
hydroelectricity	-12.2154
▁bucket	-12.2154
▁iberian	-12.2154
▁lambert	-12.2154
▁zedong	-12.2154
▁1805	-12.2154
▁botanist	-12.2154
▁cacao	-12.2154
▁clues	-12.2154
▁grenade	-12.2154
▁safari	-12.2154
▁utility	-12.2154
masjid	-12.2154
▁flattened	-12.2154
▁reunion	-12.2154
▁batavia	-12.2154
▁lapland	-12.2154
▁relocat	-12.2154
▁(2002)	-12.2154
▁rhyme	-12.2154
▁implie	-12.2154
▁likewise	-12.2154
▁tirith	-12.2154
▁kermit	-12.2154
▁rouge	-12.2154
▁caliph	-12.2154
▁clash	-12.2154
▁hepburn	-12.2154
▁permian	-12.2154
▁reeves	-12.2154
▁accusations	-12.2154
▁venom	-12.2154
▁absence	-12.2154
▁ahmad	-12.2154
▁awareness	-12.2154
▁patriot	-12.2154
▁entities	-12.2154
▁organelle	-12.2154
▁ramones	-12.2154
▁whipp	-12.2154
hangeul	-12.2154
▁delusion	-12.2154
proxima	-12.2154
▁sherman	-12.2154
▁mustache	-12.2154
▁wtc	-12.2155
barbarian	-12.2155
▁ladies	-12.2155
defining	-12.2155
▁teammate	-12.2155
meiji	-12.2155
▁genoa	-12.2155
intestin	-12.2162
▁subsidi	-12.2164
▁emphasize	-12.2176
▁activate	-12.218
weird	-12.2188
▁mandate	-12.2188
hymn	-12.219
▁simplif	-12.2275
▁subfamil	-12.2345
dropping	-12.2431
dustrialization	-12.2448
fashioned	-12.2502
definitely	-12.255
intentional	-12.2709
relative	-12.2723
▁ingredient	-12.2809
▁templ	-12.2944
technical	-12.2978
violent	-12.2978
fiction	-12.2978
violence	-12.2978
protein	-12.2978
michael	-12.2978
oxygen	-12.2978
chinese	-12.2978
radio	-12.2983
sahara	-12.2989
▁achiev	-12.2994
▁restrict	-12.3026
▁administer	-12.3063
▁accompany	-12.3063
▁embarrass	-12.3063
▁epistemolog	-12.3063
▁improper	-12.3063
▁qualify	-12.3063
explicit	-12.3063
napoléon	-12.3063
▁adolescent	-12.3063
▁aeronautic	-12.3063
▁antelope	-12.3063
▁aykroyd	-12.3063
▁berkshire	-12.3063
▁capillaries	-12.3063
▁cassandra	-12.3063
▁clownfish	-12.3063
▁compiled	-12.3063
▁comprehensive	-12.3063
▁conjunction	-12.3063
▁conquistador	-12.3063
▁cowpox	-12.3063
▁decreasing	-12.3063
▁departure	-12.3063
▁discontinued	-12.3063
▁displacement	-12.3063
▁eukaryotic	-12.3063
▁fibonacci	-12.3063
▁fragile	-12.3063
▁fragment	-12.3063
▁fretboard	-12.3063
▁genuine	-12.3063
▁geographer	-12.3063
▁grenada	-12.3063
▁gunpowder	-12.3063
▁gymnasium	-12.3063
▁hcmc	-12.3063
▁herbivorous	-12.3063
▁hermaphrodite	-12.3063
▁herzegovina	-12.3063
▁hierarchy	-12.3063
▁honduras	-12.3063
▁ideologies	-12.3063
▁immortal	-12.3063
▁impulse	-12.3063
▁innocence	-12.3063
▁kangaroo	-12.3063
▁kindergarten	-12.3063
▁kolkata	-12.3063
▁kosovo	-12.3063
▁librarian	-12.3063
▁luxemburg	-12.3063
▁memphis	-12.3063
▁moldavia	-12.3063
▁pedipalps	-12.3063
▁penelope	-12.3063
▁phenomenon	-12.3063
▁philanthropist	-12.3063
▁pleasurable	-12.3063
▁popocatépetl	-12.3063
▁potsdam	-12.3063
▁pregnancies	-12.3063
▁prokaryot	-12.3063
▁protease	-12.3063
▁pythagoras	-12.3063
▁recycling	-12.3063
▁repetitive	-12.3063
▁rochester	-12.3063
▁salisbury	-12.3063
▁sfsr	-12.3063
▁sikhism	-12.3063
▁squarepants	-12.3063
▁starbucks	-12.3063
▁subordinate	-12.3063
▁sulphur	-12.3063
▁surprising	-12.3063
▁thieves	-12.3063
▁tornadoes	-12.3063
▁trolley	-12.3063
▁trophies	-12.3063
▁umbrella	-12.3063
▁uncyclopedia	-12.3063
▁uzbekistan	-12.3063
▁voivodeship	-12.3063
$	-14.2353
